{
  "}": 1065,
  "prospect": 9824,
  "logic": 7961,
  "edna": 21051,
  "[unused645]": 650,
  "weightlifting": 29305,
  "chelsea": 9295,
  "ariel": 16126,
  "christopher": 5696,
  "hiking": 13039,
  "hawaii": 7359,
  "sheath": 21867,
  "thugs": 24106,
  "present": 2556,
  "graeme": 21840,
  "clicked": 13886,
  "survived": 5175,
  "[unused809]": 814,
  "opener": 16181,
  "navajo": 22440,
  "gloucestershire": 15905,
  "listener": 19373,
  "intel": 13420,
  "lust": 11516,
  "declare": 13520,
  "felicity": 27357,
  "expedition": 5590,
  "jumping": 8660,
  "arcade": 10877,
  "centrally": 25497,
  "[unused405]": 410,
  "expenditure": 20700,
  "votes": 4494,
  "revenues": 12594,
  "bye": 9061,
  "affecting": 12473,
  "wrongly": 29116,
  "##dge": 11818,
  "torpedoes": 18544,
  "##riety": 27840,
  "niall": 21889,
  "ridge": 5526,
  "snorted": 15235,
  "lds": 17627,
  "帝": 1838,
  "##nais": 28020,
  "suppose": 6814,
  "##bs": 5910,
  "grooves": 25880,
  "[unused410]": 415,
  "obligations": 14422,
  "##die": 10265,
  "tingle": 25792,
  "hormone": 18714,
  "dye": 18554,
  "hines": 25445,
  "postwar": 20013,
  "servant": 7947,
  "##ice": 6610,
  "##?": 29632,
  "dee": 9266,
  "operates": 5748,
  "pistol": 8779,
  "##istles": 28738,
  "font": 15489,
  "persian": 4723,
  "emissions": 11768,
  "crete": 19111,
  "##vn": 16022,
  "stalls": 19753,
  "##地": 30328,
  "optimistic": 21931,
  "aeronautical": 25010,
  "t": 1056,
  "foods": 9440,
  "hydrogen": 9732,
  "ric": 26220,
  "kong": 4290,
  "##ᄊ": 29998,
  "packard": 24100,
  "##rissa": 26571,
  "protecting": 8650,
  "##usions": 22016,
  "sentencing": 23280,
  "armies": 8749,
  "assaulted": 17536,
  "rubin": 20524,
  "valued": 11126,
  "部": 1960,
  "prescott": 20719,
  "senegal": 16028,
  "chinese": 2822,
  "ල": 1406,
  "[unused106]": 111,
  "##क": 29851,
  "buzzed": 21377,
  "gunpowder": 22220,
  "##ante": 12956,
  "beach": 3509,
  "nine": 3157,
  "thru": 27046,
  "##ther": 12399,
  "broader": 12368,
  "investigation": 4812,
  "depends": 9041,
  "position": 2597,
  "gabled": 26182,
  "roared": 14242,
  "roads": 4925,
  "initiated": 7531,
  "successes": 14152,
  "colors": 6087,
  "beetle": 7813,
  "##ager": 17325,
  "[unused148]": 153,
  "##食": 30504,
  "##ont": 12162,
  "kata": 29354,
  "reynolds": 9579,
  "##creen": 24410,
  "hastings": 12296,
  "ghostly": 24407,
  "ვ": 1443,
  "icons": 18407,
  "silent": 4333,
  "jensen": 14857,
  "1649": 26538,
  "##अ": 29847,
  "loads": 15665,
  "##ieg": 28872,
  "record": 2501,
  "diminished": 15911,
  "substantially": 12381,
  "belt": 5583,
  "reginald": 14435,
  "paper": 3259,
  "blow": 6271,
  "##উ": 29886,
  "##valent": 24879,
  "stalker": 23883,
  "##´": 29658,
  "marina": 9985,
  "slit": 18036,
  "nwa": 15737,
  "tan": 9092,
  "transgender": 16824,
  "poe": 18922,
  "slalom": 19617,
  "enforced": 16348,
  "edison": 17046,
  "velocity": 10146,
  "psychiatry": 18420,
  "##張": 30370,
  "illegal": 6206,
  "##500": 29345,
  "gaza": 14474,
  "aj": 19128,
  "interacting": 21935,
  "シ": 1706,
  "##gard": 13444,
  "rubs": 28860,
  "proportional": 14267,
  "punish": 16385,
  "##lake": 14530,
  "1935": 4437,
  "##25": 17788,
  "163": 17867,
  "mana": 24951,
  "evident": 10358,
  "arctic": 10162,
  "sonar": 24609,
  "瀬": 1905,
  "##bial": 21102,
  "revenue": 6599,
  "640": 19714,
  "##cake": 17955,
  "curb": 13730,
  "pendleton": 24349,
  "resignation": 8172,
  "[unused317]": 322,
  "##nail": 25464,
  "ב": 1242,
  "academics": 15032,
  "has": 2038,
  "prototype": 8773,
  "##gano": 29451,
  "factual": 25854,
  "##─": 30142,
  "##ensburg": 28812,
  "##49": 26224,
  "tow": 15805,
  "sts": 8541,
  "protege": 28567,
  "consequently": 8821,
  "[unused63]": 64,
  "colourful": 26102,
  "##ъ": 29755,
  "##eric": 22420,
  "probability": 9723,
  "massif": 24875,
  "secretary": 3187,
  "automobile": 9935,
  "##ign": 23773,
  "powerless": 25192,
  "slightest": 15989,
  "grimly": 22561,
  "##ttal": 28200,
  "custer": 28888,
  "captains": 15755,
  "local": 2334,
  "exiles": 27127,
  "##sis": 6190,
  "delgado": 26532,
  "[unused138]": 143,
  "liquid": 6381,
  "toilets": 21674,
  "ah": 6289,
  "humanity": 8438,
  "flotilla": 17150,
  "##ification": 9031,
  "dome": 8514,
  "constraint": 27142,
  "wetland": 22217,
  "tiny": 4714,
  "chile": 7029,
  "accidents": 13436,
  "rub": 14548,
  "[unused192]": 197,
  "##lich": 18337,
  "peeking": 28222,
  "148": 16459,
  "disneyland": 25104,
  "freedom": 4071,
  "[unused281]": 286,
  "strict": 9384,
  "riverside": 12497,
  "##cal": 9289,
  "provinces": 6941,
  "decrees": 28966,
  "touched": 5028,
  "fused": 19660,
  "bianca": 18051,
  "##ов": 19259,
  "demeanor": 21745,
  "bobbie": 27731,
  "dimensions": 9646,
  "jett": 22962,
  "attache": 29489,
  "diploma": 9827,
  "##hg": 25619,
  "##ggio": 20650,
  "historians": 7862,
  "##lary": 28221,
  "twenties": 18946,
  "groningen": 29070,
  "##ugh": 8953,
  "cockpit": 13828,
  "uncanny": 28953,
  "absorbed": 9063,
  "closest": 7541,
  "accredited": 11459,
  "##relli": 22948,
  "[unused973]": 978,
  "enacted": 11955,
  "##card": 11522,
  "banner": 9484,
  "bargain": 17113,
  "sentiments": 23541,
  "agile": 29003,
  "##―": 30053,
  "beverages": 21705,
  "cutter": 16343,
  "tel": 10093,
  "[unused206]": 211,
  "gardening": 21529,
  "discount": 19575,
  "internet": 4274,
  "watts": 11042,
  "originals": 23728,
  "exhaust": 15095,
  "##tv": 9189,
  "resonance": 17011,
  "paxton": 27765,
  "fragment": 15778,
  "##འ": 29969,
  "famously": 18172,
  "jupiter": 13035,
  "taps": 25316,
  "revival": 6308,
  "greed": 22040,
  "##ruff": 26919,
  "shops": 7340,
  "aura": 15240,
  "##mans": 15154,
  "paralyzed": 22348,
  "metropolis": 18236,
  "shaved": 20665,
  "witty": 25591,
  "inwardly": 28710,
  "organising": 21317,
  "##ে": 29917,
  "playback": 18245,
  "##izzly": 29266,
  "gail": 18576,
  "[unused365]": 370,
  "hermit": 24308,
  "outer": 6058,
  "casualty": 19844,
  "slope": 9663,
  "sailed": 7434,
  "minute": 3371,
  "probing": 28664,
  "governance": 10615,
  "stone": 2962,
  "collaborators": 21315,
  "novak": 19580,
  "[unused858]": 863,
  "equal": 5020,
  "##rral": 24988,
  "columbian": 25882,
  "[unused776]": 781,
  "salvation": 12611,
  "originate": 21754,
  "世": 1745,
  "bey": 20289,
  "##ა": 29974,
  "this": 2023,
  "games": 2399,
  "##lux": 25148,
  "##ural": 11137,
  "fiber": 11917,
  "hymn": 14825,
  "consular": 27326,
  "accomplished": 8885,
  "annapolis": 24889,
  "##zziness": 29212,
  "##rrigan": 28706,
  "stade": 15649,
  "migrate": 22806,
  "211": 19235,
  "revenge": 7195,
  "miracle": 9727,
  "deception": 17575,
  "investigators": 14766,
  "##ev": 6777,
  "falls": 4212,
  "[unused300]": 305,
  "##ative": 8082,
  "tip": 5955,
  "##owa": 21293,
  "##[": 29634,
  "argues": 9251,
  "##ola": 6030,
  "##zbek": 28733,
  "ludwig": 10302,
  "operate": 5452,
  "fans": 4599,
  "1949": 4085,
  "southern": 2670,
  "lodge": 7410,
  "spy": 8645,
  "有": 1873,
  "footprints": 24629,
  "israeli": 5611,
  "##building": 25820,
  "friendship": 6860,
  "estate": 3776,
  "##dant": 28210,
  "##tie": 9515,
  "climbing": 8218,
  "deer": 8448,
  "enslaved": 22216,
  "writers": 4898,
  "jaguars": 24017,
  "nike": 18368,
  "##tam": 15464,
  "who": 2040,
  "exhausted": 9069,
  "informing": 21672,
  "seat": 2835,
  "covent": 29456,
  "[unused811]": 816,
  "holmes": 9106,
  "republicans": 10643,
  "##uria": 27703,
  "arching": 27335,
  "rusty": 13174,
  "prized": 25695,
  "names": 3415,
  "substitution": 20885,
  "##alis": 13911,
  "rightful": 27167,
  "erupted": 12591,
  "[unused44]": 45,
  "discontinued": 8944,
  "chances": 9592,
  "reinforcements": 14214,
  "cautiously": 15151,
  "date": 3058,
  "evil": 4763,
  "fast": 3435,
  "madame": 10602,
  "##tom": 20389,
  "begging": 12858,
  "philips": 19087,
  "gibson": 9406,
  "sheppard": 24976,
  "ambushed": 22168,
  "gun": 3282,
  "[unused817]": 822,
  "322": 23768,
  "328": 25256,
  "natal": 17489,
  "##®": 29656,
  "duel": 14216,
  "fraction": 12884,
  "##ね": 30196,
  "better": 2488,
  "commando": 15054,
  "297": 27502,
  "itf": 27682,
  "type": 2828,
  "examiner": 19684,
  "##uce": 18796,
  "christophe": 23978,
  "##tidae": 21861,
  "outsiders": 22361,
  "##ifolia": 29244,
  "racing": 3868,
  "crew": 3626,
  "alberta": 7649,
  "wu": 8814,
  "fashion": 4827,
  "mortimer": 17416,
  "bernie": 15941,
  "stakeholders": 22859,
  "##cb": 27421,
  "resist": 9507,
  "##jou": 23099,
  "##uch": 10875,
  "rhythmic": 14797,
  "regular": 3180,
  "michelangelo": 27701,
  "[unused978]": 983,
  "##ρ": 29732,
  "precautions": 29361,
  "arun": 28217,
  "unable": 4039,
  "##thor": 27844,
  "suspended": 6731,
  "shields": 11824,
  "stroll": 27244,
  "miles": 2661,
  "argus": 25294,
  "ancestral": 14947,
  "##ovich": 12303,
  "ヒ": 1719,
  "259": 25191,
  "ᴵ": 1493,
  "193": 19984,
  "54th": 29570,
  "teen": 9458,
  "ク": 1702,
  "##san": 8791,
  "##bt": 19279,
  "waking": 12447,
  "hyper": 23760,
  "released": 2207,
  "naming": 10324,
  "improvements": 8377,
  "investing": 19920,
  "##urrent": 29264,
  "arson": 24912,
  "fivb": 28423,
  "easily": 4089,
  "overlook": 27590,
  "##lene": 11474,
  "##dorf": 11592,
  "tumbling": 21552,
  "manifesto": 17124,
  "darcy": 17685,
  "##sc": 11020,
  "turkmenistan": 25432,
  "decided": 2787,
  "disgrace": 29591,
  "##udes": 22087,
  "門": 1968,
  "benito": 23595,
  "spokane": 21878,
  "marxist": 15511,
  "gifted": 12785,
  "silesian": 20453,
  "[unused502]": 507,
  "blushed": 19370,
  "leiden": 20329,
  "hopper": 20517,
  "opposition": 4559,
  "##？": 30520,
  "capt": 14408,
  "ems": 29031,
  "croatian": 7963,
  "gutierrez": 20836,
  "appoint": 16823,
  "里": 1962,
  "ensign": 19890,
  "##mun": 23041,
  "mastered": 15682,
  "fracture": 19583,
  "fiscal": 10807,
  "orthogonal": 28721,
  "tucker": 9802,
  "mosquito": 22529,
  "bled": 23919,
  "##phus": 25255,
  "dwellers": 28857,
  "panther": 15133,
  "expressing": 14026,
  "##verance": 21998,
  "spotting": 27963,
  "க": 1382,
  "pigs": 14695,
  "stil": 25931,
  "situations": 8146,
  "patented": 16719,
  "meaning": 3574,
  "escape": 4019,
  "##iche": 17322,
  "kicks": 14590,
  "crazed": 28343,
  "hawthorn": 21671,
  "##男": 30438,
  "client": 7396,
  "temptation": 17232,
  "collaborations": 17437,
  "##ador": 26467,
  "somali": 16831,
  "malik": 14360,
  "biotechnology": 20353,
  "strasbourg": 18104,
  "##olt": 27914,
  "∂": 1592,
  "##rative": 18514,
  "wrestling": 4843,
  "##ntino": 25318,
  "devout": 26092,
  "ω": 1179,
  "basal": 15191,
  "another": 2178,
  "separate": 3584,
  "micah": 17665,
  "panama": 8515,
  "##pic": 24330,
  "confesses": 22826,
  "bromwich": 27888,
  "##ふ": 30200,
  "##tucket": 29315,
  "app": 10439,
  "##uls": 28426,
  "popcorn": 24593,
  "1903": 5778,
  "[unused856]": 861,
  "mentioned": 3855,
  "aimee": 23551,
  "##world": 11108,
  "antibiotics": 24479,
  "##jer": 20009,
  "functioning": 12285,
  "washed": 8871,
  "smack": 21526,
  "nl": 17953,
  "settler": 18556,
  "slide": 7358,
  "202": 16798,
  "##bos": 15853,
  "##naire": 20589,
  "vatican": 12111,
  "[unused418]": 423,
  "##ars": 11650,
  "energy": 2943,
  "1867": 7517,
  "##gee": 18372,
  "disused": 26958,
  "armistice": 19125,
  "signals": 7755,
  "##ified": 7810,
  "charismatic": 23916,
  "lama": 18832,
  "hamid": 24811,
  "customized": 28749,
  "rachel": 5586,
  "pad": 11687,
  "arguing": 9177,
  "build": 3857,
  "apprenticeship": 20448,
  "cheney": 23745,
  "nightingale": 21771,
  "bce": 10705,
  "pre": 3653,
  "vines": 16702,
  "halves": 23672,
  "premio": 23031,
  "worcester": 12539,
  "browne": 15005,
  "purchased": 4156,
  "violating": 20084,
  "combat": 4337,
  "watery": 28259,
  "levine": 17780,
  "burlington": 15552,
  "patton": 18090,
  "perez": 10730,
  "##後": 30372,
  "fundamental": 8050,
  "##fan": 15143,
  "vc": 18315,
  "##buck": 24204,
  "favourite": 8837,
  "titles": 4486,
  "gang": 6080,
  "hume": 20368,
  "calculation": 17208,
  "beautiful": 3376,
  "merchant": 6432,
  "chewed": 18362,
  "musical": 3315,
  "##bre": 13578,
  "atmospheric": 12483,
  "##yd": 25688,
  "##teacher": 24741,
  "ideology": 13165,
  "bats": 12236,
  "##walk": 17122,
  "##nsky": 25655,
  "brightened": 28996,
  "experimented": 20918,
  "sabotage": 20223,
  "gardens": 5822,
  "marianne": 19887,
  "##sms": 19230,
  "connie": 16560,
  "frantic": 15762,
  "##家": 30351,
  "crown": 4410,
  "lucky": 5341,
  "labelled": 18251,
  "ironic": 19313,
  "##llah": 18599,
  "keep": 2562,
  "prepare": 7374,
  "arrangements": 7565,
  "bohemian": 18063,
  "assure": 14306,
  "##combe": 14149,
  "mature": 9677,
  "standard": 3115,
  "egyptian": 6811,
  "tanks": 7286,
  "980": 25195,
  "electoral": 6092,
  "kiara": 28870,
  "attempted": 4692,
  "[unused427]": 432,
  "[unused284]": 289,
  "berry": 10498,
  "##iers": 10136,
  "1826": 11931,
  "王": 1909,
  "≈": 1606,
  "##lton": 13947,
  "nominee": 9773,
  "bingo": 27137,
  "jackie": 9901,
  "cruiser": 10844,
  "uniformed": 25189,
  "tilting": 21788,
  "lawyers": 9559,
  "practitioners": 14617,
  "noodles": 27130,
  "poor": 3532,
  "##cott": 13124,
  "##pressed": 19811,
  "major": 2350,
  "take": 2202,
  "16th": 5767,
  "##np": 16275,
  "affiliated": 6989,
  "cpi": 28780,
  "cultures": 8578,
  "buff": 23176,
  "differential": 11658,
  "advertisement": 15147,
  "[unused684]": 689,
  "[unused834]": 839,
  "ts": 24529,
  "wedding": 5030,
  "##logies": 21615,
  "##lf": 10270,
  "##puri": 24661,
  "##ants": 11390,
  "chao": 22455,
  "nestled": 22704,
  "##ほ": 30202,
  "steppe": 29096,
  "taped": 19374,
  "ama": 25933,
  "featuring": 3794,
  "##ian": 2937,
  "reacher": 22970,
  "##dicate": 16467,
  "##ᶠ": 30047,
  "[unused640]": 645,
  "225": 14993,
  "butch": 17520,
  "doomed": 20076,
  "[unused331]": 336,
  "perceive": 23084,
  "##nce": 5897,
  "wreckage": 21056,
  "ں": 1306,
  "dinah": 26562,
  "affiliation": 12912,
  "##edge": 24225,
  "brother": 2567,
  "##lvis": 28530,
  "replica": 15059,
  "##orted": 15613,
  "screwed": 14180,
  "sacks": 14918,
  "telecommunication": 25958,
  "graham": 5846,
  "experiences": 6322,
  "leroy": 19103,
  "##mine": 11233,
  "enjoyable": 22249,
  "₹": 1576,
  "##க": 29918,
  "[unused819]": 824,
  "##岡": 30358,
  "christi": 21359,
  "##most": 11800,
  "scowl": 19981,
  "##nnis": 27803,
  "bosch": 25936,
  "firstly": 15847,
  "monday": 6928,
  "vowed": 18152,
  "lucille": 28016,
  "##rak": 16555,
  "##場": 30332,
  "dot": 11089,
  "ra": 10958,
  "maintained": 5224,
  "##lto": 23223,
  "nedra": 28240,
  "[unused384]": 389,
  "brandy": 17951,
  "reacted": 14831,
  "selected": 3479,
  "า": 1422,
  "democratic": 3537,
  "swing": 7370,
  "satellites": 14549,
  "accomplishment": 24718,
  "generators": 16937,
  "acquired": 3734,
  "sheet": 7123,
  "amenities": 19870,
  "##dation": 20207,
  "poorer": 27196,
  "##hide": 26100,
  "downhill": 19448,
  "traction": 16493,
  "accent": 9669,
  "intentionally": 15734,
  "brooke": 11535,
  "phi": 13569,
  "dynamics": 10949,
  "rebellion": 7417,
  "applied": 4162,
  "travels": 7930,
  "corpses": 18113,
  "switch": 6942,
  "archdeacon": 21742,
  "barley": 21569,
  "nuevo": 22250,
  "##rber": 20473,
  "victim": 6778,
  "enclave": 25867,
  "##rat": 8609,
  "swarm": 21708,
  "##ici": 28775,
  "70th": 26934,
  "[unused917]": 922,
  "untitled": 24819,
  "##imov": 25299,
  "@": 1030,
  "##mina": 22311,
  "execute": 15389,
  "frontal": 19124,
  "sidewalk": 11996,
  "treated": 5845,
  "##vin": 6371,
  "embark": 28866,
  "saetan": 23515,
  "walnut": 18489,
  "rover": 13631,
  "##ss": 4757,
  "##eft": 29218,
  "evolutionary": 12761,
  "deeds": 15616,
  "brigadier": 9900,
  "shoved": 7468,
  "##ris": 6935,
  "ill": 5665,
  "rises": 9466,
  "sipping": 24747,
  "salazar": 25315,
  "colon": 16844,
  "meters": 5563,
  "##dna": 28911,
  "theoretically": 22634,
  "##bry": 25731,
  "civilian": 6831,
  "##islav": 19834,
  "[unused980]": 985,
  "[unused735]": 740,
  "offenses": 25173,
  "commencing": 25819,
  "90s": 17233,
  "tokugawa": 22065,
  "interfering": 24324,
  "dialogues": 22580,
  "spec": 28699,
  "willis": 12688,
  "##arte": 24847,
  "enthusiastically": 24935,
  "backbone": 21505,
  "vortex": 23463,
  "valentine": 10113,
  "lattice": 17779,
  "opinion": 5448,
  "eligible": 7792,
  "johanna": 21498,
  "johnny": 5206,
  "lionel": 14377,
  "##worm": 22769,
  "post": 2695,
  "rajasthan": 16815,
  "##ing": 2075,
  "##ony": 16585,
  "##cchi": 25955,
  "reliable": 10539,
  "nightly": 22390,
  "inning": 12994,
  "##est": 4355,
  "pulitzer": 17618,
  "frowns": 29303,
  "##bots": 27014,
  "[unused315]": 320,
  "rap": 9680,
  "##enko": 17868,
  "romero": 18290,
  "[unused448]": 453,
  "actual": 5025,
  "1953": 4052,
  "honor": 3932,
  "schwarz": 29058,
  "united": 2142,
  "##jure": 25243,
  "##bria": 21556,
  "##yk": 15922,
  "##ip": 11514,
  "dessert": 18064,
  "##adan": 26335,
  "##etz": 26327,
  "maj": 16686,
  "##oulos": 28262,
  "1843": 10075,
  "game": 2208,
  "[unused686]": 691,
  "36": 4029,
  "help": 2393,
  "journalist": 4988,
  "##pton": 15857,
  "turret": 14493,
  "##fo": 14876,
  "gulped": 25411,
  "##iq": 18515,
  "darker": 9904,
  "thornton": 14630,
  "neighborhood": 5101,
  "দ": 1364,
  "gravel": 11127,
  "ج": 1275,
  "##bil": 14454,
  "hebrew": 6836,
  "arrondissement": 20522,
  "rockets": 12496,
  "needing": 11303,
  "seminole": 28909,
  "##ny": 4890,
  "##duced": 28901,
  "eased": 10987,
  "hit": 2718,
  "wall": 2813,
  "iranian": 7726,
  "enables": 12939,
  "bright": 4408,
  "copies": 4809,
  "##piration": 16781,
  "[unused134]": 139,
  "suggested": 4081,
  "psycho": 18224,
  "holder": 9111,
  "stuck": 5881,
  "hudson": 6842,
  "siblings": 9504,
  "airs": 14369,
  "cd": 3729,
  "oliveira": 24263,
  "stairwell": 22109,
  "sixties": 22651,
  "noir": 15587,
  "pba": 21563,
  "stain": 21101,
  "[unused193]": 198,
  "##kshi": 27488,
  "unnecessary": 14203,
  "guam": 16162,
  "squeeze": 11025,
  "rival": 6538,
  "utilizing": 16911,
  "##mpt": 27718,
  "##tees": 28313,
  "effectively": 6464,
  "##50": 12376,
  "niece": 12286,
  "invitations": 29492,
  "furiously": 20322,
  "links": 6971,
  "worker": 7309,
  "occupied": 4548,
  "1960s": 4120,
  "##ricted": 20623,
  "##¹": 27904,
  "##tium": 16398,
  "creed": 16438,
  "hovered": 18190,
  "##oles": 29111,
  "tab": 21628,
  "##rn": 6826,
  "##त": 29859,
  "invasive": 17503,
  "##ն": 29778,
  "sham": 25850,
  "##ution": 13700,
  "ₐ": 1560,
  "campuses": 13696,
  "text": 3793,
  "randolph": 13031,
  "hunted": 14682,
  "disturbed": 12491,
  "couples": 6062,
  "bray": 19743,
  "contempt": 17152,
  "slump": 28702,
  "surprisingly": 10889,
  "##mx": 22984,
  "insult": 15301,
  "axis": 8123,
  "rebranded": 18233,
  "barge": 19398,
  "##vert": 16874,
  "pedestal": 24496,
  "repay": 24565,
  "##ovsky": 21983,
  "pastoral": 13645,
  "amp": 23713,
  "glow": 8652,
  "wrath": 14532,
  "deprivation": 29516,
  "uzbekistan": 17065,
  "aw": 22091,
  "bolivian": 26075,
  "##shima": 24772,
  ";": 1025,
  "rely": 11160,
  "tactic": 19717,
  "##gus": 12349,
  "##skaya": 23070,
  "naples": 10553,
  "tour": 2778,
  "conditional": 18462,
  "play": 2377,
  "harassment": 16011,
  "borne": 15356,
  "wars": 5233,
  "respectively": 4414,
  "1869": 7845,
  "[unused916]": 921,
  "ramp": 13276,
  "leaps": 29195,
  "gdansk": 21942,
  "plaintiff": 20579,
  "chapel": 4970,
  "##taff": 22542,
  "##writer": 15994,
  "morgan": 5253,
  "shelton": 22230,
  "graffiti": 17990,
  "stop": 2644,
  "##folding": 21508,
  "shudder": 18261,
  "[unused139]": 144,
  "ellie": 10707,
  "eastbound": 24773,
  "chuck": 8057,
  "cleansing": 26799,
  "stagecoach": 26025,
  "##erine": 24226,
  "hire": 10887,
  "bow": 6812,
  "apologize": 12134,
  "1995": 2786,
  "utilizes": 21852,
  "！": 1986,
  "##kki": 24103,
  "##れ": 30214,
  "##iza": 21335,
  "[unused969]": 974,
  "swimmer": 13361,
  "ex": 4654,
  "creep": 19815,
  "bestowed": 17398,
  "miracles": 17861,
  "##lands": 8653,
  "maison": 26420,
  "octave": 21817,
  "burke": 9894,
  "spared": 16891,
  "anger": 4963,
  "##uth": 14317,
  "francoise": 28979,
  "willing": 5627,
  "damage": 4053,
  "target": 4539,
  "45th": 24634,
  "trail": 4446,
  "##how": 14406,
  "##bed": 8270,
  "##မ": 29973,
  "tucson": 17478,
  "157": 17403,
  "2006": 2294,
  "[unused190]": 195,
  "singleton": 28159,
  "strewn": 25259,
  "gems": 20296,
  "stalked": 15858,
  "##factory": 21450,
  "##sack": 25607,
  "fifth": 3587,
  "quilt": 27565,
  "##swell": 19228,
  "##ʑ": 29703,
  "##keeper": 13106,
  "everyday": 10126,
  "sensitivity": 14639,
  "symphonic": 18957,
  "##kou": 24861,
  "215": 17405,
  "dissolved": 8314,
  "##（": 30513,
  "。": 1636,
  "measure": 5468,
  "warmth": 8251,
  "already": 2525,
  "##lman": 12624,
  "adhere": 25276,
  "conversely": 18868,
  "##ছ": 29893,
  "periodicals": 21855,
  "##nton": 15104,
  "equity": 10067,
  "listing": 10328,
  "maverick": 27187,
  "electro": 16175,
  "1670": 26253,
  "fulfilled": 16829,
  "applying": 11243,
  "##hun": 17157,
  "clench": 26753,
  "deciding": 10561,
  "##cio": 9793,
  "fia": 19807,
  "[unused259]": 264,
  "configurations": 22354,
  "panic": 6634,
  "##イ": 30221,
  "##'": 29618,
  "##ira": 7895,
  "colleges": 6667,
  "##pan": 9739,
  "fry": 14744,
  "appointment": 6098,
  "ministries": 16410,
  "sighted": 19985,
  "anywhere": 5973,
  "##bron": 21337,
  "army": 2390,
  "##an": 2319,
  "bash": 24234,
  "pushed": 3724,
  "##grants": 27444,
  "offshore": 12195,
  "buddhism": 11388,
  "herzegovina": 11453,
  "[unused931]": 936,
  "injected": 19737,
  "gameplay": 11247,
  "townsend": 16139,
  "##cco": 21408,
  "winfield": 24739,
  "tuck": 18029,
  "monkeys": 17059,
  "infections": 15245,
  "beyonce": 20773,
  "correlation": 16902,
  "elderly": 9750,
  "czech": 5569,
  "hahn": 24266,
  "punches": 17957,
  "sufficient": 7182,
  "ballad": 11571,
  "##ゆ": 30209,
  "bonaparte": 20830,
  "##mussen": 29134,
  "##56": 26976,
  "bonn": 19349,
  "spotted": 7282,
  "##ouring": 27897,
  "recognizable": 20123,
  "bat": 7151,
  "gallery": 3916,
  "lifeless": 22185,
  "institute": 2820,
  "piece": 3538,
  "facility": 4322,
  "fancy": 11281,
  "sacramento": 11932,
  "glaciers": 21193,
  "injection": 13341,
  "speculation": 12143,
  "hospital": 2902,
  "##nzo": 25650,
  "courtship": 28592,
  "postage": 22981,
  "liam": 8230,
  "wireless": 9949,
  "[unused10]": 11,
  "264": 21611,
  "dealing": 7149,
  "cas": 25222,
  "paige": 17031,
  "contribution": 6691,
  "growth": 3930,
  "##mei": 26432,
  "harris": 5671,
  "theological": 9208,
  "##vial": 18660,
  "##ull": 18083,
  "pot": 8962,
  "balkans": 19733,
  "almeida": 29555,
  "joshua": 9122,
  "prisoners": 5895,
  "##{": 29640,
  "homeland": 10759,
  "together": 2362,
  "khalifa": 27925,
  "atlas": 11568,
  "affair": 6771,
  "conservatives": 11992,
  "clinched": 18311,
  "620": 23612,
  "##nagar": 14346,
  "##tas": 10230,
  "grew": 3473,
  "escort": 8620,
  "yarn": 27158,
  "introducing": 10449,
  "haas": 22996,
  "##itation": 18557,
  "evolving": 20607,
  "##af": 10354,
  "##sop": 28793,
  "advisers": 24205,
  "##ots": 12868,
  "governmental": 10605,
  "175": 12862,
  "guests": 6368,
  "clockwise": 22839,
  "considerably": 9839,
  "plump": 26731,
  "guerre": 24613,
  "method": 4118,
  "attain": 18759,
  "fever": 9016,
  "sweaty": 19889,
  "[unused14]": 15,
  "proposition": 14848,
  "babies": 10834,
  "puzzle": 11989,
  "ᵥ": 1510,
  "become": 2468,
  "morocco": 9835,
  "##holder": 14528,
  "walt": 10598,
  "harald": 20966,
  "loans": 10940,
  "wb": 25610,
  "##dget": 24291,
  "demographic": 15982,
  "vancouver": 6930,
  "volume": 3872,
  "desirable": 16166,
  "scrap": 15121,
  "luton": 17807,
  "caressing": 25296,
  "noses": 27518,
  "##hair": 26227,
  "morley": 20653,
  "sequel": 8297,
  "recapture": 27639,
  "##ast": 14083,
  "[unused133]": 138,
  "flashlight": 15257,
  "##gg": 13871,
  "nineteen": 11977,
  "interred": 13917,
  "courtroom": 20747,
  "gigs": 20929,
  "oleg": 25841,
  "blown": 10676,
  "fastened": 24009,
  "yorkshire": 7018,
  "reveal": 7487,
  "1750": 18171,
  "##inger": 9912,
  "programming": 4730,
  "ballads": 18456,
  "pacing": 15732,
  "turning": 3810,
  "frontier": 8880,
  "crack": 8579,
  "hitchcock": 19625,
  "grunted": 14922,
  "abuses": 21078,
  "codex": 15763,
  "##ches": 8376,
  "##ˡ": 29716,
  "degrees": 5445,
  "##ulsive": 23004,
  "sheng": 25981,
  "managerial": 24465,
  "harmonic": 19452,
  "##if": 10128,
  "md": 9108,
  "[unused825]": 830,
  "failing": 7989,
  "##mbre": 19908,
  "invented": 8826,
  "skeletons": 24365,
  "indigo": 22472,
  "kobayashi": 28930,
  "nouvelle": 25207,
  "##enna": 24397,
  "##ᅦ": 30009,
  "sirius": 23466,
  "294": 28135,
  "##orro": 29459,
  "implementations": 24977,
  "##γ": 29721,
  "1560": 29185,
  "intense": 6387,
  "vulnerable": 8211,
  "charter": 6111,
  "restricting": 26996,
  "॥": 1345,
  "colder": 21399,
  "leg": 4190,
  "lobe": 21833,
  "lakeside": 28701,
  "freestyle": 9817,
  "severely": 8949,
  "##hering": 22658,
  "##neas": 26737,
  "captures": 19566,
  "##rok": 27923,
  "verge": 16079,
  "grave": 6542,
  "181": 18596,
  "##ying": 14147,
  "fuji": 20933,
  "commitment": 8426,
  "##ulent": 27581,
  "##chester": 25322,
  "transmitters": 26288,
  "##之": 30275,
  "disease": 4295,
  "playable": 16854,
  "##ual": 8787,
  "doin": 24341,
  "2007": 2289,
  "encyclopedia": 12204,
  "##学": 30343,
  "1892": 6527,
  "alvarez": 16309,
  "bradley": 8981,
  "yell": 14315,
  "there": 2045,
  "jeremiah": 17526,
  "oriented": 8048,
  "luckily": 15798,
  "spa": 12403,
  "[unused233]": 238,
  "fishing": 5645,
  "##aurus": 17342,
  "bosnian": 16163,
  "joint": 4101,
  "blinding": 19709,
  "fiance": 19154,
  "prequel": 28280,
  "disorder": 8761,
  "bump": 16906,
  "pike": 12694,
  "subsidiary": 7506,
  "recruiting": 14357,
  "67": 6163,
  "[unused342]": 347,
  "##ntial": 19909,
  "undead": 17315,
  "challenge": 4119,
  "utrecht": 18361,
  "chalk": 16833,
  "mmm": 25391,
  "ע": 1259,
  "somerset": 9198,
  "##physics": 15638,
  "swords": 10689,
  "##lou": 23743,
  "##ban": 8193,
  "gill": 12267,
  "##dim": 22172,
  "##ran": 5521,
  "sarajevo": 18354,
  "simultaneous": 17424,
  "doorway": 7086,
  "eisenhower": 16551,
  "##内": 30299,
  "stephane": 26624,
  "philosophers": 17586,
  "[unused835]": 840,
  "[unused703]": 708,
  "1959": 3851,
  "ʳ": 1142,
  "##sion": 10992,
  "lulu": 21744,
  "replication": 21647,
  "mcbride": 18958,
  "xx": 22038,
  "##qing": 19784,
  "macbeth": 25182,
  "soc": 27084,
  "cfl": 18830,
  "##breaker": 21204,
  "thumping": 25996,
  "##*": 29621,
  "baird": 20866,
  "riders": 8195,
  "forests": 6138,
  "investigates": 28062,
  "ハ": 1718,
  "84": 6391,
  "x": 1060,
  "behave": 16582,
  "hadn": 2910,
  "willingly": 18110,
  "tyson": 19356,
  "defiant": 27836,
  "dowager": 20508,
  "cretaceous": 18122,
  "priory": 14284,
  "##or": 2953,
  "##জ": 29894,
  "##point": 8400,
  "gossip": 13761,
  "cox": 9574,
  "begged": 12999,
  "incredible": 9788,
  "##scopic": 24895,
  "descended": 9287,
  "factory": 4713,
  "##چ": 29840,
  "remix": 6136,
  "product": 4031,
  "ak": 17712,
  "perspectives": 15251,
  "ancient": 3418,
  "uncover": 26944,
  "mounds": 19503,
  "mosque": 8806,
  "wit": 15966,
  "pace": 6393,
  "furious": 9943,
  "isis": 18301,
  "bruno": 10391,
  "##bie": 11283,
  "calmed": 20869,
  "##河": 30425,
  "slack": 19840,
  "##mo": 5302,
  "indicates": 7127,
  "disappointing": 15640,
  "blessing": 13301,
  "music": 2189,
  "hiram": 27410,
  "tragic": 13800,
  "##sily": 26863,
  "sedimentary": 25503,
  "galaxy": 9088,
  "guthrie": 19952,
  "francesco": 11400,
  "##ɕ": 29680,
  "kiel": 20963,
  "##aki": 8978,
  "righteous": 19556,
  "conflict": 4736,
  "bills": 8236,
  "compliment": 19394,
  "dolphins": 13600,
  "years": 2086,
  "characterization": 23191,
  "##odies": 27391,
  "essendon": 25149,
  "abortion": 11324,
  "vibration": 17880,
  "plead": 25803,
  "beech": 21760,
  "goodwill": 22875,
  "partly": 6576,
  "mission": 3260,
  "overlap": 17702,
  "plasma": 12123,
  "made": 2081,
  "sixty": 8442,
  "##rah": 10404,
  "##uter": 19901,
  "appalled": 29279,
  "こ": 1655,
  "[unused986]": 991,
  "པ": 1430,
  "##ragan": 28905,
  "11": 2340,
  "su": 10514,
  "##rous": 13288,
  "fairchild": 24258,
  "mead": 19855,
  "章": 1932,
  "goth": 25976,
  "shipments": 24636,
  "京": 1755,
  "gate": 4796,
  "alexander": 3656,
  "installations": 14111,
  "irvine": 16272,
  "##pile": 22090,
  "emphasizes": 20618,
  "137": 14989,
  "domed": 29208,
  "[unused425]": 430,
  "##uge": 22890,
  "rothschild": 19712,
  "iec": 24940,
  "##rek": 16816,
  "rabbis": 25602,
  "erin": 11781,
  "strip": 6167,
  "calderon": 28129,
  "destructive": 15615,
  "m": 1049,
  "##ub": 12083,
  "318": 27003,
  "concluded": 5531,
  "estuary": 18056,
  "capable": 5214,
  "ᅵ": 1483,
  "##wall": 9628,
  "four": 2176,
  "taxa": 23726,
  "analytic": 23521,
  "conjecture": 22647,
  "1989": 2960,
  "medallist": 28595,
  "participates": 17257,
  "lacked": 10858,
  "serve": 3710,
  "writings": 7896,
  "##roi": 26692,
  "townland": 23635,
  "optic": 22816,
  "##orth": 28610,
  "docked": 25727,
  "eliminate": 11027,
  "benedictine": 21139,
  "infectious": 16514,
  "rope": 8164,
  "pays": 12778,
  "microwave": 18302,
  "manners": 14632,
  "tends": 12102,
  "خ": 1277,
  "valve": 10764,
  "indexed": 25331,
  "symmetry": 14991,
  "ף": 1260,
  "hedges": 25840,
  "土": 1801,
  "გ": 1440,
  "thompson": 5953,
  "commissioning": 21612,
  "analogy": 23323,
  "cruises": 23986,
  "casey": 9036,
  "##hedron": 26440,
  "##ois": 10054,
  "##rity": 15780,
  "strokes": 13692,
  "moderator": 29420,
  "breakaway": 26321,
  "welterweight": 20882,
  "tunisian": 22946,
  "cyril": 16049,
  "retailers": 16629,
  "ottawa": 8166,
  "shooting": 5008,
  "sauce": 12901,
  "him": 2032,
  "shrugged": 6345,
  "eastenders": 28936,
  "##mouth": 14359,
  "competitions": 6479,
  "betrayal": 14583,
  "instruments": 5693,
  "inscribed": 14551,
  "whitman": 21311,
  "flour": 13724,
  "##ッ": 30237,
  "dash": 11454,
  "conduct": 6204,
  "devlin": 24389,
  "∇": 1595,
  "compartment": 15273,
  "##cloth": 23095,
  "allocation": 16169,
  "yankees": 11081,
  "##wind": 11101,
  "apology": 12480,
  "posthumously": 12770,
  "james": 2508,
  "destroyer": 9799,
  "commit": 10797,
  "##icio": 27113,
  "##bell": 17327,
  "##ested": 17944,
  "buddies": 24115,
  "##yria": 20379,
  "##п": 29746,
  "automated": 12978,
  "interceptions": 18387,
  "early": 2220,
  "##zan": 13471,
  "ankle": 10792,
  "emptiness": 23397,
  "reddish": 14182,
  "æ": 1097,
  "dub": 12931,
  "prepared": 4810,
  "entry": 4443,
  "whitehall": 28361,
  "demetrius": 28367,
  "##ode": 10244,
  "rufus": 18316,
  "palatinate": 18990,
  "introduction": 4955,
  "##kley": 22315,
  "nucleus": 13502,
  "##atory": 14049,
  "##bla": 28522,
  "focus": 3579,
  "deep": 2784,
  "##tag": 15900,
  "och": 28166,
  "##truct": 18300,
  "##eum": 14820,
  "jang": 23769,
  "offender": 25042,
  "danielle": 18490,
  "chords": 18495,
  "buren": 29470,
  "tail": 5725,
  "##tica": 22723,
  "klaus": 16536,
  "##laid": 24393,
  "indo": 11424,
  "[unused137]": 142,
  "[unused151]": 156,
  "##66": 28756,
  "##lco": 22499,
  "catches": 11269,
  "equivalent": 5662,
  "sharif": 20351,
  "flushing": 23519,
  "furniture": 7390,
  "swings": 18755,
  "£5": 27813,
  "##lson": 14881,
  "sailing": 8354,
  "walkers": 22559,
  "pest": 20739,
  "##33": 22394,
  "##ח": 29794,
  "opus": 16895,
  "laurie": 16450,
  "withdrawn": 9633,
  "hague": 14575,
  "##ious": 6313,
  "polly": 17543,
  "lovers": 10205,
  "marlene": 26921,
  "jordan": 5207,
  "aces": 20232,
  "bonding": 19882,
  "praising": 15838,
  "flush": 13862,
  "zur": 17924,
  "chester": 8812,
  "fanny": 17813,
  "brittle": 24650,
  "bribery": 27748,
  "ウ": 1696,
  "instantly": 6880,
  "customers": 6304,
  "##国": 30325,
  "phillips": 8109,
  "moffat": 28528,
  "avid": 18568,
  "##ri": 3089,
  "convinced": 6427,
  "##po": 6873,
  "courthouse": 10816,
  "handicapped": 26920,
  "ned": 12311,
  "##load": 11066,
  "parent": 6687,
  "someone": 2619,
  "##ini": 5498,
  "310": 17196,
  "##mont": 9629,
  "spinning": 9419,
  "gin": 18353,
  "atheist": 23503,
  "california": 2662,
  "##owe": 29385,
  "playground": 14705,
  "similar": 2714,
  "##tenberg": 21806,
  "arches": 13540,
  "hardwood": 23165,
  "mas": 16137,
  "##eni": 18595,
  "##gua": 19696,
  "⊂": 1610,
  "bangs": 28490,
  "che": 18178,
  "##bm": 25526,
  "affluent": 22666,
  "took": 2165,
  "tess": 15540,
  "##iously": 19426,
  "trio": 7146,
  "singing": 4823,
  "engraved": 16328,
  "##tted": 16190,
  "steele": 12872,
  "formations": 13197,
  "register": 4236,
  "1655": 28438,
  "emory": 25853,
  "radiating": 23229,
  "viewed": 7021,
  "refrain": 20703,
  "fabric": 8313,
  "clay": 5726,
  "campo": 22339,
  "olson": 21583,
  "maestro": 25270,
  "waist": 5808,
  "aragon": 16146,
  "##ek": 5937,
  "disc": 5860,
  "savannah": 10891,
  "##oza": 25036,
  "kyrgyzstan": 23209,
  "focusing": 7995,
  "driveway": 11202,
  "filtering": 22910,
  "byte": 24880,
  "##ius": 4173,
  "fordham": 27302,
  "rats": 11432,
  "restoration": 6418,
  "dq": 25410,
  "devastated": 13879,
  "weston": 12755,
  "restoring": 16487,
  "##正": 30414,
  "##gan": 5289,
  "[unused95]": 96,
  "tentacles": 24719,
  "fill": 6039,
  "[unused442]": 447,
  "##ache": 15395,
  "loire": 20399,
  "conglomerate": 22453,
  "##anian": 26032,
  "bottles": 11015,
  "ধ": 1365,
  "thus": 2947,
  "75": 4293,
  "duty": 4611,
  "espionage": 21003,
  "batteries": 10274,
  "afar": 28978,
  "efficient": 8114,
  "##ound": 28819,
  "azerbaijan": 8365,
  "manager": 3208,
  "lou": 10223,
  "paddy": 16063,
  "¶": 1086,
  "torso": 15190,
  "jing": 21536,
  "triggering": 29170,
  "memorandum": 20336,
  "173": 19410,
  "olivia": 7710,
  "hubbard": 16580,
  "uc": 15384,
  "minerva": 27383,
  "[unused166]": 171,
  "β": 1156,
  "wiener": 25072,
  "rituals": 13549,
  "##tangle": 23395,
  "300": 3998,
  "adverse": 15316,
  "confuse": 28679,
  "ᵏ": 1501,
  "straits": 18849,
  "lied": 9828,
  "##board": 6277,
  "1977": 3355,
  "sighting": 29426,
  "##tlement": 24007,
  "nap": 18996,
  "parker": 6262,
  "tribe": 5917,
  "uncovered": 14486,
  "bi": 12170,
  "shane": 8683,
  "##ructured": 26134,
  "squat": 26783,
  "motorized": 26172,
  "quaker": 18844,
  "1570": 28881,
  "1629": 27882,
  "ancestor": 13032,
  "accepting": 10564,
  "[unused373]": 378,
  "herd": 14906,
  "landscaping": 28404,
  "ტ": 1453,
  "returns": 5651,
  "persuaded": 11766,
  "graduation": 7665,
  "##loading": 18570,
  "[unused687]": 692,
  "coulter": 28293,
  "daddy": 8600,
  "##ats": 11149,
  "walkover": 17495,
  "finer": 26954,
  "±": 1081,
  "##ility": 15148,
  "4": 1018,
  "alone": 2894,
  "rocking": 14934,
  "stocks": 15768,
  "1781": 16788,
  "adjective": 24931,
  "mutually": 20271,
  "scientist": 7155,
  "deliveries": 23534,
  "granny": 19794,
  "drained": 11055,
  "cycling": 9670,
  "[unused543]": 548,
  "raion": 24235,
  "##iti": 25090,
  "suffrage": 15178,
  "375": 18034,
  "trunks": 20509,
  "ふ": 1674,
  "modify": 19933,
  "shivering": 19197,
  "hyde": 11804,
  "ducks": 14875,
  "[unused430]": 435,
  "orioles": 18893,
  "river": 2314,
  "##ipes": 28108,
  "busiest": 20530,
  "clearing": 8430,
  "ʾ": 1147,
  "##hn": 7295,
  "dorothea": 24052,
  "##ade": 9648,
  "medal": 3101,
  "presumably": 10712,
  "##listic": 27348,
  "mainland": 8240,
  "transient": 25354,
  "blunt": 14969,
  "electrode": 28688,
  "favor": 5684,
  "tian": 23401,
  "##aa": 11057,
  "semantics": 28081,
  "patriotic": 14314,
  "##ret": 13465,
  "##マ": 30249,
  "ham": 10654,
  "##haw": 14238,
  "##ctus": 22675,
  "description": 6412,
  "##swick": 27720,
  "rams": 13456,
  "liturgical": 19246,
  "hygiene": 19548,
  "shores": 13312,
  "[unused122]": 127,
  "transitioned": 23946,
  "##hen": 10222,
  "expands": 24545,
  "intervening": 26623,
  "macedonian": 13037,
  "causeway": 23336,
  "barbarians": 28056,
  "al": 2632,
  "prussia": 10724,
  "dusk": 18406,
  "hairs": 13606,
  "economic": 3171,
  "##ј": 29761,
  "195": 17317,
  "tuition": 15413,
  "filling": 8110,
  "goldman": 17765,
  "innovations": 15463,
  "smoky": 20629,
  "jonathan": 5655,
  "##主": 30273,
  "մ": 1229,
  "delivery": 6959,
  "defected": 26330,
  "bop": 29432,
  "stripping": 23987,
  "intercept": 19115,
  "##pani": 26569,
  "nowadays": 13367,
  "deck": 5877,
  "outsider": 21002,
  "leaning": 6729,
  "lamar": 19756,
  "expo": 16258,
  "facilitating": 25505,
  "nur": 27617,
  "ported": 27650,
  "slated": 18517,
  "[unused173]": 178,
  "breach": 12510,
  "hands": 2398,
  "len": 18798,
  "stipulated": 25729,
  "##peed": 25599,
  "pause": 8724,
  "##ivation": 25761,
  "tender": 8616,
  "[unused894]": 899,
  "iconic": 14430,
  "bel": 19337,
  "illustrator": 13825,
  "##58": 27814,
  "wearing": 4147,
  "laboratory": 5911,
  "dawned": 27702,
  "jace": 10352,
  "[unused510]": 515,
  "##ovic": 9142,
  "death": 2331,
  "##aro": 10464,
  "relaxed": 8363,
  "madeira": 27309,
  "##ened": 6675,
  "habitat": 6552,
  "let": 2292,
  "##cope": 16186,
  "up": 2039,
  "harsh": 8401,
  "sherlock": 20052,
  "##ⁿ": 30080,
  "hogan": 14851,
  "##վ": 29782,
  "##kian": 28545,
  "##wives": 23744,
  "retreated": 11672,
  "##aus": 20559,
  "broke": 3631,
  "slug": 23667,
  "lockheed": 17646,
  "graceful": 19415,
  "flagship": 10565,
  "latino": 7402,
  "possession": 6664,
  "yugoslavia": 8936,
  "##ground": 16365,
  "pocket": 4979,
  "##uddin": 17375,
  "##girl": 15239,
  "revered": 23886,
  "gravitational": 19790,
  "aerospace": 13395,
  "albany": 10283,
  "squad": 4686,
  "craters": 27561,
  "ked": 16135,
  "trade": 3119,
  "nut": 17490,
  "##iana": 11410,
  "realise": 19148,
  "##cation": 10719,
  "apple": 6207,
  "textual": 25304,
  "1850s": 16488,
  "larry": 6554,
  "watson": 7908,
  "gaston": 18572,
  "buy": 4965,
  "pts": 19637,
  "bounded": 10351,
  "apical": 29197,
  "##hue": 20169,
  "jeopardy": 26604,
  "##zzy": 28753,
  "##main": 24238,
  "analogue": 21800,
  "1500": 10347,
  "governors": 11141,
  "equations": 11380,
  "arnold": 7779,
  "certificates": 17987,
  "weddings": 20429,
  "rulers": 11117,
  "##otti": 21325,
  "jase": 18626,
  "formula": 5675,
  "suv": 15620,
  "consonants": 19694,
  "apt": 26794,
  "gaul": 26522,
  "##ł": 18818,
  "##lda": 15150,
  "disney": 6373,
  "prosecutors": 19608,
  "stark": 9762,
  "ubiquitous": 28498,
  "homemade": 25628,
  "ᅡ": 1470,
  "mute": 20101,
  "##メ": 30252,
  "exquisite": 19401,
  "eduard": 20424,
  "##a": 2050,
  "tom": 3419,
  "professorship": 22661,
  "184": 19681,
  "fires": 8769,
  "##ffled": 28579,
  "engines": 5209,
  "mixing": 6809,
  "jewellery": 21545,
  "churches": 5231,
  "[unused870]": 875,
  "cn": 27166,
  "artworks": 22000,
  "nrl": 20686,
  "bathed": 24614,
  "moods": 27824,
  "slicing": 26514,
  "forthcoming": 16875,
  "serial": 7642,
  "proposals": 10340,
  "humanoid": 28051,
  "emmy": 10096,
  "[unused743]": 748,
  "##nction": 27989,
  "creamy": 24519,
  "brig": 16908,
  "##rma": 17830,
  "##zz": 13213,
  "signifies": 27353,
  "pulses": 23894,
  "regimental": 17604,
  "attracted": 6296,
  "limp": 14401,
  "villagers": 11904,
  "##fa": 7011,
  "poked": 16826,
  "abdul": 10298,
  "carries": 7883,
  "##oga": 18170,
  "darts": 17493,
  "explodes": 27583,
  "mutations": 14494,
  "conversion": 7584,
  "weak": 5410,
  "campaigning": 18524,
  "stink": 27136,
  "redesignated": 11836,
  "craved": 25155,
  "##leader": 19000,
  "sail": 9498,
  "ny": 6396,
  "harper": 8500,
  "[unused96]": 97,
  "allowing": 4352,
  "##ex": 10288,
  "##广": 30368,
  "ю": 1209,
  "equestrian": 19191,
  "basket": 10810,
  "shutting": 17521,
  "##hard": 11783,
  "judgments": 26186,
  "hailed": 16586,
  "preferred": 6871,
  "yoga": 13272,
  "##ologists": 16886,
  "comb": 22863,
  "anthology": 9637,
  "lamp": 10437,
  "likely": 3497,
  "[unused136]": 141,
  "rosemary": 18040,
  "farmers": 6617,
  "[unused72]": 73,
  "briefing": 27918,
  "easiest": 25551,
  "1652": 28853,
  "overcoming": 27363,
  "wires": 14666,
  "arrival": 5508,
  "mccartney": 15320,
  "usb": 18833,
  "referee": 5330,
  "##all": 8095,
  "trophies": 22236,
  "meteor": 23879,
  "[unused574]": 579,
  "##stream": 21422,
  "seating": 10747,
  "ltd": 5183,
  "naked": 6248,
  "broadway": 5934,
  "violet": 8766,
  "oboe": 22523,
  "jerome": 11120,
  "small": 2235,
  "presently": 12825,
  "##お": 30176,
  "##на": 19865,
  "phrase": 7655,
  "dependent": 7790,
  "pepsi": 27237,
  "##™": 30108,
  "shrubs": 18812,
  "ま": 1677,
  "vale": 10380,
  "math": 8785,
  "cereal": 20943,
  "劉": 1777,
  "thousand": 4595,
  "##uttered": 23128,
  "weren": 4694,
  "braden": 27232,
  "heading": 5825,
  "##秋": 30455,
  "##ove": 21818,
  "[unused764]": 769,
  "talon": 19048,
  "diverse": 7578,
  "operatives": 25631,
  "appetite": 18923,
  "claw": 15020,
  "⟨": 1629,
  "conferences": 9281,
  "##ь": 23742,
  "stood": 2768,
  "freiburg": 22871,
  "aftermath": 10530,
  "robbie": 12289,
  "stair": 23788,
  "canvas": 10683,
  "maldives": 25059,
  "mentoring": 29192,
  "hallway": 6797,
  "conducts": 17976,
  "##ific": 18513,
  "##≡": 30134,
  "pulling": 4815,
  "kurt": 9679,
  "mac": 6097,
  "sui": 24086,
  "##খ": 29890,
  "pivotal": 20369,
  "slot": 10453,
  "dangling": 18737,
  "fresno": 20840,
  "licence": 11172,
  "sculptor": 10160,
  "score": 3556,
  "component": 6922,
  "[unused153]": 158,
  "930": 29359,
  "##85": 27531,
  "periodic": 15861,
  "burnt": 11060,
  "styles": 6782,
  "circle": 4418,
  "suggests": 6083,
  "duck": 9457,
  "##osition": 19234,
  "commitments": 17786,
  "##mark": 10665,
  "coordinated": 14206,
  "boyle": 16694,
  "supplementary": 26215,
  "ernst": 10728,
  "bam": 25307,
  "johnstone": 24160,
  "stadium": 3346,
  "უ": 1454,
  "英": 1941,
  "##zong": 13150,
  "folding": 12745,
  "cradle": 18293,
  "niccolo": 27033,
  "pixel": 22138,
  "stunned": 9860,
  "luciano": 24512,
  "##kata": 29123,
  "hammond": 11309,
  "atari": 18978,
  "##mar": 7849,
  "medici": 22605,
  "canine": 28735,
  "objections": 17304,
  "[unused1]": 2,
  "torre": 22047,
  "notification": 26828,
  "collapses": 25938,
  "hms": 7220,
  "李": 1877,
  "##otype": 26305,
  "donnelly": 28317,
  "chicago": 3190,
  "sud": 19219,
  "ς": 1172,
  "risen": 13763,
  "mph": 5601,
  "successor": 6332,
  "shy": 11004,
  "fear": 3571,
  "guard": 3457,
  "brewers": 20007,
  "##icular": 21412,
  "won": 2180,
  "oaks": 13396,
  "although": 2348,
  "adjustments": 24081,
  "dfb": 28894,
  "copying": 24731,
  "consume": 16678,
  "backseat": 19978,
  "giving": 3228,
  "missing": 4394,
  "##usion": 14499,
  "##力": 30304,
  "fundamentally": 24670,
  "[unused750]": 755,
  "##oic": 19419,
  "319": 26499,
  "crusaders": 18831,
  "##feit": 21156,
  "cognition": 26497,
  "##gor": 20255,
  "eireann": 29157,
  "partridge": 26079,
  "onwards": 9921,
  "petit": 17268,
  "preach": 25250,
  "usable": 24013,
  "germain": 19192,
  "##ʸ": 29710,
  "angelica": 19458,
  "##ʻi": 26444,
  "sidekick": 29240,
  "い": 1647,
  "600": 5174,
  "favored": 12287,
  "civil": 2942,
  "banker": 13448,
  "metacritic": 14476,
  "hendricks": 28895,
  "punt": 18975,
  "##itt": 12474,
  "[unused184]": 189,
  "##bolt": 22803,
  "hometown": 9627,
  "1746": 24507,
  "warmed": 17336,
  "gland": 25320,
  "##rington": 17281,
  "recounted": 22906,
  "solvent": 23735,
  "milling": 22491,
  "astronauts": 25881,
  "dwell": 23120,
  "defenses": 13345,
  "[unused169]": 174,
  "ants": 16111,
  "##glers": 25555,
  "##mum": 27147,
  "##osis": 12650,
  "diagnosis": 11616,
  "candle": 13541,
  "##anal": 27953,
  "cool": 4658,
  "##ー": 30265,
  "(": 1006,
  "marion": 10115,
  "mast": 15429,
  "showtime": 23811,
  "bliss": 13670,
  "lingered": 17645,
  "[unused744]": 749,
  "washington": 2899,
  "pressure": 3778,
  "comparative": 12596,
  "tremendous": 14388,
  "##tort": 25485,
  "[unused85]": 86,
  "uae": 17641,
  "cyrillic": 15522,
  "insults": 23862,
  "felt": 2371,
  "astor": 25159,
  "rectangular": 10806,
  "##omic": 22026,
  "carry": 4287,
  "ए": 1314,
  "warehouses": 23319,
  "quo": 22035,
  "##genesis": 23737,
  "lengthy": 12401,
  "##shin": 17426,
  "buds": 26734,
  "drag": 8011,
  "540": 20263,
  "willie": 9893,
  "mn": 24098,
  "abbess": 28010,
  "declining": 13993,
  "guineas": 22385,
  "hardly": 6684,
  "##bbon": 27684,
  "ramos": 18882,
  "cafe": 7668,
  "hawaiian": 12188,
  "undoubtedly": 17319,
  "##oir": 21165,
  "myths": 17218,
  "colours": 8604,
  "midway": 12213,
  "dungeons": 20264,
  "##iable": 19210,
  "sousa": 28535,
  "bells": 10118,
  "shaw": 8233,
  "freddy": 19343,
  "##53": 22275,
  "oppression": 20489,
  "pending": 14223,
  "exceeding": 17003,
  "jackson": 4027,
  "hospice": 29277,
  "bays": 13933,
  "ll": 2222,
  "plague": 11629,
  "す": 1658,
  "letting": 5599,
  "erroneously": 29411,
  "warmer": 16676,
  "##dberg": 25190,
  "fatigue": 16342,
  "winston": 10180,
  "africans": 18076,
  "teresa": 12409,
  "eastern": 2789,
  "signatures": 16442,
  "password": 20786,
  "[unused446]": 451,
  "recent": 3522,
  "aziz": 21196,
  "expressions": 11423,
  "ginger": 14580,
  "harley": 13653,
  "doctrine": 8998,
  "nasty": 11808,
  "cerro": 25498,
  "backside": 25065,
  "unsigned": 27121,
  "thereof": 21739,
  "##aries": 12086,
  "housing": 3847,
  "viaduct": 20596,
  "sesame": 23605,
  "anytime": 15933,
  "geology": 13404,
  "engine": 3194,
  "##pot": 11008,
  "mediated": 19872,
  "minions": 28071,
  "jane": 4869,
  "grange": 18203,
  "duane": 27319,
  "sharing": 6631,
  "##hani": 23573,
  "whiskey": 13803,
  "workplace": 16165,
  "oval": 9242,
  "night": 2305,
  "##caster": 25490,
  "[unused272]": 277,
  "ব": 1368,
  "##bread": 27035,
  "ethanol": 22886,
  "av": 20704,
  "ན": 1429,
  "##不": 30270,
  "beans": 13435,
  "robert": 2728,
  "dioceses": 26586,
  "existence": 4598,
  "1920s": 6641,
  "bayer": 26367,
  "indicators": 20390,
  "##ھ": 29844,
  "learners": 26262,
  "disabled": 9776,
  "other": 2060,
  "jedi": 27273,
  "drills": 28308,
  "##lm": 13728,
  "mandates": 25979,
  "rebounds": 11049,
  "eight": 2809,
  "violins": 25877,
  "iq": 26264,
  "coffin": 13123,
  "tna": 20108,
  "reservations": 17829,
  "approve": 14300,
  "##nik": 8238,
  "##n": 2078,
  "thematic": 23539,
  "backed": 6153,
  "miguel": 8374,
  "acronym": 20137,
  "##onate": 21149,
  "breaths": 12938,
  "nominees": 17853,
  "notified": 19488,
  "www": 7479,
  "[unused371]": 376,
  "upheld": 16813,
  "##gio": 11411,
  "cater": 23488,
  "##vino": 26531,
  "thomas": 2726,
  "prairie": 10996,
  "1805": 13126,
  "spartans": 24293,
  "jailed": 21278,
  "quintet": 18109,
  "drawings": 9254,
  "excelled": 23081,
  "##bber": 29325,
  "pas": 14674,
  "slid": 4934,
  "##ν": 16177,
  "##hips": 19801,
  "whitney": 9809,
  "##風": 30503,
  "##llary": 24435,
  "airfields": 25278,
  "circles": 7925,
  "doubles": 7695,
  "prophecy": 14951,
  "peek": 19043,
  "##ib": 12322,
  "distribution": 4353,
  "thrive": 25220,
  "[unused896]": 901,
  "##eaux": 25639,
  "programmed": 16984,
  "lunar": 11926,
  "monument": 6104,
  "stryker": 25429,
  "dwyer": 29394,
  "##井": 30280,
  "[unused344]": 349,
  "notably": 5546,
  "avengers": 14936,
  "salt": 5474,
  "cain": 11557,
  "toned": 27604,
  "pri": 26927,
  "administrators": 15631,
  "depth": 5995,
  "neoclassical": 22657,
  "##མ": 29968,
  "national": 2120,
  "pub": 9047,
  "ロ": 1735,
  "translit": 28468,
  "aero": 18440,
  "cote": 17155,
  "provide": 3073,
  "##qui": 15549,
  "##stones": 29423,
  "##lal": 13837,
  "skepticism": 27936,
  "cod": 19429,
  "ymca": 26866,
  "consumption": 8381,
  "pointe": 26119,
  "realms": 18814,
  "vernacular": 18485,
  "thierry": 26413,
  "indonesian": 9003,
  "##aea": 21996,
  "legion": 8009,
  "ta": 11937,
  "alternate": 6585,
  "pitching": 14696,
  "apparent": 6835,
  "[unused276]": 281,
  "catalytic": 26244,
  "snout": 17291,
  "wesley": 11482,
  "pa": 6643,
  "lowest": 7290,
  "pack": 5308,
  "##都": 30487,
  "voting": 6830,
  "##neer": 19755,
  "rowe": 20538,
  "friction": 15012,
  "intrusion": 24554,
  "inevitable": 13418,
  "derry": 17455,
  "##フ": 30246,
  "heartbeat": 12251,
  "ranked": 4396,
  "kyiv": 25669,
  "algebra": 11208,
  "couldn": 2481,
  "naval": 3987,
  "##itung": 28813,
  "proxy": 24540,
  "##bility": 8553,
  "##herton": 27949,
  "coffee": 4157,
  "sealing": 23038,
  "charles": 2798,
  "miranda": 9392,
  "##oped": 24174,
  "##nged": 21558,
  "acknowledging": 21894,
  "##द": 29861,
  "permanent": 4568,
  "##champ": 25450,
  "internationals": 27340,
  "involved": 2920,
  "oz": 11472,
  "trauma": 12603,
  "##falls": 28067,
  "thom": 19438,
  "realizes": 10919,
  "##hil": 19466,
  "gentleman": 10170,
  "shaped": 5044,
  "##tya": 21426,
  "administer": 21497,
  "teams": 2780,
  "pretended": 14688,
  "mccormick": 23213,
  "winner": 3453,
  "ল": 1373,
  "ezekiel": 28743,
  "offence": 15226,
  "##urian": 29091,
  "[unused455]": 460,
  "priced": 21125,
  "##encia": 27742,
  "syndrome": 8715,
  "智": 1869,
  "requested": 7303,
  "wages": 12678,
  "1734": 27367,
  "##wa": 4213,
  "jumped": 5598,
  "lettering": 25782,
  "duffy": 17971,
  "##dorff": 26559,
  "commanded": 6311,
  "[unused128]": 133,
  "[unused911]": 916,
  "vintage": 13528,
  "khalid": 21828,
  "relaunched": 26391,
  "##hor": 16368,
  "review": 3319,
  "##lift": 18412,
  "daniels": 13196,
  "steal": 8954,
  "subconscious": 27952,
  "勝": 1780,
  "sadler": 29012,
  "near": 2379,
  "sao": 7509,
  "villas": 27317,
  "hurst": 26405,
  "##ins": 7076,
  "hive": 26736,
  "courtney": 14139,
  "periphery": 23275,
  "regan": 16964,
  "emphasis": 7902,
  "##elial": 24587,
  "yankee": 17652,
  "embroidered": 23590,
  "danny": 6266,
  "##ium": 5007,
  "francesca": 15409,
  "enzyme": 9007,
  "relationships": 6550,
  "##gpur": 25758,
  "orange": 4589,
  "deposition": 19806,
  "responds": 16412,
  "sierra": 7838,
  "gymnast": 25055,
  "population": 2313,
  "barking": 19372,
  "bark": 11286,
  "kidd": 25358,
  "receiving": 4909,
  "##オ": 30225,
  "##led": 3709,
  "##ctuated": 25638,
  "mere": 8210,
  "harp": 14601,
  "[unused948]": 953,
  "indoors": 24274,
  "##良": 30464,
  "spanned": 18212,
  "aligned": 13115,
  "1731": 28446,
  "arte": 16185,
  "murdoch": 19954,
  "##yard": 14132,
  "locating": 26339,
  "##ης": 29155,
  "bradshaw": 23762,
  "cluster": 9324,
  "await": 26751,
  "manor": 6952,
  "feeding": 8521,
  "occupational": 16928,
  "1754": 22593,
  "[unused234]": 239,
  "endured": 16753,
  "##pped": 11469,
  "puzzles": 19672,
  "arlington": 13929,
  "kai": 11928,
  "collaborated": 8678,
  "##ker": 5484,
  "326": 28188,
  "criterion": 19229,
  "frequency": 6075,
  "##ו": 29792,
  "governed": 9950,
  "jose": 4560,
  "bubba": 19606,
  "stab": 17079,
  "cheat": 21910,
  "railroad": 4296,
  "pure": 5760,
  "practice": 3218,
  "##mot": 18938,
  "pandora": 19066,
  "commandant": 15254,
  "25": 2423,
  "sequences": 10071,
  "omar": 13192,
  "hay": 10974,
  "vilnius": 20513,
  "mathematical": 8045,
  "volta": 26089,
  "suggesting": 9104,
  "hazel": 14015,
  "fluorescent": 22184,
  "ingram": 23231,
  "##abe": 16336,
  "range": 2846,
  "##sie": 11741,
  "abroad": 6917,
  "1718": 26995,
  "circled": 14867,
  "pour": 10364,
  "waitress": 13877,
  "##★": 30147,
  "##l": 2140,
  "gora": 26967,
  "hurdle": 27630,
  "cupboard": 25337,
  "turkish": 5037,
  "##while": 19927,
  "##oshi": 24303,
  "##idon": 28201,
  "distinct": 5664,
  "executing": 23448,
  "amnesty": 16154,
  "##kling": 20260,
  "unmarked": 25779,
  "##相": 30445,
  "appropriated": 29223,
  "helm": 16254,
  "griffiths": 21960,
  "0": 1014,
  "wheelbase": 29141,
  "##roud": 21332,
  "ط": 1286,
  "lyrics": 4581,
  "##giri": 23243,
  "reykjavik": 28559,
  "l": 1048,
  "nikola": 24794,
  "unspecified": 25851,
  "breasts": 12682,
  "##ᅩ": 30011,
  "sis": 24761,
  "vaulted": 24616,
  "rooms": 4734,
  "[unused414]": 419,
  "tide": 10401,
  "radioactive": 17669,
  "##shaft": 25679,
  "[unused712]": 717,
  "motionless": 19917,
  "impatiently": 19951,
  "great": 2307,
  "readily": 12192,
  "annoying": 15703,
  "crescent": 13152,
  "chad": 9796,
  "eastward": 17318,
  "##bari": 25990,
  "freshwater": 12573,
  "cardboard": 19747,
  "##hill": 7100,
  "tabloid": 24173,
  "cheerfully": 27403,
  "organization": 3029,
  "##akes": 20060,
  "hunters": 9624,
  "pac": 14397,
  "##ceptive": 28687,
  "constellation": 15300,
  "##sk": 6711,
  "##broken": 29162,
  "scents": 29254,
  "physicians": 11572,
  "barn": 8659,
  "flaming": 19091,
  "intent": 7848,
  "meek": 28997,
  "noble": 7015,
  "addison": 18403,
  "simpson": 9304,
  "morrison": 9959,
  "quarterly": 12174,
  "《": 1639,
  "inuit": 25179,
  "attempts": 4740,
  "##oc": 10085,
  "reza": 26323,
  "##onzo": 29452,
  "##llo": 7174,
  "funk": 11962,
  "hoover": 17443,
  "[unused591]": 596,
  "os": 9808,
  "##eo": 8780,
  "1666": 27407,
  "slots": 19832,
  "anita": 12918,
  "swan": 10677,
  "spouse": 18591,
  "##ist": 2923,
  "caucus": 13965,
  "skylar": 27970,
  "241": 22343,
  "cousin": 5542,
  "[unused802]": 807,
  "##grave": 12830,
  "arrive": 7180,
  "あ": 1646,
  "[unused519]": 524,
  "lever": 15929,
  "prevalent": 15157,
  "breaks": 7807,
  "##lwyn": 29287,
  "θ": 1162,
  "pia": 24624,
  "covert": 19813,
  "lori": 18669,
  "##tri": 18886,
  "pump": 10216,
  "stance": 11032,
  "unfortunately": 6854,
  "##runner": 23195,
  "×": 1095,
  "##hall": 9892,
  "fellowship": 7881,
  "retired": 3394,
  "diet": 8738,
  "serie": 8668,
  "spaced": 19835,
  "##miento": 28883,
  "goose": 13020,
  "identified": 4453,
  "reigned": 21236,
  "calculations": 16268,
  "rained": 28270,
  "[unused873]": 878,
  "304": 23859,
  "##2": 2475,
  "strictly": 9975,
  "motorway": 13119,
  "prevalence": 20272,
  "staples": 24533,
  "##●": 30146,
  "テ": 1713,
  "wisdom": 9866,
  "##cs": 6169,
  "##mmon": 24521,
  "う": 1648,
  "##ⁱ": 30072,
  "credentials": 22496,
  "smirk": 15081,
  "gustave": 27973,
  "[unused610]": 615,
  "##ix": 7646,
  "quarry": 12907,
  "##民": 30418,
  "marlborough": 22830,
  "hike": 21857,
  "##islaus": 25678,
  "condemned": 10033,
  "##qi": 14702,
  "wiping": 14612,
  "oversight": 15709,
  "outraged": 23558,
  "liga": 8018,
  "advent": 13896,
  "カ": 1700,
  "nicholson": 16955,
  "por": 18499,
  "approval": 6226,
  "##break": 23890,
  "virgil": 17270,
  "wear": 4929,
  "lambert": 12838,
  "shredded": 29022,
  "##kulam": 28871,
  "basilica": 13546,
  "auditioned": 23008,
  "schuster": 24253,
  "twitch": 19435,
  "manuscript": 8356,
  "clifford": 13894,
  "gasps": 23813,
  "fletcher": 10589,
  "##ten": 6528,
  "taxpayer": 26980,
  "weep": 27874,
  "apostolic": 11815,
  "pena": 19409,
  "caught": 3236,
  "stars": 3340,
  "##farlane": 23511,
  "##ᄏ": 30002,
  "barrett": 12712,
  "typical": 5171,
  "##rao": 25667,
  "aaron": 7158,
  "temperance": 23372,
  "rodgers": 15652,
  "nsa": 23971,
  "##rrow": 28597,
  "bluff": 14441,
  "##amen": 27245,
  "rancho": 18123,
  "subtle": 11259,
  "rf": 21792,
  "[unused733]": 738,
  "residence": 5039,
  "1818": 12094,
  "fails": 11896,
  "gala": 16122,
  "harvest": 11203,
  "mud": 8494,
  "##fixed": 23901,
  "##ぬ": 30195,
  "hai": 15030,
  "tribes": 6946,
  "swallow": 10577,
  "albanians": 25267,
  "douglas": 5203,
  "visually": 17453,
  "archaeological": 7611,
  "theorists": 28442,
  "##itz": 8838,
  "justification": 19777,
  "1821": 11723,
  "truncated": 25449,
  "inspector": 7742,
  "##quin": 12519,
  "[unused588]": 593,
  "##bana": 19445,
  "blazed": 25590,
  "##リ": 30258,
  "sheridan": 13243,
  "##ball": 7384,
  "1817": 12529,
  "##are": 12069,
  "behind": 2369,
  "[unused767]": 772,
  "lest": 26693,
  "##sa": 3736,
  "prosecution": 11537,
  "keith": 6766,
  "rapper": 10687,
  "matteo": 24713,
  "出": 1774,
  "punished": 14248,
  "jam": 9389,
  "324": 27234,
  "rock": 2600,
  "cornelius": 17354,
  "##ately": 28239,
  "centre": 2803,
  "disadvantage": 20502,
  "##lins": 24412,
  "##boarding": 21172,
  "breathed": 8726,
  "come": 2272,
  "reaching": 4285,
  "defending": 6984,
  "##bard": 21458,
  "raining": 24057,
  "stimuli": 22239,
  "bride": 8959,
  "quota": 20563,
  "blossom": 20593,
  "difficulty": 7669,
  "albeit": 12167,
  "linking": 11383,
  "##hae": 25293,
  "aquitaine": 24973,
  "absorbing": 20998,
  "creates": 9005,
  "460": 17267,
  "##rco": 29566,
  "sends": 10255,
  "melting": 13721,
  "finds": 4858,
  "bananas": 26191,
  "glory": 8294,
  "legitimate": 11476,
  "remotely": 19512,
  "cadet": 12738,
  "pointed": 4197,
  "potter": 10693,
  "fray": 25975,
  "refined": 15514,
  "banners": 23562,
  "averaged": 11398,
  "gods": 5932,
  "slowly": 3254,
  "militants": 17671,
  "jorge": 10853,
  "calais": 23116,
  "metric": 12046,
  "johansson": 26447,
  "ceilings": 21098,
  "##igan": 10762,
  "out": 2041,
  "frigate": 15437,
  "##erved": 25944,
  "##oth": 14573,
  "response": 3433,
  "orchid": 15573,
  "entities": 11422,
  "hey": 4931,
  "[unused965]": 970,
  "describing": 7851,
  "techno": 21416,
  "indifference": 25920,
  "##haven": 14650,
  "gritted": 17307,
  "##elis": 29282,
  "resurgence": 26303,
  "shopping": 6023,
  "⇌": 1590,
  "inc": 4297,
  "geoff": 14915,
  "uttered": 20947,
  "extending": 8402,
  "demise": 13614,
  "secondly": 16378,
  "##zaki": 18637,
  "##avia": 15164,
  "startup": 22752,
  "overcome": 9462,
  "meg": 12669,
  "##bai": 26068,
  "cook": 5660,
  "ᵢ": 1507,
  "schleswig": 21173,
  "##tad": 17713,
  "##monium": 26387,
  "stimulation": 20858,
  "##mous": 27711,
  "－": 1990,
  "բ": 1220,
  "reunited": 11653,
  "##cheon": 28099,
  "castro": 11794,
  "axel": 18586,
  "rear": 4373,
  "##ink": 19839,
  "##kovich": 28195,
  "spots": 7516,
  "havoc": 22156,
  "##3d": 29097,
  "##元": 30295,
  "##aya": 12186,
  "bearing": 7682,
  "ngo": 17895,
  "##ital": 18400,
  "constituency": 5540,
  "vienna": 6004,
  "tombstone": 26671,
  "pits": 14496,
  "kilometer": 20595,
  "samurai": 16352,
  "singer": 3220,
  "shortages": 22623,
  "principles": 6481,
  "##vir": 21663,
  "##－": 30516,
  "tyre": 21904,
  "##lier": 14355,
  "distorted": 19112,
  "analog": 11698,
  "##unciation": 24101,
  "tempted": 16312,
  "douglass": 27485,
  "fines": 21892,
  "handkerchief": 23975,
  "increasingly": 6233,
  "sunday": 4465,
  "felicia": 27579,
  "gonzalez": 10121,
  "flop": 28583,
  "##cter": 21162,
  "easing": 24070,
  "likeness": 28275,
  "imagery": 13425,
  "qualified": 4591,
  "shillings": 29332,
  "autobiographical": 18534,
  "jennings": 14103,
  "follower": 22399,
  "union": 2586,
  "retain": 9279,
  "ζ": 1160,
  "zhou": 14367,
  "salvador": 10582,
  "locality": 10246,
  "chased": 13303,
  "##lysis": 26394,
  "##hawk": 17998,
  "woke": 8271,
  "upgraded": 9725,
  "beige": 28799,
  "deposit": 12816,
  "accession": 16993,
  "pine": 7222,
  "kiss": 3610,
  "3d": 7605,
  "pietro": 15541,
  "106": 10114,
  "tram": 12517,
  "are": 2024,
  "azores": 28320,
  "sells": 15187,
  "vox": 29450,
  "macmillan": 15434,
  "213": 19883,
  "##rang": 24388,
  "##roid": 22943,
  "dispatched": 14501,
  "[unused899]": 904,
  "[unused660]": 665,
  "collectors": 14256,
  "л": 1190,
  "##ɹ": 29691,
  "states": 2163,
  "ambrose": 15675,
  "willem": 18811,
  "rubbing": 10137,
  "chemical": 5072,
  "##otto": 23052,
  "magistrate": 14351,
  "determine": 5646,
  "drove": 5225,
  "⁶": 1540,
  "##þ": 29670,
  "m³": 14241,
  "europa": 12124,
  "kilkenny": 17131,
  "painfully": 16267,
  "investigated": 10847,
  "##flict": 29301,
  "null": 19701,
  "maneuvers": 23802,
  "slovene": 18326,
  "mfa": 26913,
  "exchange": 3863,
  "witnessing": 24740,
  "##ward": 7652,
  "uses": 3594,
  "[unused569]": 574,
  "wolverhampton": 20085,
  "unanimously": 15645,
  "responded": 5838,
  "discoveries": 15636,
  "zoological": 26168,
  "##chs": 18069,
  "iran": 4238,
  "spilled": 13439,
  "clicking": 22042,
  "kendra": 13812,
  "##sman": 11512,
  "##grove": 21525,
  "euroleague": 26093,
  "multicultural": 27135,
  "drawers": 22497,
  "contemporary": 3824,
  "[unused678]": 683,
  "##ed": 2098,
  "##ington": 7853,
  "unveiled": 11521,
  "chieftain": 26625,
  "falling": 4634,
  "ina": 27118,
  "accounting": 9529,
  "##lice": 13231,
  "##sio": 20763,
  "ow": 27593,
  "ecclesiastical": 12301,
  "reilly": 13875,
  "moldova": 16772,
  "angelina": 23847,
  "earnest": 17300,
  "showered": 23973,
  "mandal": 24373,
  "royals": 15426,
  "bali": 20222,
  "imagined": 8078,
  "ion": 10163,
  "territories": 6500,
  "##／": 30518,
  "workshops": 9656,
  "〈": 1637,
  "obstruction": 27208,
  "planners": 27155,
  "wait": 3524,
  "croix": 18733,
  "##tly": 14626,
  "vulnerability": 18130,
  "##icated": 17872,
  "##ddin": 18277,
  "##կ": 29774,
  "armchair": 29372,
  "lei": 26947,
  "northernmost": 22037,
  "toro": 23790,
  "berg": 15214,
  "adjust": 14171,
  "perch": 21836,
  "##age": 4270,
  "##air": 11215,
  "kris": 19031,
  "constituents": 24355,
  "capture": 5425,
  "fed": 7349,
  "barnet": 26864,
  "objected": 15959,
  "me": 2033,
  "«": 1077,
  "cartridges": 22998,
  "enrolled": 8302,
  "converge": 28314,
  "ャ": 1728,
  "autobiography": 10828,
  "z": 1062,
  "32nd": 20628,
  "##’": 30056,
  "[unused673]": 678,
  "nails": 10063,
  "reflective": 21346,
  "slightly": 3621,
  "slavic": 13838,
  "aerodynamic": 28033,
  "peasant": 14539,
  "##lating": 22248,
  "waved": 7147,
  "outdoors": 19350,
  "engraver": 27771,
  "plaster": 15673,
  "##ytic": 21252,
  "##thal": 24090,
  "bon": 14753,
  "hearst": 25419,
  "breathe": 7200,
  "bony": 22678,
  "wand": 23967,
  "hayward": 21506,
  "positioning": 19120,
  "mcgregor": 23023,
  "proof": 6947,
  "s": 1055,
  "sergey": 22703,
  "bitterness": 22364,
  "334": 29562,
  "disappear": 10436,
  "glamorgan": 23861,
  "ozone": 26443,
  "ready": 3201,
  "arias": 25905,
  "facilitated": 19601,
  "##to": 3406,
  "subsidy": 28768,
  "precise": 10480,
  "knuckles": 13513,
  "##rook": 25399,
  "honorable": 13556,
  "skipping": 25978,
  "ז": 1247,
  "clip": 12528,
  "coma": 16571,
  "##pura": 21228,
  "queer": 19483,
  "shield": 6099,
  "oldest": 4587,
  "რ": 1451,
  "artisans": 26818,
  "poisoned": 17672,
  "##ɒ": 29678,
  "compilations": 22754,
  "sobbing": 20040,
  "jarrett": 24503,
  "patricia": 10717,
  "##म": 29867,
  "transportation": 5193,
  "veronica": 13133,
  "ⁱ": 1537,
  "organizes": 22013,
  "marriages": 12743,
  "##ption": 16790,
  "breadth": 25291,
  "crystal": 6121,
  "thumbs": 16784,
  "steiner": 21264,
  "284": 26871,
  "guitars": 7334,
  "kimberley": 25004,
  "##sky": 5874,
  "##yan": 7054,
  "reminding": 15906,
  "##eration": 16754,
  "##բ": 29767,
  "meadows": 13524,
  "explaining": 9990,
  "1689": 22685,
  "fir": 21554,
  "decommissioned": 14394,
  "favorites": 20672,
  "pharmaceutical": 13859,
  "psi": 17816,
  "##த": 29921,
  "exists": 6526,
  "##oum": 24778,
  "ek": 23969,
  "##tro": 13181,
  "breakers": 24742,
  "hyundai": 25983,
  "cedar": 11354,
  "adventurer": 29506,
  "樹": 1884,
  "context": 6123,
  "severn": 24753,
  "husband": 3129,
  "calculus": 19276,
  "stanley": 6156,
  "幸": 1841,
  "suppliers": 20141,
  "robes": 17925,
  "recital": 25521,
  "aggregation": 28041,
  "undertake": 16617,
  "switches": 15924,
  "belarusian": 15626,
  "sanchez": 10568,
  "olympic": 4386,
  "democrats": 8037,
  "##antly": 15706,
  "##inas": 15227,
  "##rly": 21194,
  "##room": 9954,
  "stewart": 5954,
  "sim": 21934,
  "interceptor": 24727,
  "smelled": 9557,
  "clothing": 5929,
  "[unused536]": 541,
  "meal": 7954,
  "shivered": 13927,
  "for": 2005,
  "amusement": 9778,
  "compare": 12826,
  "secluded": 27044,
  "##nary": 24041,
  "penelope": 18641,
  "consider": 5136,
  "termed": 12061,
  "291": 27173,
  "brigham": 22727,
  "reyes": 12576,
  "telecommunications": 12108,
  "##bright": 26614,
  "##ggle": 24679,
  "gear": 6718,
  "dictatorship": 18944,
  "implication": 25323,
  "restrict": 21573,
  "defenders": 12534,
  "glasses": 7877,
  "step": 3357,
  "##makers": 12088,
  "accidentally": 9554,
  "##合": 30318,
  "##drum": 21884,
  "tuberculosis": 15877,
  "reveals": 7657,
  "##ield": 12891,
  "##pr": 18098,
  "##ucible": 21104,
  "softness": 27012,
  "光": 1770,
  "##thed": 23816,
  "someplace": 24956,
  "##act": 18908,
  "knows": 4282,
  "soccer": 4715,
  "hear": 2963,
  "sussex": 9503,
  "continuous": 7142,
  "##obe": 20891,
  "minimize": 18478,
  "fossils": 11954,
  "1730": 23272,
  "##free": 23301,
  "##iens": 24836,
  "##itha": 26054,
  "physiological": 19389,
  "国": 1799,
  "downing": 22501,
  "glee": 18874,
  "tiled": 26510,
  "[unused387]": 392,
  "jerusalem": 6744,
  "descend": 18855,
  "garcia": 7439,
  "[unused561]": 566,
  "aquino": 24183,
  "##pina": 26787,
  "construction": 2810,
  "zach": 12397,
  "verify": 20410,
  "##atin": 20363,
  "widely": 4235,
  "stylized": 19551,
  "assemble": 21365,
  "##yer": 10532,
  "bows": 21207,
  "##大": 30336,
  "lan": 17595,
  "core": 4563,
  "correspondent": 11370,
  "payments": 10504,
  "spokesman": 14056,
  "racecourse": 15948,
  "providers": 11670,
  "##ron": 4948,
  "metre": 7924,
  "##liffe": 27931,
  "levin": 20206,
  "regulate": 15176,
  "ireland": 3163,
  "pleaded": 12254,
  "gurney": 25061,
  "goldberg": 18522,
  "##cape": 19464,
  "cp": 18133,
  "1786": 17436,
  "demo": 9703,
  "regulations": 7040,
  "original": 2434,
  "##ط": 29828,
  "melvin": 20993,
  "surrey": 9948,
  "title": 2516,
  "zero": 5717,
  "swayed": 20122,
  "designate": 24414,
  "head": 2132,
  "1945": 3386,
  "impose": 17607,
  "reporters": 12060,
  "coordinator": 10669,
  "worshipped": 22876,
  "##ბ": 29975,
  "herbert": 7253,
  "almond": 26011,
  "sv": 17917,
  "technically": 10892,
  "inability": 13720,
  "extensive": 4866,
  "primarily": 3952,
  "jamestown": 27435,
  "reefs": 21484,
  "tossed": 7463,
  "boring": 11771,
  "##cus": 7874,
  "##gle": 9354,
  "assassinate": 25683,
  "smaller": 3760,
  "directing": 9855,
  "assistant": 3353,
  "rifles": 9494,
  "##tious": 20771,
  "swapped": 29176,
  "1809": 12861,
  "garment": 19002,
  "##ಾ": 29938,
  "abby": 9460,
  "shetland": 25552,
  "##tten": 25970,
  "ა": 1438,
  "veins": 9607,
  "##erie": 17378,
  "grinding": 16153,
  "boulevard": 8459,
  "telephone": 7026,
  "yearbook": 24803,
  "deepened": 20183,
  "##eles": 26741,
  "[unused105]": 110,
  "winery": 23910,
  "taxation": 14952,
  "mackay": 17090,
  "circular": 8206,
  "veracruz": 23741,
  "blooms": 29037,
  "japanese": 2887,
  "panorama": 23652,
  "phil": 6316,
  "1836": 10081,
  "damned": 9636,
  "gymnastics": 14002,
  "##ラ": 30257,
  "toledo": 13163,
  "classify": 26268,
  "constable": 12294,
  "yerevan": 23383,
  "hangar": 18284,
  "murders": 9916,
  "vanuatu": 27625,
  "when": 2043,
  "mania": 29310,
  "tyres": 24656,
  "amend": 27950,
  "articulated": 20742,
  "[unused195]": 200,
  "abduction": 23415,
  "messina": 27270,
  "zealand": 3414,
  "donkey": 20325,
  "stitches": 25343,
  "purely": 11850,
  "commentator": 12268,
  "ranging": 7478,
  "##tar": 7559,
  "##re": 2890,
  "planned": 3740,
  "uruguayan": 23464,
  "hostilities": 17601,
  "racial": 5762,
  "##bler": 16213,
  "curry": 15478,
  "ᵍ": 1500,
  "stadiums": 28244,
  "##∨": 30130,
  "went": 2253,
  "backgrounds": 15406,
  "##ja": 3900,
  "repertoire": 13646,
  "##s": 2015,
  "happening": 6230,
  "versatile": 22979,
  "winning": 3045,
  "laude": 21602,
  "advisory": 7319,
  "possessive": 22105,
  "##nburg": 22642,
  "vicar": 12340,
  "skills": 4813,
  "impulse": 14982,
  "coinage": 25396,
  "##rbin": 27366,
  "fairfield": 18986,
  "[unused397]": 402,
  "edmond": 21773,
  "specifications": 15480,
  "##lho": 28061,
  "##ර": 29941,
  "kaplan": 22990,
  "walden": 24834,
  "##graphy": 12565,
  "idol": 10282,
  "recommend": 16755,
  "planet": 4774,
  "1899": 6166,
  "leader": 3003,
  "mind": 2568,
  "bomber": 9472,
  "ineffective": 20694,
  "threats": 8767,
  "ours": 14635,
  "##ffe": 16020,
  "serra": 22737,
  "statutory": 15201,
  "res": 24501,
  "##ntation": 23436,
  "社": 1924,
  "milo": 20359,
  "unease": 27880,
  "insertion": 23851,
  "##lini": 22153,
  "##yama": 11613,
  "wimbledon": 13411,
  "##erre": 28849,
  "marlon": 25861,
  "arroyo": 23882,
  "freed": 10650,
  "##dre": 16200,
  "meath": 26856,
  "##gf": 25708,
  "jewelry": 11912,
  "vibrated": 27801,
  "##д": 29742,
  "herman": 11458,
  "unfair": 15571,
  "prosperity": 14165,
  "fried": 13017,
  "##tara": 27115,
  "donna": 10972,
  "occupying": 13992,
  "phoebe": 18188,
  "alfredo": 19423,
  "##陽": 30499,
  "ogden": 23203,
  "brethren": 17937,
  "docks": 15093,
  "tre": 29461,
  "institutional": 12148,
  "column": 5930,
  "heath": 9895,
  "dangers": 16796,
  "viktor": 13489,
  "jax": 13118,
  "cuba": 7394,
  "monaco": 14497,
  "shoe": 10818,
  "batch": 14108,
  "socialists": 21633,
  "heroine": 18869,
  "rwanda": 17591,
  "violinist": 16609,
  "pneumonia": 18583,
  "##atics": 17592,
  "##adi": 17190,
  "time": 2051,
  "##lip": 15000,
  "cases": 3572,
  "hurricanes": 17035,
  "substances": 13978,
  "~": 1066,
  "rebelled": 25183,
  "biomedical": 20906,
  "cyclic": 23750,
  "nomenclature": 23718,
  "jurassic": 19996,
  "air": 2250,
  "##ans": 6962,
  "##door": 23835,
  "ᵃ": 1496,
  "concessions": 20638,
  "shakespeare": 8101,
  "awakening": 16936,
  "##郡": 30485,
  "##µ": 29659,
  "##ы": 29113,
  "hem": 19610,
  "restored": 5854,
  "rebuild": 14591,
  "pleasure": 5165,
  "##blood": 26682,
  "##oke": 11045,
  "##ssi": 18719,
  "##wine": 21924,
  "forewings": 13211,
  "capital": 3007,
  "##rit": 14778,
  "##ncia": 22750,
  "cumulative": 23260,
  "sunglasses": 17072,
  "dunn": 14145,
  "ieee": 15368,
  "long": 2146,
  "linguistics": 15397,
  "sinister": 16491,
  "happily": 11361,
  "hardened": 15015,
  "##que": 4226,
  "##‒": 30050,
  "167": 16785,
  "hertfordshire": 18889,
  "100": 2531,
  "dragoons": 28069,
  "release": 2713,
  "antiquities": 21387,
  "metaphysical": 29081,
  "vascular": 21449,
  "badly": 6649,
  "##db": 18939,
  "fertility": 17376,
  "##ʾ": 29713,
  "consist": 8676,
  "mainly": 3701,
  "iso": 11163,
  "difficulties": 8190,
  "##eries": 28077,
  "mildly": 19499,
  "##sden": 27903,
  "roaming": 24430,
  "battlefield": 11686,
  "rumours": 19200,
  "billions": 25501,
  "mateo": 19327,
  "guantanamo": 23094,
  "armour": 12371,
  "culture": 3226,
  "hair": 2606,
  "dread": 14436,
  "inform": 12367,
  "ashby": 28729,
  "309": 25048,
  "legislative": 4884,
  "feminine": 12320,
  "##line": 4179,
  "52nd": 26898,
  "echo": 9052,
  "entrepreneurship": 20213,
  "bartholomew": 19866,
  "rematch": 18229,
  "##bbe": 19473,
  "industry": 3068,
  "fined": 16981,
  "second": 2117,
  "cody": 13326,
  "verse": 7893,
  "##ices": 23522,
  "־": 1240,
  "##bach": 7693,
  "motorsports": 20711,
  "hobart": 14005,
  "##bon": 11735,
  "osborne": 16732,
  "##十": 30309,
  "reached": 2584,
  "drawer": 13065,
  "accelerated": 14613,
  "secular": 10644,
  "asahi": 29465,
  "yep": 15624,
  "##kowski": 15449,
  "dedication": 12276,
  "images": 4871,
  "lawsuit": 9870,
  "##ole": 9890,
  "sort": 4066,
  "##公": 30298,
  "##ezer": 25733,
  "##aby": 21275,
  "slung": 20078,
  "swimmers": 21669,
  "##uw": 25974,
  "[unused221]": 226,
  "[unused944]": 949,
  "kane": 8472,
  "##ba": 3676,
  "length": 3091,
  "monasteries": 15947,
  "armory": 24139,
  "directive": 16449,
  "##ddling": 21814,
  "hoffmann": 24437,
  "farmhouse": 16870,
  "crumpled": 19814,
  "peshawar": 28777,
  "achieve": 6162,
  "taluk": 23140,
  "honolulu": 16598,
  "battle": 2645,
  "sensed": 10596,
  "verona": 20197,
  "##75": 23352,
  "tables": 7251,
  "isolated": 7275,
  "##ify": 8757,
  "正": 1888,
  "##lette": 27901,
  "electronics": 8139,
  "hub": 9594,
  "##amina": 27651,
  "[unused547]": 552,
  "##01": 24096,
  "restriction": 16840,
  "##roids": 29514,
  "limits": 6537,
  "##せ": 30185,
  "flexible": 12379,
  "declaring": 13752,
  "topped": 9370,
  "zhu": 15503,
  "proclamation": 16413,
  "chooses": 15867,
  "##cans": 26642,
  "pablo": 11623,
  "secretly": 10082,
  "grabbing": 9775,
  "rooney": 24246,
  "supportive": 16408,
  "hunched": 20498,
  "undeveloped": 29341,
  "57th": 28623,
  "budget": 5166,
  "largest": 2922,
  "whistling": 24350,
  "[unused433]": 438,
  "##ড": 29896,
  "heights": 7535,
  "х": 1200,
  "togo": 23588,
  "ʔ": 1139,
  "##itis": 13706,
  "##edo": 26010,
  "##bert": 8296,
  "friendly": 5379,
  "isaiah": 18850,
  "sunny": 11559,
  "becky": 14407,
  "cornerback": 26857,
  "automation": 19309,
  "##च": 29854,
  "mild": 10256,
  "goal": 3125,
  "1a": 20720,
  "netting": 26909,
  "alliances": 21277,
  "hasty": 27151,
  "bunk": 25277,
  "russell": 5735,
  "potato": 14557,
  "burr": 22715,
  "glendale": 27649,
  "metres": 3620,
  "morality": 16561,
  "ん": 1691,
  "[unused497]": 502,
  "americas": 10925,
  "causing": 4786,
  "microscope": 24635,
  "257": 24368,
  "vain": 15784,
  "qualifiers": 18956,
  "coloring": 22276,
  "fee": 7408,
  "chaplain": 14011,
  "mrna": 28848,
  "ultimate": 7209,
  "roberto": 10704,
  "ʒ": 1138,
  "enigma": 26757,
  "き": 1652,
  "kenji": 25894,
  "r": 1054,
  "carter": 5708,
  "1782": 16890,
  "gigantic": 20193,
  "well": 2092,
  "##rb": 15185,
  "candace": 22905,
  "dementia": 28767,
  "##ov": 4492,
  "currently": 2747,
  "priests": 8656,
  "##town": 4665,
  "warrington": 23051,
  "##յ": 29777,
  "chevalier": 22019,
  "division": 2407,
  "completely": 3294,
  "surrender": 7806,
  "produces": 7137,
  "hotspur": 25985,
  "automatically": 8073,
  "chestnut": 15655,
  "stokes": 18716,
  "associations": 8924,
  "professor": 2934,
  "throttle": 24420,
  "mountainous": 14897,
  "sighed": 5489,
  "sustainable": 9084,
  "##lem": 16930,
  "lured": 26673,
  "stuffed": 11812,
  "phosphate": 17344,
  "##linson": 25051,
  "chick": 14556,
  "##氷": 30421,
  "wii": 16568,
  "respond": 6869,
  "perception": 10617,
  "bridge": 2958,
  "granite": 9753,
  "trace": 7637,
  "bike": 7997,
  "torch": 12723,
  "independents": 23756,
  "##lder": 16502,
  "championship": 2528,
  "malcolm": 8861,
  "##ook": 14659,
  "masks": 15806,
  "bangladesh": 7269,
  "conner": 17639,
  "bachelor": 5065,
  "utc": 11396,
  "greg": 6754,
  "administered": 8564,
  "##侍": 30291,
  "infantry": 3939,
  "impatience": 28011,
  "spreads": 20861,
  "glistening": 25203,
  "ᄑ": 1468,
  "leaks": 29324,
  "fauna": 15018,
  "potential": 4022,
  "陳": 1972,
  "20s": 27074,
  "##una": 9521,
  "hailey": 21664,
  "compromised": 20419,
  "audi": 20075,
  "##dern": 25888,
  "holding": 3173,
  "concussion": 23159,
  "dishes": 10447,
  "rot": 18672,
  "densely": 19441,
  "ithaca": 27939,
  "♭": 1627,
  "patriot": 16419,
  "referring": 7727,
  "miss": 3335,
  "magnificent": 12047,
  "peterborough": 17587,
  "##დ": 29977,
  "palmer": 8809,
  "the": 1996,
  "##felt": 26675,
  "considerable": 6196,
  "##maid": 28478,
  "constantin": 27991,
  "##adt": 18727,
  "punk": 7196,
  "##bund": 27265,
  "##connected": 24230,
  "##ffle": 18142,
  "savage": 9576,
  "##fire": 10273,
  "personalities": 12857,
  "kinds": 7957,
  "broken": 3714,
  "abruptly": 9225,
  "marlins": 27055,
  "ᵒ": 1503,
  "##zee": 23940,
  "sizes": 10826,
  "dumping": 23642,
  "newcomers": 24159,
  "##tan": 5794,
  "[unused491]": 496,
  "stealth": 22150,
  "##ape": 24065,
  "gig": 15453,
  "participant": 13180,
  "sven": 21313,
  "mayfield": 27224,
  "##graphic": 14773,
  "bros": 10243,
  "dwellings": 16707,
  "##ire": 7442,
  "lush": 16299,
  "apes": 27754,
  "##bay": 15907,
  "sharks": 12004,
  "advanced": 3935,
  "conclusion": 7091,
  "minister": 2704,
  "benny": 11945,
  "storm": 4040,
  "blowing": 11221,
  "mono": 18847,
  "[unused111]": 116,
  "##tton": 15474,
  "consecrated": 12299,
  "montevideo": 22460,
  "beaten": 7854,
  "sabre": 22002,
  "sadly": 13718,
  "emblem": 16199,
  "developing": 4975,
  "lined": 7732,
  "pal": 14412,
  "diplomats": 23473,
  "aviator": 24035,
  "parties": 4243,
  "labeled": 12599,
  "clinch": 29119,
  "izzy": 16699,
  "parasites": 23996,
  "applicants": 17362,
  "[unused525]": 530,
  "##ney": 5420,
  "lawrence": 5623,
  "mcc": 23680,
  "isles": 14195,
  "enthusiast": 29550,
  "favoured": 16822,
  "##ose": 9232,
  "cannot": 3685,
  "twists": 21438,
  "mori": 22993,
  "##vati": 20203,
  "wally": 18202,
  "2018": 2760,
  "##ually": 28488,
  "##י": 29796,
  "banging": 22255,
  "##ond": 15422,
  "##lica": 19341,
  "coaches": 7850,
  "rejecting": 21936,
  "resolving": 29304,
  "finance": 5446,
  "forbes": 10822,
  "##idal": 16975,
  "##fall": 13976,
  "milwaukee": 9184,
  "pueblo": 18273,
  "descriptive": 22726,
  "striker": 11854,
  "polar": 11508,
  "hades": 23003,
  "isotope": 28846,
  "acclaimed": 10251,
  "assassin": 12025,
  "##vsky": 15904,
  "##ar": 2906,
  "distinguish": 10782,
  "illusion": 12492,
  "higher": 3020,
  "parapet": 27372,
  "suddenly": 3402,
  "[unused551]": 556,
  "ས": 1436,
  "hop": 6154,
  "gerhard": 21037,
  "thunder": 8505,
  "1663": 29016,
  "aztec": 25245,
  "yokohama": 20507,
  "philippe": 11169,
  "waterfalls": 24236,
  "##anza": 16076,
  "tree": 3392,
  "exclude": 23329,
  "##neil": 27276,
  "asturias": 26798,
  "copyright": 9385,
  "relocating": 26811,
  "looted": 27775,
  "##usia": 24118,
  "16": 2385,
  "predator": 15267,
  "##』": 30170,
  "[unused183]": 188,
  "jr": 3781,
  "attitudes": 13818,
  "doesn": 2987,
  "を": 1690,
  "servicemen": 26714,
  "##inton": 27028,
  "trident": 26515,
  "blinded": 20641,
  "ng": 12835,
  "reacts": 27325,
  "eat": 4521,
  "poem": 5961,
  "suited": 10897,
  "mile": 3542,
  "merits": 22617,
  "bengali": 11267,
  "nouveau": 25272,
  "##☆": 30148,
  "dustin": 24337,
  "##sey": 7952,
  "neutral": 8699,
  "⅔": 1582,
  "explained": 4541,
  "distinction": 7835,
  "permanently": 8642,
  "receiver": 8393,
  "##itative": 29293,
  "վ": 1235,
  "onboard": 27120,
  "peters": 12420,
  "[unused156]": 161,
  "##øy": 27688,
  "mounting": 15986,
  "florida": 3516,
  "##rian": 6862,
  "##ল": 29909,
  "##nies": 15580,
  "scholarly": 12683,
  "##vao": 24682,
  "thin": 4857,
  "ignited": 22395,
  "##ino": 5740,
  "catalan": 13973,
  "starbucks": 29500,
  "bizarre": 13576,
  "semester": 13609,
  "##27": 22907,
  "stories": 3441,
  "##phobia": 24920,
  "boer": 19945,
  "georgie": 20280,
  "whereas": 6168,
  "##ლ": 29983,
  "orb": 19607,
  "stepfather": 21481,
  "hanging": 5689,
  "geographic": 9183,
  "##sen": 5054,
  "der": 4315,
  "begun": 5625,
  "humanist": 24464,
  "universities": 5534,
  "bobo": 27418,
  "depths": 11143,
  "##辶": 30482,
  "[unused227]": 232,
  "servants": 8858,
  "carbonate": 26427,
  "##ᴮ": 30027,
  "grateful": 8794,
  "turned": 2357,
  "cambridgeshire": 24197,
  "##ller": 10820,
  "document": 6254,
  "commits": 27791,
  "##ndt": 26379,
  "##ppy": 27659,
  "##nar": 11802,
  "andersen": 18308,
  "##gating": 16961,
  "##biology": 21685,
  "bloomfield": 25584,
  "computer": 3274,
  "##aith": 22465,
  "chiang": 17684,
  "գ": 1221,
  "caller": 20587,
  "apps": 18726,
  "chant": 16883,
  "lowland": 15234,
  "stranded": 15577,
  "subdued": 20442,
  "chilly": 24222,
  "##る": 30213,
  "brigade": 4250,
  "eyelids": 16544,
  "gem": 17070,
  "excavated": 15199,
  "volunteers": 7314,
  "þ": 1101,
  "recruited": 8733,
  "ideological": 17859,
  "lowering": 13845,
  "vietnamese": 9101,
  "seven": 2698,
  "henan": 27837,
  "reelection": 17648,
  "sickness": 15556,
  "alison": 12684,
  "gregory": 7296,
  "patch": 8983,
  "[unused676]": 681,
  "intrinsic": 23807,
  "sneak": 13583,
  "langley": 19094,
  "regulators": 25644,
  "[unused877]": 882,
  "bedford": 12003,
  "disguise": 14249,
  "illnesses": 24757,
  "volcanoes": 23694,
  "##36": 21619,
  "saliva": 26308,
  "336": 27954,
  "dying": 5996,
  "diving": 9404,
  "tunis": 25317,
  "starring": 4626,
  "##heim": 8049,
  "[unused338]": 343,
  "musik": 28076,
  "embodied": 25405,
  "acceptable": 11701,
  "oneself": 25763,
  "[unused895]": 900,
  "gustavo": 24801,
  "purported": 27023,
  "clerical": 23106,
  "cabaret": 19685,
  "##olic": 23518,
  "hockey": 3873,
  "##pressing": 24128,
  "moi": 25175,
  "bridgeport": 27986,
  "##tl": 19646,
  "ensued": 18942,
  "##nka": 25804,
  "block": 3796,
  "expanded": 4423,
  "discomfort": 17964,
  "communicating": 20888,
  "businessmen": 17353,
  "º": 1089,
  "specifies": 27171,
  "restructuring": 18322,
  "##−1": 27944,
  "с": 1196,
  "aimed": 6461,
  "actress": 3883,
  "chesapeake": 20867,
  "golden": 3585,
  "##lston": 21540,
  "dover": 13985,
  "caravan": 17184,
  "##abad": 10542,
  "mccain": 19186,
  "salman": 28542,
  "1766": 21410,
  "clerks": 26706,
  "itunes": 11943,
  "covers": 4472,
  "yahoo": 20643,
  "phoenix": 6708,
  "flu": 19857,
  "h₂o": 24833,
  "govern": 21208,
  "##ধ": 29901,
  "marcia": 22548,
  "trooper": 28224,
  "lengths": 10742,
  "contamination": 18701,
  "stakes": 7533,
  "researcher": 10753,
  "retailer": 20196,
  "raging": 17559,
  "tack": 26997,
  "##江": 30423,
  "flashes": 16121,
  "synthetic": 12553,
  "assigned": 4137,
  "gracie": 19005,
  "[unused170]": 175,
  "barbie": 22635,
  "##zon": 11597,
  "##rize": 25709,
  "monde": 23117,
  "complexes": 15420,
  "justine": 26377,
  "rabbit": 10442,
  "##nsis": 11745,
  "mri": 27011,
  "palm": 5340,
  "##ctors": 24817,
  "busted": 23142,
  "##js": 22578,
  "groundwater": 22761,
  "henderson": 9481,
  "melville": 20154,
  "##code": 16044,
  "sweetie": 22872,
  "し": 1657,
  "picked": 3856,
  "premiere": 6765,
  "guillaume": 20061,
  "##nst": 23808,
  "olds": 19457,
  "##wice": 23425,
  "watch": 3422,
  "use": 2224,
  "##ட": 29920,
  "jacksonville": 13057,
  "herrera": 23527,
  "##ュ": 30255,
  "龍": 1982,
  "spokesperson": 15974,
  "##bino": 21891,
  "robyn": 28047,
  "tyne": 17742,
  "1844": 9730,
  "1825": 11384,
  "##ress": 8303,
  "puppets": 26101,
  "diaries": 18707,
  "##chrome": 20366,
  "incompatible": 25876,
  "putin": 22072,
  "brand": 4435,
  "asphalt": 16295,
  "famed": 15607,
  "arabia": 9264,
  "[unused399]": 404,
  "198": 20003,
  "football": 2374,
  "leto": 24543,
  "##zam": 20722,
  "nitrogen": 14114,
  "dust": 6497,
  "robbers": 28019,
  "blade": 6085,
  "warriors": 6424,
  "fists": 10006,
  "recruits": 15024,
  "##mon": 8202,
  "streak": 9039,
  "stevie": 17458,
  "fooled": 25857,
  "[unused59]": 60,
  "disaster": 7071,
  "##ᴰ": 30028,
  "wielding": 26974,
  "buying": 9343,
  "floating": 8274,
  "far": 2521,
  "pillars": 13766,
  "cabin": 6644,
  "compulsion": 27638,
  "##ག": 29962,
  "crosby": 14282,
  "##rga": 28921,
  "terrible": 6659,
  "solutions": 7300,
  "と": 1666,
  "perpetual": 18870,
  "laszlo": 28226,
  "librarian": 13850,
  "paramilitary": 22258,
  "spectacular": 12656,
  "ri": 15544,
  "seeking": 6224,
  "augustine": 14060,
  "lover": 7089,
  "boosted": 28043,
  "denomination": 18683,
  "sparked": 13977,
  "verve": 29230,
  "exeter": 12869,
  "##ɫ": 29686,
  "##ף": 29806,
  "demi": 27668,
  "border": 3675,
  "##ceae": 9071,
  "domains": 13100,
  "nineteenth": 9137,
  "##ieu": 17301,
  "##runa": 26605,
  "raided": 18784,
  "book": 2338,
  "##ico": 11261,
  "do": 2079,
  "1831": 10937,
  "musicals": 20103,
  "molly": 9618,
  "bilbao": 25427,
  "##rade": 13662,
  "aa": 9779,
  "telecom": 18126,
  "he": 2002,
  "curt": 20099,
  "的": 1916,
  "persisted": 19035,
  "##⁷": 30076,
  "234": 22018,
  "##umb": 25438,
  "orchestral": 13533,
  "eyeing": 19285,
  "##ece": 26005,
  "##pas": 19707,
  "recipients": 15991,
  "towering": 20314,
  "vampire": 4393,
  "chattanooga": 23351,
  "marker": 12115,
  "##ska": 8337,
  "temps": 29023,
  "70s": 17549,
  "##akh": 27573,
  "new": 2047,
  "cy": 22330,
  "[unused685]": 690,
  "task": 4708,
  "start": 2707,
  "nurses": 11500,
  "default": 12398,
  "calls": 4455,
  "internment": 29041,
  "quartet": 8530,
  "##bley": 29538,
  "explosion": 7738,
  "[unused620]": 625,
  "[unused921]": 926,
  "unsafe": 25135,
  "ᆫ": 1485,
  "##bane": 27543,
  "##apes": 29040,
  "##xes": 20156,
  "argentina": 5619,
  "bruce": 5503,
  "##eu": 13765,
  "frederick": 5406,
  "##₍": 30087,
  "teammates": 13220,
  "##tial": 20925,
  "abolition": 15766,
  "darkness": 4768,
  "eventually": 2776,
  "locals": 10575,
  "[unused124]": 129,
  "manufacturer": 7751,
  "bomb": 5968,
  "1645": 26081,
  "friend": 2767,
  "kara": 13173,
  "##hale": 15238,
  "##tman": 22942,
  "mv": 19842,
  "spiral": 12313,
  "larsen": 20094,
  "basically": 10468,
  "canceled": 13261,
  "shrug": 13409,
  "racers": 25791,
  "450": 10332,
  "wwe": 11700,
  "1895": 6301,
  "1708": 27337,
  "##games": 26393,
  "##erving": 25164,
  "##oric": 29180,
  "##54": 27009,
  "assam": 15181,
  "平": 1839,
  "ik": 20912,
  "metabolic": 21453,
  "ck": 23616,
  "cannons": 17138,
  "[unused991]": 996,
  "##cars": 20745,
  "bodyguards": 25681,
  "depending": 5834,
  "glitter": 27566,
  "luxurious": 20783,
  "archibald": 15917,
  "##ই": 29885,
  "personality": 6180,
  "filmmaker": 12127,
  "blurted": 18751,
  "probable": 15596,
  "edgar": 9586,
  "annex": 17827,
  "awake": 8300,
  "##urus": 20089,
  "##cho": 9905,
  "sprayed": 25401,
  "white": 2317,
  "metro": 6005,
  "glue": 25238,
  "rb": 21144,
  "nothing": 2498,
  "villains": 16219,
  "##rift": 16338,
  "labyrinth": 24239,
  "cocked": 13179,
  "kei": 26679,
  "turnbull": 26439,
  "sponsoring": 29396,
  "##ded": 5732,
  "##ʿ": 29714,
  "pious": 25020,
  "maia": 23478,
  "nashville": 8423,
  "##chua": 26200,
  "dare": 8108,
  "dell": 12418,
  "rn": 29300,
  "mason": 6701,
  "##ings": 8613,
  "##ᵒ": 30039,
  "##itude": 18679,
  "##ᆷ": 30023,
  "terrain": 9291,
  "salle": 18005,
  "##oides": 25064,
  "##forms": 22694,
  "kissed": 4782,
  "[unused352]": 357,
  "tatum": 25913,
  "##ws": 9333,
  "bench": 6847,
  "##isation": 6648,
  "##orra": 24285,
  "papua": 13049,
  "##ज": 29855,
  "swung": 7671,
  "thumb": 7639,
  "jim": 3958,
  "compares": 22963,
  "##jn": 22895,
  "certificate": 8196,
  "zeus": 15208,
  "sorts": 11901,
  "##cated": 12921,
  "mocking": 19545,
  "##buro": 23670,
  "1b": 26314,
  "hysterical": 25614,
  "##kko": 22426,
  "shelly": 28360,
  "##sho": 22231,
  "wexford": 23121,
  "shifters": 21537,
  "shouted": 6626,
  "ambassadors": 20986,
  "##oft": 15794,
  "sabha": 11200,
  "footage": 8333,
  "majority": 3484,
  "jew": 16522,
  "hans": 7003,
  "descends": 23328,
  "gleam": 24693,
  "aging": 12520,
  "lombard": 23441,
  "sanjay": 29590,
  "##月": 30398,
  "slang": 21435,
  "##nh": 25311,
  "##φ": 29736,
  "engulfed": 24692,
  "740": 25833,
  "harmful": 17631,
  "[unused239]": 244,
  "account": 4070,
  "copeland": 27303,
  "semi": 4100,
  "banks": 5085,
  "biomass": 28148,
  "73": 6421,
  "tires": 13310,
  "chichester": 23406,
  "figure": 3275,
  "##tled": 14782,
  "fellow": 3507,
  "##wing": 9328,
  "sniper": 17515,
  "##aka": 11905,
  "penetrated": 21653,
  "##gy": 6292,
  "framing": 20241,
  "triassic": 29529,
  "projecting": 18398,
  "wipe": 13387,
  "##tops": 25181,
  "objection": 22224,
  "##ʒ": 29704,
  "arteries": 28915,
  "thank": 4067,
  "raped": 15504,
  "donation": 13445,
  "self": 2969,
  "to": 2000,
  "snapping": 15790,
  "discovers": 9418,
  "barrier": 8803,
  "hairy": 15892,
  "acquiring": 13868,
  "devin": 23601,
  "##坂": 30329,
  "fisheries": 13424,
  "blinking": 15997,
  "##oso": 19137,
  "marne": 25823,
  "[unused701]": 706,
  "cornell": 10921,
  "outward": 15436,
  "hutchinson": 17165,
  "authorised": 19256,
  "vladimir": 8748,
  "timber": 7227,
  "devised": 14917,
  "carpenter": 10533,
  "eve": 6574,
  "marketed": 11625,
  "inland": 9514,
  "specific": 3563,
  "traverse": 20811,
  "sinks": 23462,
  "paw": 22195,
  "ᵗ": 1505,
  "##gens": 21230,
  "cortes": 22242,
  "amount": 3815,
  "xv": 15566,
  "traditional": 3151,
  "ノ": 1717,
  "##pace": 15327,
  "[unused505]": 510,
  "nirvana": 26530,
  "mirrors": 13536,
  "shelby": 15294,
  "ritter": 23168,
  "##sir": 29481,
  "ے": 1310,
  "##yah": 17560,
  "andhra": 14065,
  "elm": 17709,
  "bacteria": 10327,
  "##ı": 11722,
  "pea": 26034,
  "##ου": 26789,
  "architecture": 4294,
  "malayalam": 12998,
  "viking": 12886,
  "mortal": 9801,
  "six": 2416,
  "shelley": 15828,
  "regard": 7634,
  "angie": 14835,
  "sway": 17812,
  "household": 4398,
  "infants": 16725,
  "##growth": 26982,
  "[unused820]": 825,
  "##rna": 12789,
  "289": 27054,
  "##court": 13421,
  "##nous": 18674,
  "##安": 30346,
  "auxiliary": 9830,
  "penguin": 13987,
  "embracing": 23581,
  "fates": 26417,
  "：": 1993,
  "1973": 3381,
  "savings": 10995,
  "thrown": 6908,
  "carver": 20163,
  "fireworks": 16080,
  "tv": 2694,
  "bernardo": 21175,
  "visit": 3942,
  "clifton": 16271,
  "algorithm": 9896,
  "[unused864]": 869,
  "gender": 5907,
  "354": 27878,
  "neue": 27713,
  "truths": 23019,
  "signature": 8085,
  "printers": 23557,
  "書": 1871,
  "seaman": 21626,
  "plata": 19534,
  "relates": 14623,
  "femme": 26893,
  "dissolve": 21969,
  "probation": 19703,
  "managed": 3266,
  "ascent": 16354,
  "med": 19960,
  "honey": 6861,
  "romans": 10900,
  "magnate": 27470,
  "slovak": 12747,
  "violent": 6355,
  "mont": 18318,
  "gesture": 9218,
  "##⺩": 30158,
  "australia": 2660,
  "bugs": 12883,
  "measuring": 9854,
  "##bow": 18912,
  "##han": 4819,
  "rhodes": 10588,
  "predicting": 29458,
  "fern": 20863,
  "##wark": 24298,
  "pardon": 14933,
  "telescopes": 28026,
  "altitude": 7998,
  "compiling": 21953,
  "pascal": 17878,
  "resolve": 10663,
  "dunbar": 23034,
  "##下": 30269,
  "ledge": 18283,
  "1787": 16057,
  "keeper": 10684,
  "##口": 30314,
  "夏": 1808,
  "marshall": 5832,
  "passages": 13768,
  "profile": 6337,
  "marvel": 8348,
  "acknowledge": 13399,
  "problem": 3291,
  "involuntary": 26097,
  "##、": 30161,
  "zeta": 23870,
  "carrying": 4755,
  "##grant": 18980,
  "evolved": 7964,
  "deployment": 10813,
  "##iferous": 23930,
  "hotels": 9275,
  "moritz": 28461,
  "attaining": 26615,
  "[unused402]": 407,
  "projectile": 25921,
  "studio": 2996,
  "threat": 5081,
  "education": 2495,
  "[unused392]": 397,
  "instrument": 6602,
  "lac": 18749,
  "gag": 18201,
  "rug": 20452,
  "respecting": 27818,
  "##ieving": 25587,
  "##as": 3022,
  "chennai": 12249,
  "bedside": 19475,
  "porter": 8716,
  "[unused69]": 70,
  "fledged": 26712,
  "wallace": 7825,
  "jeff": 5076,
  "tracker": 27080,
  "protein": 5250,
  "identity": 4767,
  "speechless": 25146,
  "generals": 11593,
  "transfers": 15210,
  "waves": 5975,
  "designs": 5617,
  "madly": 29179,
  "desktop": 15363,
  "peat": 23366,
  "##lated": 13776,
  "killer": 6359,
  "authenticity": 21452,
  "napier": 21320,
  "retorted": 24056,
  "technology": 2974,
  "cancel": 17542,
  "##uka": 15750,
  "encounter": 8087,
  "encoding": 17181,
  "##belle": 25766,
  "genre": 6907,
  "##mpton": 26793,
  "verity": 22178,
  "##lices": 29146,
  "geologic": 22125,
  "nrhp": 22424,
  "mcnamara": 28340,
  "##inating": 19185,
  "vegetarian": 23566,
  "accurate": 8321,
  "ramps": 24943,
  "hold": 2907,
  "mickey": 11021,
  "kicker": 22652,
  "jamaican": 17851,
  "lisbon": 11929,
  "##cate": 16280,
  "resources": 4219,
  "##hoe": 14490,
  "atomic": 9593,
  "201": 16345,
  "scrambled": 13501,
  "paranoid": 19810,
  "##eded": 19082,
  "loudly": 9928,
  "delaying": 29391,
  "fm": 4718,
  "guyana": 18786,
  "##ffs": 21807,
  "wrinkled": 15968,
  "stricken": 16654,
  "bit": 2978,
  "##sby": 14478,
  "##rro": 18933,
  "executive": 3237,
  "##feng": 24383,
  "nh": 18699,
  "hole": 4920,
  "perhaps": 3383,
  "lyric": 13677,
  "lashed": 25694,
  "ɾ": 1126,
  "##aga": 16098,
  "erected": 7019,
  "weekend": 5353,
  "played": 2209,
  "commemorating": 20646,
  "permits": 14245,
  "choirs": 24743,
  "schedules": 20283,
  "succeeds": 21645,
  "quartermaster": 24688,
  "laps": 10876,
  "nevertheless": 6600,
  "commemorates": 25530,
  "favour": 7927,
  "##ович": 16198,
  "watershed": 12547,
  "##ner": 3678,
  "high": 2152,
  "pride": 6620,
  "[unused934]": 939,
  "##ouk": 27967,
  "##oked": 23461,
  "disbelief": 12537,
  "##kle": 19099,
  "stevens": 8799,
  "1634": 28502,
  "shattering": 21797,
  "blackish": 22032,
  "##earing": 27242,
  "aback": 26575,
  "sbs": 21342,
  "polynomial": 17505,
  "boon": 23264,
  "gabriel": 6127,
  "##ios": 10735,
  "chamber": 4574,
  "israelis": 28363,
  "connections": 7264,
  "slain": 19668,
  "338": 27908,
  "nets": 16996,
  "##rill": 24714,
  "wildcats": 19495,
  "touches": 12817,
  "##ych": 17994,
  "[unused250]": 255,
  "mistaken": 13534,
  "cinnamon": 21229,
  "commodities": 21955,
  "##გ": 29976,
  "aboard": 7548,
  "declares": 18806,
  "covered": 3139,
  "ว": 1419,
  "duc": 26363,
  "brennan": 13962,
  "##sp": 13102,
  "frightened": 10363,
  "trams": 19216,
  "[unused498]": 503,
  "##henko": 19767,
  "گ": 1305,
  "flee": 10574,
  "blend": 12586,
  "salim": 27490,
  "##gr": 16523,
  "cell": 3526,
  "lc": 29215,
  "[unused892]": 897,
  "sweep": 11740,
  "holiday": 6209,
  "##ₚ": 30097,
  "naturalist": 19176,
  "halifax": 10475,
  "louie": 17438,
  "##tight": 26143,
  "extremes": 28800,
  "binoculars": 29549,
  "##ams": 13596,
  "##lain": 15987,
  "expelled": 10016,
  "outlines": 22106,
  "1951": 4131,
  "louisiana": 5773,
  "[unused826]": 831,
  "organic": 7554,
  "triggered": 13330,
  "##№": 30106,
  "cooled": 12981,
  "[unused178]": 183,
  "carriers": 11363,
  "newer": 10947,
  "oldham": 18285,
  "awards": 2982,
  "composed": 3605,
  "pau": 29025,
  "sensor": 13617,
  "མ": 1432,
  "luke": 5355,
  "##rra": 11335,
  "mustafa": 19683,
  "micro": 12702,
  "##cen": 27524,
  "ro": 20996,
  "mo": 9587,
  "aux": 19554,
  "bauer": 17838,
  "strangled": 21384,
  "pinto": 25066,
  "polymers": 27216,
  "##tson": 25656,
  "kyushu": 25885,
  "##stems": 29189,
  "ensures": 21312,
  "afb": 16909,
  "manages": 9020,
  "##idi": 28173,
  "hilton": 15481,
  "##加": 30305,
  "ramon": 12716,
  "amulet": 25087,
  "agricultural": 4910,
  "critic": 6232,
  "ᅴ": 1482,
  "carousel": 27628,
  "1778": 16331,
  "##nsk": 25564,
  "[unused808]": 813,
  "alexia": 21683,
  "##ds": 5104,
  "vt": 28879,
  "##unda": 18426,
  "decker": 20946,
  "prediction": 17547,
  "consultant": 8930,
  "franchises": 22506,
  "warden": 13745,
  "##65": 26187,
  "amar": 23204,
  "trip": 4440,
  "ل": 1294,
  "』": 1644,
  "prisons": 15996,
  "paradox": 20506,
  "yellowish": 17804,
  "youthful": 22446,
  "diversified": 24908,
  "boroughs": 21413,
  "applicable": 12711,
  "airports": 13586,
  "matter": 3043,
  "##宇": 30345,
  "ferdinand": 9684,
  "allah": 16455,
  "э": 1208,
  "deterioration": 26118,
  "आ": 1312,
  "creations": 20677,
  "photographed": 16164,
  "lahore": 15036,
  "cracked": 9630,
  "##mat": 18900,
  "mustang": 18851,
  "grim": 11844,
  "196": 20035,
  "championships": 3219,
  "socially": 14286,
  "##cultural": 29415,
  "##rza": 24175,
  "existed": 5839,
  "kingdoms": 12028,
  "dmitry": 22141,
  "nan": 16660,
  "phonetic": 26664,
  "programmers": 28547,
  "astronomers": 26357,
  "google": 8224,
  "southernmost": 21787,
  "southwest": 4943,
  "ch": 10381,
  "hamilton": 5226,
  "queue": 24240,
  "1791": 14362,
  "elite": 7069,
  "re": 2128,
  "##vah": 21927,
  "shelves": 15475,
  "##ference": 25523,
  "mcgraw": 24179,
  "##巿": 30363,
  "afghan": 12632,
  "dickens": 19675,
  "kellogg": 26129,
  "causes": 5320,
  "salary": 10300,
  "f": 1042,
  "trier": 25487,
  "[unused290]": 295,
  "##ality": 23732,
  "hm": 20287,
  "dialects": 11976,
  "##gin": 11528,
  "axes": 19589,
  "chromosome": 16706,
  "goran": 28356,
  "lightning": 7407,
  "landau": 28570,
  "waltz": 17569,
  "impacts": 14670,
  "more": 2062,
  "rick": 6174,
  "functioned": 20903,
  "extinguished": 27705,
  "honest": 7481,
  "saying": 3038,
  "folds": 15439,
  "##iu": 17922,
  "hunting": 5933,
  "consolidated": 10495,
  "exactly": 3599,
  "ф": 1199,
  "rainforest": 18951,
  "penthouse": 22855,
  "1733": 27230,
  "љ": 1215,
  "四": 1798,
  "employer": 11194,
  "##atable": 27892,
  "##jun": 19792,
  "貝": 1952,
  "seminar": 18014,
  "charred": 29030,
  "kamen": 22099,
  "aggregator": 24089,
  "##raj": 14220,
  "mcdonald": 9383,
  "fleets": 25515,
  "unfortunate": 15140,
  "lineup": 10515,
  "trinidad": 11856,
  "hasan": 17000,
  "##hetic": 20086,
  "drain": 12475,
  "149": 17332,
  "interrupt": 17938,
  "shay": 18789,
  "satisfy": 13225,
  "1832": 10212,
  "curvature": 25045,
  "willow": 11940,
  "distal": 29333,
  "db": 16962,
  "[unused29]": 30,
  "thirst": 21810,
  "dawn": 6440,
  "condor": 29260,
  "##ej": 20518,
  "cove": 11821,
  "1890s": 13678,
  "##nant": 16885,
  "ingredients": 12760,
  "blackmail": 25044,
  "[unused810]": 815,
  "blame": 7499,
  "##thesis": 25078,
  "##uated": 16453,
  "[unused799]": 804,
  "seeker": 29444,
  "##sville": 9337,
  "handel": 21465,
  "clit": 17962,
  "##rley": 12866,
  "tract": 12859,
  "reflects": 11138,
  "##vas": 12044,
  "republics": 24822,
  "##inski": 19880,
  "scorpion": 22015,
  "economically": 15318,
  "##bilities": 14680,
  "troops": 3629,
  "mohammad": 12050,
  "cushion": 22936,
  "##ur": 3126,
  "pony": 15606,
  "outs": 21100,
  "baths": 19692,
  "administrations": 27722,
  "package": 7427,
  "ample": 20851,
  "sides": 3903,
  "typing": 22868,
  "sobbed": 25960,
  "[unused672]": 677,
  "brightly": 14224,
  "virtue": 11870,
  "reflect": 8339,
  "upbringing": 24615,
  "folklore": 13104,
  "arizona": 5334,
  "roma": 12836,
  "giacomo": 22873,
  "elevator": 7764,
  "##crat": 23185,
  "myles": 27056,
  "mr": 2720,
  "145": 13741,
  "##fs": 10343,
  "downtown": 5116,
  "stephens": 15037,
  "simulcast": 20525,
  "##very": 27900,
  "captives": 21496,
  "spacious": 22445,
  "²": 1082,
  "##ko": 3683,
  "centered": 8857,
  "located": 2284,
  "injustice": 21321,
  "##thus": 19877,
  "necessary": 4072,
  "makeup": 5789,
  "##fted": 18915,
  "[unused762]": 767,
  "み": 1678,
  "##₀": 17110,
  "manly": 19385,
  "council": 2473,
  "booster": 23715,
  "silas": 18553,
  "plunge": 25912,
  "fide": 26000,
  "clause": 11075,
  "feminism": 20050,
  "obligation": 14987,
  "##∧": 30129,
  "pee": 21392,
  "##%": 29616,
  "easy": 3733,
  "##ರ": 29937,
  "firing": 7493,
  "royal": 2548,
  "postgraduate": 15438,
  "revive": 17995,
  "[unused516]": 521,
  "roadway": 18799,
  "##ald": 19058,
  "fence": 8638,
  "##layer": 24314,
  "bankruptcy": 10528,
  "appeared": 2596,
  "ebony": 27680,
  "630": 23609,
  "lyrical": 16376,
  "heavyweight": 8366,
  "deaf": 12419,
  "geologist": 21334,
  "tones": 12623,
  "gulp": 26546,
  "trout": 13452,
  "hissing": 26386,
  "surrounded": 5129,
  "antennas": 26315,
  "sophomore": 13758,
  "glint": 25263,
  "tightly": 7371,
  "sf": 16420,
  "croft": 28983,
  "gambia": 26728,
  "ordnance": 14445,
  "herr": 23506,
  "encompassed": 24058,
  "widening": 17973,
  "fiery": 15443,
  "ascension": 18071,
  "བ": 1431,
  "stephenson": 19789,
  "comedy": 4038,
  "##rol": 13153,
  "spelling": 11379,
  "##een": 12129,
  "1749": 24704,
  "##iol": 20282,
  "whipping": 23016,
  "##jo": 5558,
  "infinite": 10709,
  "1961": 3777,
  "##oslav": 23085,
  "newscasts": 24482,
  "huff": 21301,
  "unbearable": 24257,
  "sarcastically": 23800,
  "pounds": 7038,
  "##pee": 28084,
  "sigismund": 26748,
  "am": 2572,
  "sperm": 18047,
  "mascara": 27700,
  "##gum": 22850,
  "hanoi": 24809,
  "pmid": 20117,
  "##cian": 14483,
  "petra": 20953,
  "yacht": 12187,
  "content": 4180,
  "canadians": 16485,
  "succeeding": 13034,
  "po": 13433,
  "[unused27]": 28,
  "not": 2025,
  "installing": 23658,
  "彳": 1845,
  "tours": 7562,
  "dirk": 17594,
  "az": 17207,
  "harm": 7386,
  "inches": 5282,
  "decision": 3247,
  "efficiently": 18228,
  "torque": 15894,
  "potion": 26722,
  "nico": 19332,
  "##cis": 22987,
  "observers": 14009,
  "shouldered": 29383,
  "##st": 3367,
  "extensively": 8077,
  "##orough": 26388,
  "reappeared": 23040,
  "დ": 1441,
  "##bridge": 6374,
  "bolivia": 11645,
  "##avian": 21654,
  "hbo": 14633,
  "tastes": 16958,
  "patiently": 19080,
  "##に": 30194,
  "1834": 10700,
  "yesterday": 7483,
  "versa": 18601,
  "highlighted": 11548,
  "termination": 18287,
  "alongside": 4077,
  "gov": 18079,
  "##ash": 11823,
  "somber": 28587,
  "journey": 4990,
  "enthusiastic": 14727,
  "®": 1079,
  "abundant": 12990,
  "fleet": 4170,
  "##hana": 15788,
  "concacaf": 22169,
  "opted": 12132,
  "beaver": 13570,
  "##ssler": 23385,
  "takahashi": 25585,
  "stamps": 12133,
  "trailing": 12542,
  "succeed": 9510,
  "1741": 25280,
  "between": 2090,
  "bien": 29316,
  "##dley": 14232,
  "reference": 4431,
  "##bet": 20915,
  "##ifying": 11787,
  "251": 22582,
  "expanding": 9186,
  "creators": 17277,
  "##rigue": 27611,
  "##erik": 27350,
  "adolescence": 29101,
  "athens": 7571,
  "##tyle": 27983,
  "fist": 7345,
  "lifetime": 6480,
  "[unused550]": 555,
  "adjusting": 19158,
  "##osa": 8820,
  "ष": 1337,
  "rodney": 13898,
  "enter": 4607,
  "##ikh": 28209,
  "served": 2366,
  "tomatoes": 12851,
  "planets": 11358,
  "twenty20": 22240,
  "crossroads": 16760,
  "ibm": 9980,
  "boating": 23639,
  "bleed": 19501,
  "dire": 18704,
  "sweat": 7518,
  "familiarity": 24666,
  "pixels": 27725,
  "[unused891]": 896,
  "discourage": 28085,
  "ethiopia": 11154,
  "##flight": 28968,
  "##plane": 11751,
  "hits": 4978,
  "comparison": 7831,
  "sooner": 10076,
  "nuts": 12264,
  "sovereign": 11074,
  "##lena": 20844,
  "##ple": 10814,
  "belonged": 6272,
  "cousins": 12334,
  "mage": 17454,
  "prestigious": 8919,
  "##rius": 13245,
  "decreased": 10548,
  "##tz": 5753,
  "aggregate": 9572,
  "villain": 12700,
  "sgt": 17001,
  "beverage": 19645,
  "##etta": 16549,
  "aug": 15476,
  "##ener": 24454,
  "##icides": 22698,
  "##icon": 28524,
  "standing": 3061,
  "mapped": 17715,
  "centennial": 15483,
  "cue": 16091,
  "guess": 3984,
  "coat": 5435,
  "scenery": 17363,
  "operating": 4082,
  "216": 20294,
  "file": 5371,
  "totaled": 23596,
  "mutants": 23892,
  "[unused112]": 117,
  "exclusive": 7262,
  "laughter": 7239,
  "writer": 3213,
  "meyrick": 15228,
  "divides": 20487,
  "fireplace": 13788,
  "##cit": 26243,
  "ε": 1159,
  "communities": 4279,
  "corner": 3420,
  "industries": 6088,
  "evelyn": 12903,
  "symptoms": 8030,
  "property": 3200,
  "##aton": 22436,
  "manuscripts": 10485,
  "##our": 8162,
  "accommodate": 8752,
  "gears": 19456,
  "accompanied": 5642,
  "foremost": 16097,
  "myra": 23020,
  "bulldog": 28628,
  "avail": 24608,
  "netball": 25034,
  "greaves": 27808,
  "33": 3943,
  "hurriedly": 23878,
  "luck": 6735,
  "organ": 5812,
  "biennale": 21140,
  "##lke": 28143,
  "attributes": 12332,
  "egypt": 5279,
  "austro": 16951,
  "concealed": 14091,
  "##ان": 18511,
  "above": 2682,
  "key": 3145,
  "liu": 8607,
  "wheelchair": 13204,
  "stephen": 4459,
  "down": 2091,
  "locks": 11223,
  "snacks": 27962,
  "comparisons": 18539,
  "denis": 11064,
  "##cts": 16649,
  "##utter": 26878,
  "heats": 18559,
  "op": 6728,
  "canada": 2710,
  "scrape": 26988,
  "greene": 11006,
  "renovated": 10601,
  "##এ": 29887,
  "run": 2448,
  "mc": 11338,
  "##原": 30313,
  "28": 2654,
  "loss": 3279,
  "hodgson": 26107,
  "hermitage": 24708,
  "betray": 20895,
  "entertain": 20432,
  "rosario": 17496,
  "##link": 13767,
  "ག": 1426,
  "pius": 14363,
  "stoke": 13299,
  "superiority": 19113,
  "indirectly": 17351,
  "augsburg": 24362,
  "ashore": 16145,
  "greenwich": 13861,
  "blasting": 26239,
  "ridiculous": 9951,
  "lying": 4688,
  "probably": 2763,
  "times": 2335,
  "##rran": 28327,
  "modernization": 20181,
  "passing": 4458,
  "##rup": 21531,
  "undertaker": 27568,
  "og": 13958,
  "##tte": 4674,
  "stranger": 7985,
  "ড": 1360,
  "delicious": 12090,
  "detail": 6987,
  "##ɴ": 29690,
  "assumed": 5071,
  "dona": 24260,
  "dung": 29328,
  "ร": 1417,
  "staggering": 26233,
  "ir": 20868,
  "[unused683]": 688,
  "ashton": 13772,
  "237": 23297,
  "hp": 6522,
  "fifa": 5713,
  "nils": 27282,
  "mistakes": 12051,
  "proliferation": 20250,
  "giggled": 15889,
  "monarchy": 12078,
  "cannabis": 17985,
  "argue": 7475,
  "fortunes": 18023,
  "montpellier": 28153,
  "ballroom": 14307,
  "##ved": 7178,
  "1719": 28162,
  "rihanna": 25439,
  "##ives": 24653,
  "booklet": 19271,
  "sentiment": 15792,
  "wry": 24639,
  "affected": 5360,
  "janata": 20308,
  "dracula": 18500,
  "##3": 2509,
  "country": 2406,
  "throughout": 2802,
  "swiss": 5364,
  "##ines": 10586,
  "##vy": 10736,
  "licensed": 7000,
  "turbo": 15386,
  "bin": 8026,
  "warily": 23625,
  "ھ": 1307,
  "##ginal": 24965,
  "brisbane": 7717,
  "traps": 16735,
  "monmouth": 20433,
  "[unused734]": 739,
  "publisher": 6674,
  "##nac": 18357,
  "brain": 4167,
  "transvaal": 28336,
  "decline": 6689,
  "##rling": 22036,
  "astonishment": 23819,
  "bro": 22953,
  "boo": 22017,
  "staged": 9813,
  "susquehanna": 26361,
  "juliet": 13707,
  "referenced": 14964,
  "##ridge": 9438,
  "rushes": 18545,
  "ʌ": 1134,
  "amman": 25703,
  "horrors": 22812,
  "lorenzo": 12484,
  "constructions": 21913,
  "##¶": 29660,
  "##ace": 10732,
  "racehorse": 25068,
  "radiant": 23751,
  "inappropriate": 15884,
  "analytics": 25095,
  "systematically": 23087,
  "hers": 5106,
  "serialized": 27289,
  "km": 2463,
  "231": 20304,
  "enclosed": 10837,
  "william": 2520,
  "audiences": 9501,
  "tequila": 26791,
  "[unused631]": 636,
  "س": 1282,
  "##dial": 27184,
  "alloys": 28655,
  "difficult": 3697,
  "assemblies": 17720,
  "continue": 3613,
  "whenever": 7188,
  "supporters": 6793,
  "idols": 24438,
  "shirts": 11344,
  "##心": 30375,
  "gnu": 27004,
  "detrimental": 29172,
  "rms": 29311,
  "##5": 2629,
  "modification": 14080,
  "crises": 25332,
  "sliding": 8058,
  "breuning": 18177,
  "roam": 25728,
  "##37": 24434,
  "##lla": 4571,
  "fruits": 10962,
  "selecting": 17739,
  "##ography": 9888,
  "gilbert": 7664,
  "щ": 1204,
  "व": 1335,
  "1981": 3261,
  "sicily": 12071,
  "downloadable": 26720,
  "italics": 19408,
  "otis": 18899,
  "awakened": 20256,
  "german": 2446,
  "melt": 14899,
  "morse": 17107,
  "genealogical": 29606,
  "badges": 23433,
  "ceiling": 5894,
  "clapton": 24705,
  "continental": 6803,
  "framework": 7705,
  "dewey": 20309,
  "haynes": 21805,
  "transporting": 18276,
  "nad": 23233,
  "44": 4008,
  "ships": 3719,
  "##ffed": 15388,
  "plate": 5127,
  "therapeutic": 17261,
  "dom": 14383,
  "##yne": 9654,
  "shortage": 15843,
  "tomato": 20856,
  "ve": 2310,
  "jaya": 24120,
  "##su": 6342,
  "incorporating": 13543,
  "##llie": 23697,
  "anonymous": 10812,
  "rushed": 6760,
  "peaceful": 9379,
  "##rton": 11715,
  "offering": 5378,
  "outskirts": 12730,
  "relics": 16712,
  "moe": 22078,
  "turtle": 13170,
  "##sto": 16033,
  "pleasantly": 27726,
  "ᅦ": 1473,
  "communes": 16569,
  "86": 6564,
  "sixteen": 7032,
  "##fles": 28331,
  "24th": 13386,
  "[unused197]": 202,
  "audition": 14597,
  "[unused839]": 844,
  "employee": 7904,
  "shook": 3184,
  "published": 2405,
  "boone": 15033,
  "hose": 21290,
  "[unused528]": 533,
  "tall": 4206,
  "at": 2012,
  "fumbled": 20054,
  "panted": 28149,
  "clones": 24418,
  "sellers": 19041,
  "invade": 18445,
  "responsibility": 5368,
  "տ": 1236,
  "[unused902]": 907,
  "pokemon": 20421,
  "veil": 15562,
  "backdrop": 18876,
  "logistical": 28961,
  "##dity": 25469,
  "##vocation": 19152,
  "berber": 27514,
  "##tell": 23567,
  "##pressive": 27484,
  "##arable": 25236,
  "##tion": 3508,
  "sudan": 10411,
  "##cala": 25015,
  "##yev": 17240,
  "rafe": 15819,
  "##arding": 29154,
  "lithuanian": 10333,
  "##cene": 17968,
  "garner": 18661,
  "stroke": 6909,
  "entries": 10445,
  "vessel": 6258,
  "##bella": 21700,
  "∪": 1605,
  "##rds": 17811,
  "ego": 13059,
  "bowling": 9116,
  "contemporaries": 16682,
  "##ety": 27405,
  "cologne": 10918,
  "productions": 5453,
  "monterey": 19860,
  "estimate": 10197,
  "mythical": 19336,
  "enemies": 6716,
  "rumbled": 22257,
  "unchanged": 15704,
  "tube": 7270,
  "departed": 7745,
  "compression": 13379,
  "celebrate": 8439,
  "##rys": 24769,
  "neighbor": 11429,
  "corvette": 22687,
  "shelters": 17177,
  "##kas": 13716,
  "gillian": 22358,
  "1757": 22621,
  "gorman": 25693,
  "##gp": 21600,
  "selling": 4855,
  "##test": 22199,
  "國": 1800,
  "18": 2324,
  "tim": 5199,
  "traitor": 17328,
  "konrad": 22958,
  "gum": 16031,
  "##rting": 24097,
  "92": 6227,
  "म": 1331,
  "shadow": 5192,
  "magnetic": 8060,
  "doorstep": 26581,
  "bourbon": 15477,
  "discouraged": 22585,
  "emphasized": 13155,
  "delivering": 12771,
  "pounder": 20091,
  "code": 3642,
  "1711": 28455,
  "mornings": 16956,
  "batman": 8942,
  "##rlin": 19403,
  "##wife": 19993,
  "mention": 5254,
  "apostles": 19178,
  "misery": 14624,
  "辶": 1956,
  "##dini": 26039,
  "##hl": 7317,
  "tornado": 11352,
  "[unused933]": 938,
  "%": 1003,
  "hiding": 6318,
  "451": 28161,
  "stud": 16054,
  "splitting": 14541,
  "##unced": 22392,
  "blair": 10503,
  "accompany": 12673,
  "##scu": 28817,
  "ankles": 15392,
  "tristan": 9822,
  "marries": 19941,
  "shortly": 3859,
  "neighbours": 14754,
  "esther": 14631,
  "arrested": 4727,
  "smoothing": 27045,
  "##ulate": 9869,
  "genera": 11416,
  "caressed": 21473,
  "noctuidae": 24893,
  "##tries": 21011,
  "##kie": 11602,
  "з": 1187,
  "##real": 22852,
  "##meister": 28824,
  "convicts": 24948,
  "exchanges": 15800,
  "nickelodeon": 20814,
  "greco": 18180,
  "00": 4002,
  "arcadia": 25178,
  "##λ": 29727,
  "liaison": 14975,
  "greece": 5483,
  "graveyard": 16685,
  "##unt": 16671,
  "crusade": 16282,
  "mobile": 4684,
  "communal": 15029,
  "crimean": 20516,
  "confusion": 6724,
  "sensations": 21378,
  "blank": 8744,
  "root": 7117,
  "tam": 17214,
  "size": 2946,
  "1646": 28783,
  "smirked": 18775,
  "gage": 10012,
  "eater": 28496,
  "correspondence": 11061,
  "##ents": 11187,
  "collar": 9127,
  "edition": 3179,
  "##18": 15136,
  "exploding": 20728,
  "algerian": 16953,
  "nearby": 3518,
  "crystals": 14438,
  "##recht": 28109,
  "storyline": 9994,
  "conflicting": 19326,
  "##veda": 28614,
  "raj": 11948,
  "##erly": 12561,
  "diverted": 18356,
  "ardent": 25314,
  "blinds": 28279,
  "admiration": 17005,
  "intricate": 17796,
  "legislatures": 27977,
  "beautifully": 17950,
  "64": 4185,
  "neurological": 23130,
  "vow": 19076,
  "aide": 14895,
  "sneaking": 20727,
  "eugene": 8207,
  "kendrick": 25341,
  "[unused468]": 473,
  "crows": 21623,
  "##同": 30320,
  "phones": 11640,
  "タ": 1709,
  "locally": 7246,
  "chatter": 24691,
  "berkshire": 15570,
  "occasion": 6686,
  "##ractive": 26884,
  "defect": 21262,
  "barrel": 8460,
  "##roy": 13238,
  "powell": 8997,
  "ideals": 15084,
  "duet": 11979,
  "quarterfinals": 9237,
  "site": 2609,
  "mecklenburg": 22007,
  "##dora": 24562,
  "[unused443]": 448,
  "rest": 2717,
  "endless": 10866,
  "##ave": 10696,
  "bandits": 19088,
  "salvage": 18340,
  "##eg": 13910,
  "##oire": 26250,
  "few": 2261,
  "##eti": 20624,
  "chosen": 4217,
  "221": 19594,
  "abyss": 22159,
  "schneider": 15159,
  "ran": 2743,
  "stunning": 14726,
  "40": 2871,
  "bengal": 8191,
  "televised": 13762,
  "pages": 5530,
  "humiliating": 28284,
  "shade": 8703,
  "331": 27533,
  "extreme": 6034,
  "consoles": 22659,
  "nautical": 11339,
  "##haling": 23896,
  "oceans": 17401,
  "##ces": 9623,
  "[unused622]": 627,
  "buenos": 9204,
  "##ʊ": 29698,
  "chair": 3242,
  "subset": 16745,
  "in": 1999,
  "beings": 9552,
  "slaughter": 14574,
  "entertainer": 21751,
  "56th": 29087,
  "gleaming": 18242,
  "know": 2113,
  "facade": 8508,
  "raven": 10000,
  "pair": 3940,
  "security": 3036,
  "winced": 15574,
  "##chee": 25923,
  "##pled": 21132,
  "fcc": 14420,
  "yuri": 14331,
  "fiction": 4349,
  "clasp": 23465,
  "glaring": 16124,
  "hint": 9374,
  "宗": 1821,
  "future": 2925,
  "tango": 17609,
  "ripe": 22503,
  "proving": 13946,
  "##eis": 17580,
  "##ffer": 12494,
  "##ood": 17139,
  "penang": 21812,
  "reverse": 7901,
  "##橋": 30411,
  "##ibar": 26656,
  "commodity": 19502,
  "##itical": 26116,
  "mexican": 4916,
  "brace": 17180,
  "akron": 22735,
  "aquatic": 13582,
  "augusto": 29085,
  "peptide": 25117,
  "sumner": 23922,
  "labour": 4428,
  "##hal": 8865,
  "resurrection": 15218,
  "guarantee": 11302,
  "##nov": 16693,
  "[unused320]": 325,
  "##ʲ": 29707,
  "degree": 3014,
  "sect": 17831,
  "liberated": 19553,
  "alligator": 28833,
  "##master": 8706,
  "●": 1619,
  "processing": 6364,
  "theaters": 12370,
  "9": 1023,
  "neumann": 22860,
  "gazed": 11114,
  "justin": 6796,
  "syracuse": 11736,
  "186": 19609,
  "##ising": 9355,
  "therapist": 19294,
  "migrated": 13447,
  "keyboardist": 20173,
  "valencia": 13083,
  "grown": 4961,
  "##ovo": 16059,
  "##sche": 22842,
  "negligence": 27988,
  "##43": 23777,
  "ministers": 7767,
  "remake": 12661,
  "sourced": 23184,
  "incredibly": 11757,
  "##acy": 15719,
  "agent": 4005,
  "[unused245]": 250,
  "haitian": 21404,
  "grasped": 15517,
  "externally": 27223,
  "dun": 24654,
  "rewarded": 14610,
  "mock": 12934,
  "trial": 3979,
  "tale": 6925,
  "charting": 17918,
  "##ع": 29830,
  "tournaments": 8504,
  "beginnings": 16508,
  "##tens": 25808,
  "aye": 13442,
  "establishment": 5069,
  "gibraltar": 12272,
  "facebook": 9130,
  "levy": 12767,
  "##pers": 7347,
  "cooke": 16546,
  "demanding": 9694,
  "poisoning": 16149,
  "##dicated": 26022,
  "1860": 7313,
  "parliamentary": 5768,
  "initiation": 17890,
  "hasn": 8440,
  "inspirational": 28676,
  "##rkin": 26891,
  "closely": 4876,
  "communion": 15661,
  "##iny": 24300,
  "vinegar": 29387,
  "flexibility": 16991,
  "min": 8117,
  "animation": 7284,
  "beetles": 14538,
  "##ties": 7368,
  "fucking": 8239,
  "skirmish": 27264,
  "provence": 19923,
  "tattoos": 18395,
  "外": 1809,
  "narrowed": 8061,
  "induction": 15946,
  "hindus": 18221,
  "[unused93]": 94,
  "judge": 3648,
  "wince": 29585,
  "yamaha": 24031,
  "sa": 7842,
  "suppressed": 13712,
  "corrupt": 13593,
  "worthy": 11007,
  "##gu": 12193,
  "stirred": 13551,
  "blouse": 18149,
  "fog": 9666,
  "confession": 12633,
  "participated": 4194,
  "##iate": 13143,
  "##μ": 29728,
  "sheep": 8351,
  "gel": 21500,
  "armored": 10612,
  "irritation": 17373,
  "ljubljana": 21588,
  "manner": 5450,
  "transmissions": 21670,
  "worldwide": 4969,
  "##น": 29949,
  "郡": 1959,
  "courage": 8424,
  "宿": 1826,
  "jurisdiction": 7360,
  "warp": 24136,
  "designations": 26672,
  "baseball": 3598,
  "spies": 16794,
  "[unused363]": 368,
  "associated": 3378,
  "countered": 17970,
  "##jos": 19929,
  "##文": 30387,
  "consisted": 5031,
  "1933": 4537,
  "boasts": 21979,
  "##亻": 30283,
  "distracting": 25012,
  "schultz": 22378,
  "being": 2108,
  "sahara": 19604,
  "conquered": 11438,
  "fielder": 25000,
  "##চ": 29892,
  "adjunct": 20621,
  "##cock": 13959,
  "messengers": 28938,
  "lads": 29126,
  "##light": 7138,
  "extends": 8908,
  "##ocks": 25384,
  "derivation": 29280,
  "ultra": 11087,
  "identical": 7235,
  "dimly": 25361,
  "[unused968]": 973,
  "whistled": 26265,
  "weights": 15871,
  "##示": 30449,
  "[unused12]": 13,
  "wings": 4777,
  "scratching": 20291,
  "enrollment": 10316,
  "##ocytes": 28788,
  "[unused781]": 786,
  "limitation": 22718,
  "utah": 6646,
  "dunkirk": 29467,
  "excuse": 8016,
  "marry": 5914,
  "canberra": 13107,
  "alvin": 17348,
  "[unused831]": 836,
  "comply": 14037,
  "credible": 23411,
  "[unused119]": 124,
  "##onda": 29067,
  "summers": 10945,
  "goods": 5350,
  "##esthesia": 25344,
  "suppression": 16341,
  "goodnight": 22708,
  "doyle": 11294,
  "fairfax": 17833,
  "approached": 5411,
  "sash": 24511,
  "ح": 1276,
  "##rites": 28884,
  "feather": 15550,
  "bodied": 22549,
  "pentagon": 20864,
  "novelty": 21160,
  "claimed": 3555,
  "##rangle": 21476,
  "##स": 29874,
  "##logic": 27179,
  "draining": 19689,
  "loan": 5414,
  "##kney": 26993,
  "drawing": 5059,
  "aggressive": 9376,
  "ლ": 1447,
  "##bo": 5092,
  "apocalypse": 16976,
  "##phonic": 27385,
  "lanes": 10914,
  "##ths": 26830,
  "showdown": 24419,
  "1970s": 3955,
  "lethal": 12765,
  "thailand": 6504,
  "erich": 17513,
  "progression": 14967,
  "阿": 1971,
  "channels": 6833,
  "poured": 8542,
  "##வ": 29930,
  "spurs": 18205,
  "variants": 10176,
  "slovakia": 10991,
  "legislators": 22680,
  "avenue": 3927,
  "derived": 5173,
  "exceeds": 23651,
  "##tropical": 25528,
  "non": 2512,
  "advocacy": 12288,
  "top": 2327,
  "recreational": 10517,
  "加": 1779,
  "##տ": 29783,
  "increase": 3623,
  "##kumar": 18494,
  "downwards": 28457,
  "rbis": 23583,
  "##ия": 23483,
  "debra": 28762,
  "mice": 12328,
  "alba": 18255,
  "1904": 5692,
  "benefited": 19727,
  "carly": 18431,
  "dorian": 16092,
  "greeted": 11188,
  "fund": 4636,
  "##wi": 9148,
  "climates": 24734,
  "forgot": 9471,
  "##llins": 26655,
  "setup": 16437,
  "##you": 29337,
  "montreal": 5548,
  "ornamental": 18200,
  "horizon": 9154,
  "symbols": 9255,
  "##fi": 8873,
  "puppet": 13997,
  "foyer": 16683,
  "weapon": 5195,
  "devon": 7614,
  "305": 20405,
  "huron": 21899,
  "oskar": 28626,
  "attacking": 7866,
  "sega": 16562,
  "generally": 3227,
  "reagan": 11531,
  "horned": 26808,
  "bonnet": 24367,
  "eerie": 18823,
  "[unused566]": 571,
  "pretending": 12097,
  "pulmonary": 21908,
  "eligibility": 11395,
  "fragrance": 24980,
  "warships": 15964,
  "doubled": 11515,
  "yer": 20416,
  "##mata": 21022,
  "archaeologists": 19254,
  "no": 2053,
  "plunging": 29059,
  "haji": 28174,
  "indianapolis": 9506,
  "enhancing": 20226,
  "##tile": 15286,
  "##kam": 27052,
  "denmark": 5842,
  "##9th": 25660,
  "rave": 23289,
  "significantly": 6022,
  "waterfall": 14297,
  "renewal": 14524,
  "turing": 28639,
  "tiles": 13262,
  "cafes": 23812,
  "marathon": 8589,
  "voyages": 21993,
  "indy": 18214,
  "highlanders": 22672,
  "mythological": 21637,
  "miraculous": 26106,
  "##chemical": 15869,
  "syndicated": 13889,
  "##ven": 8159,
  "skip": 13558,
  "##shot": 19040,
  "barney": 15377,
  "winding": 12788,
  "privy": 14452,
  "greyhound": 21220,
  "guise": 21980,
  "##berry": 9766,
  "commuted": 26704,
  "hours": 2847,
  "havana": 15278,
  "dyer": 23494,
  "afforded": 22891,
  "fbi": 8495,
  "playstation": 9160,
  "690": 28066,
  "26th": 14935,
  "##ssed": 29417,
  "prevented": 8729,
  "##iv": 12848,
  "nowhere": 7880,
  "sources": 4216,
  "callahan": 25668,
  "iata": 9833,
  "₁": 1548,
  "tasmania": 12343,
  "##rth": 15265,
  "effective": 4621,
  "47": 4700,
  "daughters": 5727,
  "eurasian": 23399,
  "victoria": 3848,
  "wo": 24185,
  "[unused76]": 77,
  "muller": 12304,
  "protect": 4047,
  "[unused291]": 296,
  "##lace": 19217,
  "##ene": 8625,
  "60": 3438,
  "emeritus": 12372,
  "[unused204]": 209,
  "##had": 16102,
  "##ets": 8454,
  "##მ": 29984,
  "1990s": 4134,
  "competition": 2971,
  "appreciate": 9120,
  "tuned": 15757,
  "cyrus": 16123,
  "mendez": 28950,
  "easier": 6082,
  "sweating": 18972,
  "umar": 27981,
  "candles": 14006,
  "puzzled": 14909,
  "##folk": 29284,
  "connectivity": 20831,
  "v8": 15754,
  "haydn": 25595,
  "utilization": 27891,
  "feb": 13114,
  "featured": 2956,
  "recession": 19396,
  "delhi": 6768,
  "cbc": 13581,
  "miners": 11257,
  "[unused247]": 252,
  "complicated": 8552,
  "1653": 29309,
  "fleeing": 14070,
  "consul": 11801,
  "##rford": 26430,
  "feeds": 14172,
  "cantor": 26519,
  "primetime": 18474,
  "verandah": 26153,
  "lynn": 9399,
  "annals": 16945,
  "##fires": 26332,
  "exponential": 27258,
  "garde": 14535,
  "recounts": 23412,
  "falsely": 23123,
  "##helm": 24546,
  "jamal": 24132,
  "sheriff": 6458,
  "forcefully": 23097,
  "amc": 21962,
  "idle": 18373,
  "approved": 4844,
  "ramsey": 15092,
  "peyton": 17931,
  "phyllis": 20328,
  "ripple": 24644,
  "teachings": 12209,
  "stabilization": 28715,
  "##rder": 26764,
  "青": 1975,
  "beau": 17935,
  "baccalaureate": 27802,
  "[unused757]": 762,
  "aarhus": 29173,
  "spitfire": 28323,
  "lounge": 11549,
  "detained": 14620,
  "nintendo": 10022,
  "invariably": 26597,
  "explains": 7607,
  "cr": 13675,
  "giro": 19226,
  "thou": 15223,
  "##cht": 10143,
  "urges": 23876,
  "shore": 5370,
  "concentrations": 14061,
  "darius": 14861,
  "musically": 21385,
  "iroquois": 23015,
  "adrian": 7918,
  "observations": 9420,
  "warmly": 22775,
  "##ik": 5480,
  "##geny": 17487,
  "moines": 23286,
  "prolonged": 15330,
  "inviting": 15085,
  "unesco": 12239,
  "##sume": 23545,
  "medina": 15761,
  "gaming": 10355,
  "1908": 5316,
  "1858": 8517,
  "grammatical": 24402,
  "##boro": 12691,
  "brownish": 19437,
  "barton": 12975,
  "walls": 3681,
  "companies": 3316,
  "stroked": 11699,
  "discretion": 19258,
  "randomly": 18154,
  "oppose": 15391,
  "##gold": 21270,
  "illustrations": 11249,
  "week": 2733,
  "macarthur": 17719,
  "##eland": 25689,
  "opposed": 4941,
  "##llis": 21711,
  "thorpe": 20249,
  "オ": 1699,
  "greenwood": 16827,
  "[unused80]": 81,
  "##bina": 21114,
  "1889": 6478,
  "sums": 20571,
  "ua": 25423,
  "##ه": 14157,
  "failures": 15428,
  "[unused863]": 868,
  "snort": 26759,
  "burials": 23109,
  "boots": 6879,
  "saxons": 28267,
  "##xley": 20959,
  "polynomials": 28175,
  "land": 2455,
  "yours": 6737,
  "medium": 5396,
  "yielded": 17544,
  "maximize": 25845,
  "paying": 7079,
  "##elli": 13348,
  "focuses": 7679,
  "logos": 25571,
  "[unused523]": 528,
  "institutions": 4896,
  "myth": 10661,
  "jay": 6108,
  "##nent": 21576,
  "compton": 18592,
  "ia": 24264,
  "273": 25371,
  "nbc": 6788,
  "phillies": 15711,
  "[unused840]": 845,
  "amongst": 5921,
  "##iques": 19516,
  "assurance": 16375,
  "poly": 26572,
  "adults": 6001,
  "sprang": 15627,
  "##12": 12521,
  "lissa": 20244,
  "confidently": 28415,
  "sand": 5472,
  "bewildered": 24683,
  "echoed": 10187,
  "scoring": 4577,
  "lal": 21348,
  "[unused860]": 865,
  "compact": 9233,
  "presbyterian": 10133,
  "agustin": 26889,
  "page": 3931,
  "[unused191]": 196,
  "grouping": 19765,
  "outcome": 9560,
  "champagne": 12327,
  "prefect": 19402,
  "oro": 20298,
  "##ை": 29935,
  "homes": 5014,
  "views": 5328,
  "challenges": 7860,
  "detailing": 17555,
  "overlooked": 17092,
  "cryptic": 26483,
  "##oese": 23379,
  "loyola": 21580,
  "morton": 11164,
  "##ར": 29970,
  "burned": 5296,
  "א": 1241,
  "##cytes": 27321,
  "torah": 16297,
  "obstacle": 18355,
  "サ": 1705,
  "rammed": 27653,
  "##nded": 25848,
  "nagoya": 24425,
  "4000": 20143,
  "##tology": 23479,
  "stopped": 3030,
  "fills": 17469,
  "improper": 24156,
  "leaking": 24325,
  "devastating": 14886,
  "##zer": 6290,
  "unacceptable": 21873,
  "bundesliga": 14250,
  "sadness": 12039,
  "rolling": 5291,
  "botswana": 19414,
  "discussion": 6594,
  "ate": 8823,
  "partners": 5826,
  "thirties": 26313,
  "include": 2421,
  "result": 2765,
  "sprint": 9043,
  "hypnotic": 28322,
  "##lone": 27165,
  "##手": 30384,
  "writhing": 26185,
  "report": 3189,
  "pursuit": 8463,
  "examinations": 14912,
  "render": 17552,
  "street": 2395,
  "##!": 29612,
  "innovation": 8144,
  "1714": 25241,
  "socks": 14829,
  "freaking": 13847,
  "launched": 3390,
  "weekly": 4882,
  "notable": 3862,
  "##cular": 15431,
  "changed": 2904,
  "exemption": 19621,
  "instrumentalist": 29253,
  "µ": 1085,
  "bafta": 22284,
  "##ra": 2527,
  "[unused223]": 228,
  "gathers": 29438,
  "thwarted": 28409,
  "##dium": 12811,
  "##ₑ": 30090,
  "geared": 23636,
  "shreveport": 23740,
  "integrity": 11109,
  "sherman": 11011,
  "sweeney": 21178,
  "nbl": 28013,
  "##ख": 29852,
  "joints": 17651,
  "luce": 19913,
  "authored": 8786,
  "audible": 19525,
  "teammate": 10809,
  "[unused718]": 723,
  "mccann": 28641,
  "sticks": 12668,
  "patrols": 14703,
  "dolly": 19958,
  "[unused301]": 306,
  "glance": 6054,
  "makes": 3084,
  "##mission": 25481,
  "c2": 29248,
  "saratoga": 23136,
  "amid": 13463,
  "garments": 21902,
  "nile": 15179,
  "osaka": 13000,
  "recommended": 6749,
  "overseas": 6931,
  "destiny": 10461,
  "##down": 7698,
  "monterrey": 26843,
  "lines": 3210,
  "impact": 4254,
  "committees": 9528,
  "ང": 1427,
  "leverage": 21155,
  "endorsed": 11763,
  "collier": 20466,
  "methyl": 25003,
  "disturbance": 16915,
  "leans": 12671,
  "oil": 3514,
  "eager": 9461,
  "##iance": 28335,
  "##dc": 16409,
  "jenks": 15119,
  "chevy": 29009,
  "newcastle": 8142,
  "##oda": 13390,
  "maha": 24404,
  "invincible": 25018,
  "##¢": 29645,
  "tucking": 25056,
  "unbelievable": 23653,
  "mckay": 16225,
  "vertex": 19449,
  "lao": 18805,
  "everton": 18022,
  "barbecue": 26375,
  "##gong": 17036,
  "##zzling": 20838,
  "baptism": 18336,
  "chihuahua": 28480,
  "aquatics": 26649,
  "disqualified": 14209,
  "fiji": 11464,
  "##odes": 19847,
  "bundled": 24378,
  "redundant": 21707,
  "breakthrough": 12687,
  "offensive": 5805,
  "hiss": 19074,
  "cease": 13236,
  "myself": 2870,
  "##put": 18780,
  "vicente": 17280,
  "gearbox": 22227,
  "clergyman": 22232,
  "##hala": 19531,
  "landmarks": 16209,
  "ideally": 28946,
  "relocated": 7448,
  "meiji": 23214,
  "##post": 19894,
  "[unused508]": 513,
  "old": 2214,
  "jealousy": 14225,
  "tents": 17732,
  "sofa": 10682,
  "pitched": 8219,
  "bias": 13827,
  "vogel": 27063,
  "exiting": 22371,
  "##cking": 23177,
  "share": 3745,
  "threads": 16457,
  "masonry": 18103,
  "##tify": 27351,
  "paraguay": 13884,
  "loaf": 27048,
  "junior": 3502,
  "##স": 29912,
  "8": 1022,
  "busy": 5697,
  "exhibits": 10637,
  "day": 2154,
  "##resses": 25932,
  "giles": 13287,
  "133": 14506,
  "believers": 20373,
  "kent": 5982,
  "poses": 22382,
  "intellectuals": 17412,
  "recycling": 17874,
  "pianos": 27864,
  "eliot": 16292,
  "[unused361]": 366,
  "sar": 18906,
  "authority": 3691,
  "inn": 7601,
  "[unused167]": 172,
  "bach": 10384,
  "##ロ": 30261,
  "readiness": 19822,
  "yao": 23711,
  "sworn": 10741,
  "deacon": 14845,
  "mortar": 14335,
  "##ts": 3215,
  "dollars": 6363,
  "mon": 12256,
  "questionable": 21068,
  "following": 2206,
  "barnett": 20073,
  "djs": 23837,
  "##rel": 16570,
  "valid": 9398,
  "hard": 2524,
  "redesigned": 17051,
  "pharmaceuticals": 24797,
  "reconciled": 28348,
  "mascot": 13314,
  "kunst": 28145,
  "##劉": 30303,
  "vacuum": 11641,
  "dina": 26146,
  "nicholls": 27043,
  "throbbing": 17061,
  "contributors": 16884,
  "feast": 9831,
  "soft": 3730,
  "##chia": 20881,
  "unexpected": 9223,
  "questions": 3980,
  "ellington": 21630,
  "##kit": 23615,
  "blindness": 26290,
  "urged": 9720,
  "northern": 2642,
  "countess": 11716,
  "boris": 11235,
  "homestead": 14473,
  "bain": 28477,
  "sacrifice": 8688,
  "galleries": 11726,
  "gp": 14246,
  "##cliffe": 18115,
  "merging": 16468,
  "flushed": 12953,
  "##orestation": 25794,
  "template": 23561,
  "stinging": 22748,
  "yuan": 11237,
  "##yna": 18279,
  "console": 10122,
  "##hd": 14945,
  "shadows": 6281,
  "ulrich": 19619,
  "guarded": 13802,
  "gasped": 8535,
  "jennie": 27557,
  "[unused472]": 477,
  "clint": 16235,
  "charted": 12568,
  "chrysler": 17714,
  "##mc": 12458,
  "clara": 10254,
  "spot": 3962,
  "abandoning": 19816,
  "1980s": 3865,
  "right": 2157,
  "##selle": 19358,
  "271": 25103,
  "appropriately": 23263,
  "breath": 3052,
  "barrow": 15355,
  "ace": 9078,
  "peacefully": 21614,
  "muscle": 6740,
  "1770": 17711,
  "chemist": 15535,
  "directions": 7826,
  "[unused807]": 812,
  "##os": 2891,
  "makers": 11153,
  "dudley": 12648,
  "##中": 30272,
  "wherever": 11210,
  "arbor": 19679,
  "effectiveness": 12353,
  "##mber": 21784,
  "shaping": 20300,
  "##fare": 17883,
  "resume": 13746,
  "cave": 5430,
  "lobby": 9568,
  "howl": 22912,
  "budgets": 26178,
  "expeditionary": 15372,
  "detectives": 18145,
  "honours": 8762,
  "fuller": 12548,
  "interpretation": 7613,
  "##”": 30059,
  "champaign": 28843,
  "ך": 1251,
  "fiesta": 24050,
  "erie": 13374,
  "outlook": 17680,
  "##ooped": 20671,
  "moonlight": 11986,
  "prehistoric": 14491,
  "priestess": 27677,
  "##aran": 20486,
  "161": 17365,
  "gonzaga": 26840,
  "recreated": 29414,
  "justified": 15123,
  "bohemia": 16799,
  "left": 2187,
  "squirrels": 29384,
  "##lid": 21273,
  "##stis": 29472,
  "##not": 17048,
  "##nb": 27698,
  "##sling": 28886,
  "greedy": 20505,
  "persist": 29486,
  "finished": 2736,
  "enable": 9585,
  "820": 26667,
  "##liga": 14715,
  "illumination": 21203,
  "akira": 21616,
  "##ush": 20668,
  "themes": 6991,
  "hauling": 23113,
  "lcd": 27662,
  "bankrupt": 17482,
  "scrambling": 25240,
  "parallels": 18588,
  "cozy": 26931,
  "##bing": 10472,
  "governor": 3099,
  "α": 1155,
  "smooth": 5744,
  "[unused667]": 672,
  "criticisms": 19628,
  "[unused982]": 987,
  "##rted": 17724,
  "corrections": 20983,
  "underwear": 14236,
  "ragged": 14202,
  "adams": 5922,
  "cheers": 21250,
  "physicist": 13702,
  "bribes": 29117,
  "##backs": 12221,
  "##otide": 26601,
  "disgusting": 19424,
  "##hwa": 18663,
  "concordia": 24982,
  "automatic": 6882,
  "1998": 2687,
  "266": 25162,
  "anwar": 28372,
  "lexington": 14521,
  "##|": 29641,
  "probe": 15113,
  "instructors": 19922,
  "anglican": 9437,
  "politely": 16954,
  "teddy": 11389,
  "princess": 4615,
  "demonstrate": 10580,
  "jul": 21650,
  "geometric": 14965,
  "photography": 5855,
  "punishment": 7750,
  "deaths": 6677,
  "chief": 2708,
  "priscilla": 25193,
  "wanda": 20848,
  "industrial": 3919,
  "invested": 11241,
  "[unused21]": 22,
  "2002": 2526,
  "variant": 8349,
  "ի": 1225,
  "darryl": 22821,
  "##schaft": 26527,
  "mayor": 3664,
  "concepts": 8474,
  "##ful": 3993,
  "organized": 4114,
  "undrafted": 21347,
  "lbs": 20702,
  "##cola": 26289,
  "flat": 4257,
  "guts": 18453,
  "possessions": 13689,
  "##ifier": 18095,
  "mundane": 24684,
  "carol": 8594,
  "jurisdictions": 17370,
  "delicate": 10059,
  "surfer": 27747,
  "##onus": 24891,
  "##ก": 29945,
  "twitter": 10474,
  "##水": 30419,
  "firearm": 23646,
  "sake": 8739,
  "nonetheless": 9690,
  "outlet": 13307,
  "zionist": 21379,
  "faculty": 4513,
  "غ": 1289,
  "plastered": 21832,
  "bert": 14324,
  "august": 2257,
  "##aia": 27131,
  "م": 1295,
  "bt": 18411,
  "festival": 2782,
  "rhode": 9763,
  "##ls": 4877,
  "generator": 13103,
  "knitting": 26098,
  "psychological": 8317,
  "competence": 22219,
  "promo": 19430,
  "percival": 27832,
  "##on": 2239,
  "space": 2686,
  "##bara": 20709,
  "ʐ": 1136,
  "italia": 13052,
  "knob": 16859,
  "##კ": 29982,
  "##sea": 17310,
  "andre": 7213,
  "real": 2613,
  "##wire": 20357,
  "chan": 9212,
  "pickering": 27078,
  "##ble": 3468,
  "##top": 14399,
  "legitimacy": 22568,
  "attached": 4987,
  "ص": 1284,
  "1703": 28366,
  "colloquially": 23992,
  "trousers": 15292,
  "##urable": 23086,
  "bundle": 14012,
  "timor": 19746,
  "showcase": 13398,
  "rodriguez": 9172,
  "marquez": 27320,
  "telegraph": 10013,
  "boston": 3731,
  "学": 1817,
  "[unused79]": 80,
  "prank": 26418,
  "bringing": 5026,
  "honestly": 9826,
  "trusts": 20278,
  "prohibition": 13574,
  "wang": 7418,
  "retaining": 12823,
  "albert": 4789,
  "##hri": 26378,
  "ass": 4632,
  "[unused158]": 163,
  "compounds": 10099,
  "##stic": 10074,
  "slower": 12430,
  "folks": 12455,
  "cathy": 18305,
  "affiliate": 8727,
  "##esis": 19009,
  "finite": 10713,
  "sons": 4124,
  "approximately": 3155,
  "aires": 9149,
  "westfield": 26584,
  "##bha": 22655,
  "wheat": 10500,
  "word": 2773,
  "≡": 1607,
  "merton": 28169,
  "strong": 2844,
  "smackdown": 22120,
  "##ogist": 22522,
  "##yson": 25385,
  "##ossa": 21842,
  "##oma": 9626,
  "##don": 5280,
  "investigative": 15025,
  "arrest": 6545,
  "moshe": 27123,
  "hourly": 21462,
  "##man": 2386,
  "semiconductor": 20681,
  "lee": 3389,
  "routing": 16972,
  "columbia": 3996,
  "opponents": 7892,
  "salmon": 11840,
  "gerais": 29220,
  "##ingen": 15542,
  "complaining": 17949,
  "hectares": 9076,
  "eton": 21687,
  "locker": 12625,
  "sense": 3168,
  "ability": 3754,
  "diversion": 20150,
  "##zy": 9096,
  "needs": 3791,
  "canary": 17154,
  "swallows": 26436,
  "##nium": 14907,
  "barre": 23189,
  "[unused611]": 616,
  "listened": 7791,
  "##borg": 11755,
  "encourages": 16171,
  "##sonic": 18585,
  "producing": 5155,
  "##ᅭ": 30013,
  "sulfate": 26754,
  "twelfth": 11313,
  "天": 1811,
  "continuously": 10843,
  "yorker": 19095,
  "pacific": 3534,
  "similarity": 14402,
  "priesthood": 17911,
  "flaps": 26570,
  "awarding": 21467,
  "hoped": 5113,
  "enactment": 26465,
  "prematurely": 28179,
  "##mian": 20924,
  "1986": 3069,
  "##ɛ": 29275,
  "宀": 1818,
  "##lita": 27606,
  "##fm": 16715,
  "reiterated": 28960,
  "moving": 3048,
  "##อ": 29957,
  "archbishop": 6507,
  "latter": 3732,
  "shuffling": 24770,
  "yunnan": 21607,
  "coordinating": 19795,
  "births": 18250,
  "cache": 17053,
  "##cca": 16665,
  "30": 2382,
  "battles": 7465,
  "ranges": 8483,
  "gomez": 12791,
  "pumps": 15856,
  "dec": 11703,
  "##86": 20842,
  "[": 1031,
  "⁴": 1538,
  "stalking": 20070,
  "fabricated": 24212,
  "southeast": 4643,
  "hooves": 28399,
  "completion": 6503,
  "clutching": 14197,
  "ェ": 1697,
  "put": 2404,
  "[unused616]": 621,
  "stint": 12116,
  "[unused231]": 236,
  "##shed": 14740,
  "entrusted": 18011,
  "yarmouth": 28792,
  "jesuits": 20297,
  "##tzer": 29546,
  "disk": 9785,
  "##washed": 27283,
  "mammoth": 23714,
  "issuing": 15089,
  "neglected": 15486,
  "sinatra": 19643,
  "genoa": 15771,
  "globe": 7595,
  "##film": 23665,
  "##tsk": 29064,
  "redding": 26687,
  "lowry": 27281,
  "indicative": 24668,
  "[unused758]": 763,
  "reorganization": 17118,
  "##cous": 27199,
  "westchester": 25489,
  "1683": 27414,
  "barker": 12852,
  "vlad": 19163,
  "salad": 16521,
  "##day": 10259,
  "naacp": 26155,
  "##optera": 25324,
  "receipt": 24306,
  "##alo": 23067,
  "th": 16215,
  "indifferent": 24436,
  "gina": 17508,
  "matthew": 5487,
  "paso": 17161,
  "[unused20]": 21,
  "pradesh": 7970,
  "rus": 22949,
  "pressing": 7827,
  "##ψ": 29738,
  "urban": 3923,
  "cigarettes": 15001,
  "archangel": 28185,
  "marty": 12578,
  "cuffs": 24347,
  "interpretations": 15931,
  "fugitive": 21329,
  "streets": 4534,
  "flickering": 20046,
  "almost": 2471,
  "1828": 11517,
  "56": 5179,
  "shrink": 22802,
  "uphold": 27329,
  "balloon": 13212,
  "[unused171]": 176,
  "korea": 4420,
  "hunter": 4477,
  "hove": 25215,
  "commissioners": 12396,
  "colleen": 28385,
  "schumann": 29448,
  "thrilling": 26162,
  "initiating": 26616,
  "choral": 14564,
  "research": 2470,
  "amused": 11770,
  "139": 16621,
  "rochdale": 26109,
  "baku": 16807,
  "exposure": 7524,
  "sponge": 25742,
  "840": 28122,
  "parcels": 28998,
  "##ια": 27432,
  "reprint": 25364,
  "##ifiers": 28295,
  "##avs": 29553,
  "irs": 25760,
  "waterfront": 16317,
  "looked": 2246,
  "virtually": 8990,
  "dorset": 15367,
  "sadie": 21330,
  "southampton": 11833,
  "##qu": 28940,
  "transported": 9687,
  "paternal": 15112,
  "cringed": 23952,
  "##stituting": 21532,
  "ionic": 24774,
  "crypt": 19888,
  "karel": 28021,
  "griffin": 9258,
  "owners": 5608,
  "undergraduate": 8324,
  "##ː": 23432,
  "stats": 26319,
  "##ς": 19579,
  "elbow": 8999,
  "complain": 17612,
  "##istic": 6553,
  "rosewood": 29528,
  "wrexham": 27119,
  "de": 2139,
  "politics": 4331,
  "merchandise": 16359,
  "##itor": 15660,
  "backpack": 13383,
  "doctor": 3460,
  "ह": 1339,
  "##nbc": 28957,
  "kept": 2921,
  "employ": 12666,
  "prelate": 26595,
  "bellowed": 27386,
  "##dos": 12269,
  "hepburn": 22004,
  "mat": 13523,
  "rivera": 14043,
  "##izes": 10057,
  "wrestler": 10706,
  "usage": 8192,
  "##ddy": 14968,
  "##fast": 24333,
  "##outs": 12166,
  "[unused722]": 727,
  "hindu": 7560,
  "quoting": 27394,
  "民": 1892,
  "restart": 23818,
  "toys": 10899,
  "onward": 15834,
  "gregg": 18281,
  "oversees": 22558,
  "unicef": 29073,
  "verb": 12034,
  "不": 1744,
  "ム": 1725,
  "ˈ": 1149,
  "pencil": 14745,
  "崎": 1834,
  "egyptians": 23437,
  "ট": 1359,
  "affinity": 16730,
  "carts": 25568,
  "envoy": 19918,
  "storing": 23977,
  "hurricane": 7064,
  "##-": 29624,
  "stating": 5517,
  "umm": 26114,
  "thrash": 27042,
  "turnpike": 17116,
  "morning": 2851,
  "kali": 19924,
  "gaping": 21226,
  "markets": 6089,
  "##gram": 13113,
  "wins": 5222,
  "##ps": 4523,
  "rr": 25269,
  "rigorous": 20001,
  "capcom": 26861,
  "corporate": 5971,
  "ম": 1370,
  "##hosis": 25229,
  "ᵉ": 1499,
  "##ław": 19704,
  "curling": 11599,
  "additions": 13134,
  "hesitation": 13431,
  "fascism": 23779,
  "authors": 6048,
  "harbour": 7440,
  "##hers": 22328,
  "backward": 8848,
  "assessing": 20077,
  "##vd": 16872,
  "longest": 6493,
  "##opped": 27288,
  "##ulf": 21007,
  "swift": 9170,
  "gallo": 25624,
  "commissions": 13239,
  "relaxation": 23370,
  "##ц": 29751,
  "##fish": 7529,
  "##ida": 8524,
  "horizons": 24484,
  "州": 1836,
  "sequencing": 24558,
  "cardiac": 15050,
  "ほ": 1676,
  "ft": 3027,
  "scandal": 9446,
  "##din": 8718,
  "potent": 16834,
  "panicked": 16035,
  "##row": 10524,
  "bacterium": 24024,
  "##iae": 19001,
  "##fia": 22749,
  "ethnicity": 18240,
  "memory": 3638,
  "##ajan": 28869,
  "amara": 28599,
  "platforms": 7248,
  "barefoot": 22985,
  "classification": 5579,
  "identification": 8720,
  "##ocation": 23909,
  "1954": 4051,
  "hoffman": 15107,
  "skimmed": 28862,
  "wishes": 8996,
  "elliot": 11759,
  "##太": 30338,
  "storytelling": 20957,
  "murray": 6264,
  "government": 2231,
  "##bba": 22414,
  "siberia": 16881,
  "georg": 12062,
  "58": 5388,
  "##elled": 21148,
  "nhl": 7097,
  "##hand": 11774,
  "marriott": 26490,
  "bureau": 4879,
  "##ʃ": 29696,
  "traveling": 7118,
  "beirut": 15335,
  "pigeon": 16516,
  "林": 1881,
  "bayern": 21350,
  "doug": 8788,
  "motive": 15793,
  "[unused413]": 418,
  "##ک": 29841,
  "##ization": 3989,
  "sometime": 8811,
  "helped": 3271,
  "[unused869]": 874,
  "na": 6583,
  "##urgent": 27176,
  "hushed": 24033,
  "[unused71]": 72,
  "##rricular": 21231,
  "clarkson": 18648,
  "naive": 15743,
  "##guard": 18405,
  "distract": 15886,
  "seals": 13945,
  "compliant": 24577,
  "sheldon": 19369,
  "##ition": 22753,
  "[unused613]": 618,
  "##itarian": 25691,
  "##ʁ": 29694,
  "fins": 18564,
  "sponsorship": 12026,
  "##khar": 22510,
  "insides": 19008,
  "##rle": 20927,
  "##rish": 18774,
  "##hope": 26441,
  "intersect": 29261,
  "haiti": 12867,
  "##riation": 18769,
  "describe": 6235,
  "170": 10894,
  "caves": 10614,
  "weakening": 22031,
  "mosaic": 16061,
  "viz": 26619,
  "march": 2233,
  "instituted": 14948,
  "##lls": 12718,
  "##rin": 6657,
  "1946": 3918,
  "gay": 5637,
  "stems": 12402,
  "##་": 29960,
  "sarcastic": 22473,
  "ignoring": 9217,
  "baba": 14208,
  "₎": 1559,
  "wnba": 25554,
  "hints": 20385,
  "foundation": 3192,
  "gospels": 24131,
  "24": 2484,
  "drink": 4392,
  "pain": 3255,
  "galway": 14370,
  "ju": 18414,
  "footsteps": 9717,
  "madeline": 16974,
  "##jet": 15759,
  "guns": 4409,
  "mercury": 8714,
  "margins": 17034,
  "[unused637]": 642,
  "##suka": 26544,
  "##lter": 21928,
  "aromatic": 25496,
  "graphics": 8389,
  "butte": 25024,
  "249": 23628,
  "υ": 1175,
  "##chet": 20318,
  "hiring": 14763,
  "[unused786]": 791,
  "determines": 16463,
  "##urbed": 29595,
  "wheeler": 12819,
  "##cp": 21906,
  "[unused559]": 564,
  "reggae": 15662,
  "jenna": 13504,
  "loco": 28046,
  "425": 23285,
  "tunnels": 10633,
  "1905": 5497,
  "1763": 18432,
  "amendment": 7450,
  "redeveloped": 28053,
  "###": 29614,
  "sitting": 3564,
  "pregnancy": 10032,
  "publicized": 24928,
  "und": 6151,
  "grants": 8624,
  "র": 1372,
  "weathered": 28445,
  "porch": 7424,
  "sahib": 23513,
  "pierced": 16276,
  "statehood": 28000,
  "constantly": 7887,
  "thickness": 14983,
  "spreading": 9359,
  "nba": 6452,
  "depicts": 11230,
  "als": 25520,
  "##ana": 5162,
  "villiers": 25333,
  "fortified": 13313,
  "##ᴬ": 30026,
  "jurgen": 23171,
  "gr": 24665,
  "##sco": 9363,
  "denies": 23439,
  "##د": 15394,
  "contrasted": 22085,
  "##git": 23806,
  "##ग": 29853,
  "##nea": 22084,
  "residue": 21755,
  "##rka": 22379,
  "##vered": 25896,
  "ruler": 7786,
  "stillness": 29435,
  "##cade": 21869,
  "payroll": 26854,
  "smiled": 3281,
  "##inga": 28234,
  "marvin": 13748,
  "pod": 17491,
  "diffuse": 28105,
  "protest": 6186,
  "influx": 18050,
  "partition": 13571,
  "ɯ": 1122,
  "jalan": 28410,
  "・": 1738,
  "good": 2204,
  "presiding": 18131,
  "##cliff": 27580,
  "bryce": 19757,
  "##千": 30310,
  "hunan": 27374,
  "rayon": 26810,
  "axle": 17290,
  "keller": 16155,
  "champ": 24782,
  "scientology": 23845,
  "gujarat": 14288,
  "mischief": 25166,
  "siemens": 22108,
  "dummy": 24369,
  "##ᴵ": 30029,
  "wen": 19181,
  "aroused": 18391,
  "shri": 14880,
  "##economic": 23035,
  "ٹ": 1301,
  "demonstrators": 28337,
  "##grounds": 28951,
  "pharmacy": 13882,
  "lars": 16357,
  "relieved": 7653,
  "boxers": 18508,
  "accessibility": 23661,
  "jackets": 17764,
  "win": 2663,
  "ghz": 29066,
  "##nius": 20447,
  "antibody": 27781,
  "closed": 2701,
  "harcourt": 22714,
  "experts": 8519,
  "##charged": 22620,
  "##birds": 12887,
  "islamic": 5499,
  "apologized": 17806,
  "empires": 23560,
  "babu": 20948,
  "##iness": 9961,
  "clipped": 20144,
  "various": 2536,
  "welfare": 7574,
  "livingstone": 27656,
  "evergreen": 16899,
  "dockyard": 24874,
  "picket": 28972,
  "occupants": 18837,
  "tory": 17117,
  "1897": 6347,
  "wrenched": 26971,
  "⇄": 1589,
  "passenger": 4628,
  "##sta": 9153,
  "brushed": 7765,
  "sucked": 8631,
  "##・": 30264,
  "differed": 19541,
  "biased": 25352,
  "##ester": 20367,
  "も": 1681,
  "##zoo": 23221,
  "lucha": 25390,
  "recovery": 7233,
  "##z": 2480,
  "wallis": 24029,
  "##erated": 16848,
  "detected": 11156,
  "##ide": 5178,
  "connection": 4434,
  "halt": 9190,
  "pressed": 4508,
  "campbell": 6063,
  "vargas": 20556,
  "primaries": 27419,
  "1688": 24082,
  "##meter": 22828,
  "vocational": 13099,
  "##beau": 26401,
  "[unused417]": 422,
  "coarse": 20392,
  "[unused761]": 766,
  "##64": 21084,
  "dramatically": 12099,
  "[unused542]": 547,
  "rainer": 28035,
  "02": 6185,
  "blows": 13783,
  "businesses": 5661,
  "olympus": 26742,
  "slapped": 11159,
  "koppen": 20139,
  "blake": 6511,
  "advisor": 8619,
  "mortality": 13356,
  "##ona": 7856,
  "jeffrey": 10799,
  "demonic": 23170,
  "zaragoza": 25744,
  "ioc": 25941,
  "##wil": 29602,
  "stabilize": 27790,
  "losers": 23160,
  "tremble": 20627,
  "denise": 15339,
  "charlemagne": 27257,
  "[unused391]": 396,
  "clicks": 29225,
  "whether": 3251,
  "pistons": 24399,
  "reeling": 28515,
  "##ry": 2854,
  "lauren": 10294,
  "continuum": 22961,
  "##lim": 17960,
  "##ilde": 23891,
  "malmo": 23643,
  "1790": 13393,
  "##rsa": 22381,
  "monitors": 15410,
  "material": 3430,
  "varying": 9671,
  "liquor": 13207,
  "doo": 20160,
  "team": 2136,
  "humiliation": 21171,
  "320": 13710,
  "modifications": 12719,
  "nearing": 23454,
  "##hon": 8747,
  "shaun": 16845,
  "ර": 1405,
  "relied": 13538,
  "ा": 1340,
  "fourth": 2959,
  "mounted": 5614,
  "##xa": 18684,
  "australian": 2827,
  "rat": 9350,
  "con": 9530,
  "getting": 2893,
  "oliver": 6291,
  "parc": 27985,
  "bsc": 23533,
  "##¾": 29665,
  "##zcz": 29419,
  "[unused717]": 722,
  "##明": 30391,
  "##lford": 23211,
  "rep": 16360,
  "expresses": 16783,
  "millennia": 27620,
  "madeleine": 19324,
  "##ק": 29810,
  "##el": 2884,
  "firmly": 7933,
  "##ns": 3619,
  "[unused207]": 212,
  "pedal": 15749,
  "##ir": 4313,
  "foliage": 19624,
  "scores": 7644,
  "bedrock": 28272,
  "laguna": 18169,
  "sections": 5433,
  "##sing": 7741,
  "##テ": 30239,
  "vassal": 24351,
  "sneakers": 28130,
  "johnson": 3779,
  "accountants": 29114,
  "orlando": 10108,
  "himself": 2370,
  "##ab": 7875,
  "fe": 10768,
  "rhino": 24091,
  "protective": 9474,
  "punishments": 29115,
  "seismic": 22630,
  "treasury": 9837,
  "thor": 15321,
  "bonus": 6781,
  "##set": 13462,
  "tough": 7823,
  "colored": 6910,
  "##½": 13714,
  "allegations": 9989,
  "whatsoever": 18971,
  "##taken": 25310,
  "##res": 6072,
  "slash": 18296,
  "million": 2454,
  "thatcher": 21127,
  "store": 3573,
  "relinquished": 26566,
  "masculine": 14818,
  "##ssing": 18965,
  "le": 3393,
  "achieving": 10910,
  "history": 2381,
  "##ნ": 29985,
  "##itan": 25451,
  "slayer": 20005,
  "##ens": 6132,
  "implied": 13339,
  "alfred": 6152,
  "sidewalks": 28386,
  "telescope": 12772,
  "consisting": 5398,
  "loud": 5189,
  "springs": 6076,
  "epithet": 19626,
  "limb": 15291,
  "trans": 9099,
  "##usa": 10383,
  "##_": 29638,
  "lost": 2439,
  "alma": 11346,
  "outset": 26674,
  "warship": 21905,
  "ා": 1408,
  "awaiting": 15497,
  "exit": 6164,
  "marines": 9622,
  "remastered": 19484,
  "treatise": 15326,
  "henson": 27227,
  "most": 2087,
  "##yi": 10139,
  "labs": 13625,
  "turbulence": 29083,
  "southbound": 19751,
  "perfume": 17013,
  "##loe": 26846,
  "tablet": 13855,
  "exits": 16639,
  "##fields": 15155,
  "aleppo": 22973,
  "thames": 11076,
  "ladies": 6456,
  "biennial": 20313,
  "stocked": 24802,
  "##sty": 21756,
  "##པ": 29966,
  "##ament": 24996,
  "##systems": 29390,
  "##oper": 25918,
  "lesley": 23920,
  "##rea": 16416,
  "[unused335]": 340,
  "cole": 5624,
  "##tal": 9080,
  "##vil": 14762,
  "plain": 5810,
  "anya": 21728,
  "##ading": 23782,
  "##‿": 30069,
  "##nx": 26807,
  "##hid": 27511,
  "dotted": 20384,
  "agnes": 11166,
  "vacancy": 15619,
  "amir": 18904,
  "trainee": 26758,
  "literacy": 8433,
  "།": 1425,
  "aspiring": 22344,
  "rankings": 10385,
  "##da": 2850,
  "coordinates": 12093,
  "135": 11502,
  "thirsty": 24907,
  "finland": 6435,
  "##iner": 26455,
  "mallory": 20468,
  "mayoral": 23578,
  "martins": 19953,
  "shop": 4497,
  "officer": 2961,
  "##ling": 2989,
  "malaya": 19979,
  "message": 4471,
  "refining": 28596,
  "##ভ": 29905,
  "belmont": 17449,
  "refusing": 11193,
  "mate": 6775,
  "fallon": 16443,
  "edward": 3487,
  "bharatiya": 24243,
  "jacqueline": 17551,
  "hall": 2534,
  "blindly": 25734,
  "##xing": 19612,
  "porto": 13809,
  "abbreviation": 22498,
  "unavailable": 20165,
  "fractures": 28929,
  "lending": 18435,
  "##uel": 16284,
  "1947": 4006,
  "##博": 30312,
  "bavaria": 11606,
  "mani": 23624,
  "palestinian": 9302,
  "reporter": 6398,
  "[unused11]": 12,
  "##cz": 27966,
  "1893": 6489,
  "##ม": 29951,
  "##ᅮ": 30014,
  "depleted": 22595,
  "##tel": 9834,
  "404": 24837,
  "##analysis": 25902,
  "##sus": 13203,
  "60s": 20341,
  "##pire": 20781,
  "delightful": 26380,
  "isaac": 7527,
  "##16": 16048,
  "32": 3590,
  "illegitimate": 18102,
  "1875": 7466,
  "weekdays": 19759,
  "botanist": 17098,
  "rune": 23276,
  "provincial": 4992,
  "##pac": 19498,
  "tank": 4951,
  "visited": 4716,
  "扌": 1859,
  "##秀": 30454,
  "sub": 4942,
  "helpful": 14044,
  "##ulin": 18639,
  "nicola": 17388,
  "candy": 9485,
  "chaplin": 23331,
  "geelong": 18664,
  "silvia": 27827,
  "tasks": 8518,
  "denied": 6380,
  "sonia": 16244,
  "##dened": 24589,
  "posting": 14739,
  "noticing": 15103,
  "dutch": 3803,
  "ignacio": 22988,
  "##tsky": 26824,
  "360": 9475,
  "walsall": 29054,
  "##犬": 30434,
  "disrepair": 27799,
  "cinema": 5988,
  "foley": 17106,
  "##lei": 23057,
  "mighty": 10478,
  "##mill": 19912,
  "court": 2457,
  "dick": 5980,
  "##ז": 29793,
  "oxford": 4345,
  "subsidies": 21762,
  "northbound": 20055,
  "##lord": 19980,
  "##sett": 21678,
  "manipulate": 17708,
  "fitzpatrick": 26249,
  "partnerships": 13797,
  "somme": 25158,
  "unsuccessfully": 11551,
  "##torm": 20654,
  "heck": 17752,
  "quentin": 15969,
  "shower": 6457,
  "dagger": 10794,
  "despite": 2750,
  "abigail": 15983,
  "え": 1649,
  "##kim": 21138,
  "##艹": 30465,
  "tina": 11958,
  "shamrock": 28782,
  "fictional": 7214,
  "##ometer": 18721,
  "disks": 23999,
  "gettysburg": 22577,
  "amplitude": 22261,
  "##peration": 29487,
  "collection": 3074,
  "showcases": 27397,
  "tertiary": 13553,
  "[unused992]": 997,
  "intersection": 6840,
  "sheltered": 18304,
  "onion": 20949,
  "1811": 13086,
  "mill": 4971,
  "consensus": 10465,
  "roller": 11220,
  "[unused467]": 472,
  "##endra": 19524,
  "climatic": 27301,
  "johann": 8968,
  "30th": 13293,
  "church": 2277,
  "##chers": 21844,
  "kinship": 27866,
  "paragraph": 20423,
  "1930s": 5687,
  "##edd": 22367,
  "1965": 3551,
  "products": 3688,
  "creativity": 14842,
  "institutes": 12769,
  "insanity": 19272,
  "decide": 5630,
  "attic": 14832,
  "##yes": 23147,
  "secretive": 28607,
  "bets": 29475,
  "lineman": 24062,
  "bolivar": 22118,
  "tea": 5572,
  "bared": 23485,
  "entering": 5738,
  "asthma": 26180,
  "trying": 2667,
  "abbey": 6103,
  "vance": 16672,
  "baptiste": 17329,
  "tool": 6994,
  "gregor": 16973,
  "davey": 20436,
  "sausage": 24165,
  "corporation": 3840,
  "##pper": 18620,
  "colbert": 23928,
  "delicately": 28814,
  "cheung": 22632,
  "combined": 4117,
  "ether": 28855,
  "preference": 12157,
  "747": 25374,
  "ᵐ": 1502,
  "##aan": 14634,
  "inhibitors": 25456,
  "goodwin": 19928,
  "##lic": 10415,
  "ʸ": 1144,
  "ronin": 29249,
  "cues": 23391,
  "razor": 15082,
  "three": 2093,
  "insulin": 22597,
  "glanced": 3887,
  "operas": 14281,
  "rare": 4678,
  "##kken": 24192,
  "##⁰": 30071,
  "##wo": 12155,
  "hana": 26048,
  "girlfriends": 27408,
  "##cr": 26775,
  "ᶜ": 1511,
  "roi": 25223,
  "##nesia": 21509,
  "slams": 25967,
  "##•": 30063,
  "denotes": 14796,
  "brightness": 18295,
  "structure": 3252,
  "libby": 19533,
  "lazarus": 23623,
  "sugar": 5699,
  "##hoff": 17896,
  "ransom": 16540,
  "อ": 1421,
  "troll": 18792,
  "##olf": 28027,
  "buddy": 8937,
  "enforce": 16306,
  "##য": 29907,
  "cure": 9526,
  "fulfillment": 29362,
  "##wk": 26291,
  "is": 2003,
  "##foil": 24323,
  "##rip": 29443,
  "clean": 4550,
  "hazy": 26710,
  "cadence": 23620,
  "##ni": 3490,
  "##isman": 20257,
  "tricked": 24929,
  "kassel": 27884,
  "##sic": 19570,
  "fingertips": 12206,
  "afro": 17694,
  "[unused665]": 670,
  "assets": 7045,
  "randy": 9744,
  "1803": 12651,
  "balls": 7395,
  "##»": 29663,
  "nods": 11232,
  "masjid": 27779,
  "td": 14595,
  "stray": 15926,
  "fall": 2991,
  "servicing": 26804,
  "##quent": 15417,
  "amelia": 11556,
  "47th": 28243,
  "##bad": 9024,
  "248": 24568,
  "cones": 23825,
  "227": 21489,
  "remington": 25282,
  "forgetting": 17693,
  "legislation": 6094,
  "cubic": 11919,
  "conway": 14783,
  "rae": 14786,
  "monitored": 17785,
  "bidding": 17534,
  "cooperative": 10791,
  "regulating": 21575,
  "ordering": 13063,
  "milos": 26038,
  "##liest": 21292,
  "kwan": 27741,
  "dissatisfaction": 28237,
  "canals": 17263,
  "reese": 15883,
  "##tm": 21246,
  "mohan": 18529,
  "venezuelan": 15332,
  "##enay": 27727,
  "##ysis": 20960,
  "muse": 18437,
  "[unused266]": 271,
  "sped": 16887,
  "dar": 18243,
  "injury": 4544,
  "[unused493]": 498,
  "ted": 6945,
  "suspense": 23873,
  "monitoring": 8822,
  "venezuela": 8326,
  "jammu": 21433,
  "ghetto": 17276,
  "##100": 18613,
  "assess": 14358,
  "crawford": 10554,
  "##eers": 22862,
  "##screen": 18182,
  "leary": 22986,
  "amnesia": 29222,
  "1802": 13515,
  "insight": 12369,
  "disappears": 17144,
  "seize": 15126,
  "blanco": 20036,
  "訁": 1949,
  "leonardo": 14720,
  "officers": 3738,
  "papers": 4981,
  "zee": 23727,
  "testament": 9025,
  "malaria": 19132,
  "mb": 16914,
  "linden": 22066,
  "definitions": 15182,
  "conducted": 4146,
  "cedric": 26170,
  "sequence": 5537,
  "destroying": 9846,
  "sirens": 20675,
  "ore": 10848,
  "##titled": 21309,
  "##arian": 12199,
  "##dington": 21504,
  "basics": 24078,
  "branched": 21648,
  "##chus": 16194,
  "[unused867]": 872,
  "##cas": 15671,
  "sorority": 27600,
  "flows": 6223,
  "bombings": 20109,
  "interest": 3037,
  "examined": 8920,
  "crambidae": 21585,
  "damaging": 15011,
  "##trip": 24901,
  "gingerly": 26961,
  "##enberg": 11029,
  "[unused343]": 348,
  "scouts": 10158,
  "scattered": 7932,
  "commented": 7034,
  "distracted": 11116,
  "nations": 3741,
  "constituencies": 13315,
  "jacques": 7445,
  "stabilized": 27697,
  "fairly": 7199,
  "reins": 19222,
  "morphology": 19476,
  "cry": 5390,
  "revolt": 10073,
  "##ミ": 30250,
  "equipped": 6055,
  "biking": 28899,
  "paranormal": 20725,
  "acclaim": 10761,
  "simpler": 16325,
  "dirty": 6530,
  "##yam": 14852,
  "ᵣ": 1508,
  "arising": 17707,
  "##ege": 24746,
  "aspects": 5919,
  "squeezing": 15328,
  "##ented": 14088,
  "motor": 5013,
  "cleaning": 9344,
  "##永": 30422,
  "astonishing": 26137,
  "wikipedia": 16948,
  "rugged": 17638,
  "ப": 1388,
  "excused": 28512,
  "ה": 1245,
  "write": 4339,
  "sport": 4368,
  "federer": 28294,
  "##hing": 12053,
  "ם": 1254,
  "rooster": 27681,
  "jo": 8183,
  "[unused773]": 778,
  "tribute": 7050,
  "deutsche": 11605,
  "apparel": 26278,
  "prayers": 12583,
  "terms": 3408,
  "antonia": 24272,
  "board": 2604,
  "inmates": 13187,
  "grenade": 17038,
  "witches": 12566,
  "projective": 27473,
  "##代": 30286,
  "international": 2248,
  "##keeping": 18321,
  "290": 17222,
  "deutschland": 28668,
  "camped": 27077,
  "skeptical": 18386,
  "soda": 14904,
  "yukon": 19898,
  "##こ": 30181,
  "jail": 7173,
  "sichuan": 20980,
  "best": 2190,
  "alvaro": 24892,
  "attention": 3086,
  "seattle": 5862,
  "fabio": 25616,
  "bones": 5944,
  "dario": 26800,
  "printing": 8021,
  "impressive": 8052,
  "academy": 2914,
  "stylistic": 24828,
  "gaps": 16680,
  "1944": 3646,
  "##nte": 10111,
  "[unused19]": 20,
  "pasadena": 18880,
  "retention": 20125,
  "halle": 19769,
  "nick": 4172,
  "bicycle": 10165,
  "harpsichord": 26504,
  "nocturnal": 23789,
  "##vation": 21596,
  "prototypes": 19599,
  "recordings": 5633,
  "credited": 5827,
  "##eed": 13089,
  "stuffing": 28652,
  "belarus": 12545,
  "vols": 18709,
  "rockies": 22366,
  "y": 1061,
  "prey": 8336,
  "otter": 22279,
  "plum": 22088,
  "speeding": 21485,
  "##thermal": 23367,
  "##vu": 19722,
  "ale": 15669,
  "handgun": 28497,
  "community": 2451,
  "send": 4604,
  "decks": 19963,
  "backlash": 25748,
  "elevated": 8319,
  "sb": 24829,
  "density": 4304,
  "alexandria": 10297,
  "davenport": 16273,
  "prohibits": 25822,
  "leaders": 4177,
  "kan": 22827,
  "howard": 4922,
  "fatima": 27596,
  "loosened": 22456,
  "imp": 17727,
  "[unused350]": 355,
  "grasp": 10616,
  "tutor": 14924,
  "interlude": 25347,
  "portable": 12109,
  "1804": 13140,
  "force": 2486,
  "cowan": 25752,
  "issues": 3314,
  "v": 1058,
  "zombie": 11798,
  "boot": 9573,
  "uv": 23068,
  "watching": 3666,
  "##vc": 25465,
  "adrenaline": 14963,
  "mechanic": 15893,
  "repeal": 21825,
  "built": 2328,
  "taylor": 4202,
  "##orio": 27416,
  "longer": 2936,
  "chill": 10720,
  "999": 25897,
  "##州": 30362,
  "supposed": 4011,
  "led": 2419,
  "branded": 11180,
  "celaena": 29252,
  "calcium": 13853,
  "colleagues": 8628,
  "accents": 24947,
  "barons": 21487,
  "admiralty": 14179,
  "presentations": 18216,
  "teller": 21322,
  "##tus": 5809,
  "##ignon": 24796,
  "luca": 15604,
  "shatter": 27271,
  "61": 6079,
  "[unused274]": 279,
  "fled": 6783,
  "##rger": 25858,
  "[unused439]": 444,
  "[unused393]": 398,
  "priority": 9470,
  "yates": 20356,
  "resulted": 4504,
  "evangelical": 11295,
  "interior": 4592,
  "sioux": 16615,
  "[unused53]": 54,
  "goblin": 22639,
  "disorders": 10840,
  "prima": 21111,
  "cushions": 27205,
  "##cturing": 19159,
  "##hli": 27766,
  "fraud": 9861,
  "office": 2436,
  "devastation": 25594,
  "##cier": 19562,
  "malone": 16321,
  "round": 2461,
  "##river": 24352,
  "missed": 4771,
  "institut": 17126,
  "regards": 12362,
  "stampede": 29375,
  "haryana": 23261,
  "routed": 19578,
  "ি": 1379,
  "tired": 5458,
  "carved": 7844,
  "##ometric": 28993,
  "bremen": 16314,
  "gwen": 11697,
  "pat": 6986,
  "ulster": 11059,
  "[unused984]": 989,
  "blackened": 25788,
  "##sse": 11393,
  "##oton": 25862,
  "silver": 3165,
  "##lby": 14510,
  "posture": 16819,
  "role": 2535,
  "leases": 29597,
  "diabetes": 14671,
  "##yoshi": 19196,
  "##tead": 14565,
  "exhibition": 4538,
  "movie": 3185,
  "bracelet": 19688,
  "[unused512]": 517,
  "signalling": 21919,
  "shocks": 28215,
  "##ssa": 11488,
  "colorado": 5169,
  "abnormal": 19470,
  "[unused883]": 888,
  "##ingdon": 29138,
  "establish": 5323,
  "cleaner": 20133,
  "awe": 15180,
  "之": 1749,
  "poles": 10567,
  "glared": 9400,
  "##far": 14971,
  "broad": 5041,
  "elmer": 21464,
  "classical": 4556,
  "##anne": 20147,
  "owned": 3079,
  "pointer": 20884,
  "mounts": 19363,
  "progressively": 20519,
  "[unused364]": 369,
  "drastically": 21040,
  "charlotte": 5904,
  "dealers": 16743,
  "mika": 27857,
  "##nad": 25389,
  "silk": 6953,
  "amsterdam": 7598,
  "injuries": 6441,
  "raju": 25098,
  "concept": 4145,
  "##ryl": 23320,
  "##ш": 29753,
  "adolescent": 20274,
  "nationality": 10662,
  "wastewater": 28269,
  "interpreted": 10009,
  "shotgun": 13305,
  "alex": 4074,
  "bush": 5747,
  "##ible": 7028,
  "##ᵖ": 30040,
  "##nin": 11483,
  "星": 1866,
  "horse": 3586,
  "creaked": 28068,
  "##sner": 20479,
  "ո": 1232,
  "studies": 2913,
  "rocked": 14215,
  "##lore": 20186,
  "suitcase": 15940,
  "##belt": 21561,
  "archeological": 23005,
  "##mide": 24284,
  "hue": 20639,
  "spent": 2985,
  "favourable": 18731,
  "momentum": 11071,
  "expects": 24273,
  "carroll": 10767,
  "岡": 1832,
  "newtown": 26382,
  "##nga": 13807,
  "blacksmith": 20987,
  "corrected": 13371,
  "director": 2472,
  "decent": 11519,
  "immortal": 12147,
  "caine": 19881,
  "injured": 5229,
  "wicket": 12937,
  "attended": 3230,
  "sentimental": 23069,
  "##↑": 30112,
  "##ons": 5644,
  "##エ": 30224,
  "1628": 28627,
  "big": 2502,
  "opposing": 10078,
  "carr": 12385,
  "cites": 17248,
  "##oi": 10448,
  "descending": 15127,
  "implicated": 20467,
  "1620": 24259,
  "autism": 19465,
  "ivanov": 26333,
  "##iled": 18450,
  "critically": 11321,
  "handsome": 8502,
  "##static": 16677,
  "growls": 27825,
  "##tf": 24475,
  "julia": 6423,
  "endings": 21306,
  "experiencing": 13417,
  "careful": 6176,
  "domesday": 22310,
  "1898": 6068,
  "accumulation": 20299,
  "diagrams": 26309,
  "improvisation": 24584,
  "sino": 19432,
  "classmate": 23175,
  "told": 2409,
  "inclination": 21970,
  "disputes": 11936,
  "flavor": 14894,
  "sloppy": 28810,
  "[unused113]": 118,
  "stabbed": 13263,
  "properly": 7919,
  "owl": 13547,
  "packing": 14743,
  "##ru": 6820,
  "broadband": 19595,
  "elder": 6422,
  "[unused126]": 131,
  "##phones": 19093,
  "interventions": 19388,
  "##hole": 11484,
  "professors": 12655,
  "##oses": 27465,
  "hung": 5112,
  "supplemented": 20585,
  "##ias": 7951,
  "frey": 20068,
  "97": 5989,
  "includes": 2950,
  "characterised": 17253,
  "vanish": 25887,
  "securing": 12329,
  "grid": 8370,
  "twentieth": 9086,
  "dilemma": 21883,
  "europeans": 13481,
  "dalton": 12413,
  "green": 2665,
  "shrewsbury": 18174,
  "bottled": 26071,
  "religion": 4676,
  "weary": 16040,
  "bits": 9017,
  "filing": 15242,
  "##vington": 21827,
  "purification": 28406,
  "gables": 27008,
  "bogota": 21240,
  "ike": 25209,
  "700": 6352,
  "domestic": 4968,
  "pairs": 7689,
  "charters": 23010,
  "##tone": 5524,
  "##fahan": 28975,
  "dude": 12043,
  "inadvertently": 21089,
  "victor": 5125,
  "prefers": 19233,
  "ecole": 12431,
  "working": 2551,
  "aim": 6614,
  "『": 1643,
  "swaying": 21826,
  "exiled": 14146,
  "edouard": 21627,
  "plea": 14865,
  "graphic": 8425,
  "atoll": 22292,
  "pl": 20228,
  "contrary": 10043,
  "patti": 22732,
  "##nostic": 28199,
  "domain": 5884,
  "##pass": 15194,
  "##ffi": 26989,
  "ray": 4097,
  "longed": 23349,
  "restore": 9239,
  "##enting": 26951,
  "wicked": 10433,
  "##leigh": 13615,
  "joins": 9794,
  "lucinda": 28261,
  "migration": 9230,
  "##eka": 19025,
  "beers": 18007,
  "hospitals": 8323,
  "rocco": 28167,
  "##dae": 6858,
  "packet": 14771,
  "specimens": 9908,
  "stigma": 26453,
  "spirit": 4382,
  "fan": 5470,
  "##uous": 8918,
  "##thest": 20515,
  "complimented": 27175,
  "familiar": 5220,
  "rattled": 19252,
  "push": 5245,
  "whoever": 9444,
  "amended": 13266,
  "##matic": 12644,
  "##ctum": 27272,
  "##iving": 14966,
  "so": 2061,
  "drifting": 15013,
  "rapidly": 5901,
  "monsieur": 21380,
  "claire": 6249,
  "specialist": 8325,
  "apply": 6611,
  "alleviate": 24251,
  "##ppa": 13944,
  "grandma": 13055,
  "frankfurt": 9780,
  "[unused828]": 833,
  "##ulsion": 23316,
  "##rret": 27032,
  "bother": 8572,
  "fairies": 20182,
  "##lights": 15733,
  "detailed": 6851,
  "unauthorized": 24641,
  "##rier": 16252,
  "demand": 5157,
  "league": 2223,
  "chung": 15972,
  "##c": 2278,
  "necks": 26082,
  "春": 1867,
  "barrie": 24953,
  "teaches": 12011,
  "##ange": 22043,
  "conserved": 19995,
  "frequently": 4703,
  "investment": 5211,
  "##dly": 18718,
  "asher": 17243,
  "apprehension": 25809,
  "finale": 9599,
  "sloan": 19024,
  "unified": 10562,
  "tape": 6823,
  "##lund": 18028,
  "##=": 29630,
  "assessment": 7667,
  "wellness": 25860,
  "dipped": 13537,
  "associate": 5482,
  "alpine": 10348,
  "mansfield": 15352,
  "growl": 13349,
  "ᅥ": 1472,
  "consistently": 10862,
  "banged": 22843,
  "№": 1578,
  "##rgos": 22280,
  "cage": 7980,
  "endemic": 7320,
  "##ul": 5313,
  "buckinghamshire": 21712,
  "smile": 2868,
  "ara": 19027,
  "qualifier": 10981,
  "granville": 24926,
  "upright": 10051,
  "attacked": 4457,
  "specially": 11974,
  "##cken": 19766,
  "chef": 10026,
  "401": 22649,
  "##olis": 20872,
  "cohen": 9946,
  "tub": 14366,
  "breakdown": 12554,
  "##cellular": 16882,
  "##lag": 17802,
  "##arians": 28369,
  "kid": 4845,
  "quakers": 28301,
  "look": 2298,
  "genome": 13458,
  "crumbling": 24827,
  "madonna": 11284,
  "ax": 22260,
  "##kei": 29501,
  "removal": 8208,
  "waterloo": 13784,
  "moss": 10636,
  "##night": 15864,
  "hydro": 18479,
  "##lk": 13687,
  "cheerful": 18350,
  "parana": 28383,
  "ink": 10710,
  "forming": 5716,
  "√": 1600,
  "##dote": 23681,
  "alton": 26374,
  "livelihood": 24585,
  "##the": 10760,
  "looming": 23430,
  "monica": 9018,
  "honesty": 16718,
  "phases": 12335,
  "aria": 9342,
  "##nse": 12325,
  "carrot": 25659,
  "##dm": 22117,
  "allergic": 27395,
  "available": 2800,
  "[unused855]": 860,
  "drying": 17462,
  "abbott": 14455,
  "significance": 7784,
  "imam": 17189,
  "harmed": 25596,
  "appliances": 22449,
  "engage": 8526,
  "contributor": 12130,
  "fresco": 26991,
  "##urse": 28393,
  "##ted": 3064,
  "operator": 6872,
  "cash": 5356,
  "1785": 17262,
  "unwilling": 15175,
  "caucasian": 23368,
  "[unused766]": 771,
  "bear": 4562,
  "vacation": 10885,
  "soloists": 27516,
  "activists": 10134,
  "foreigner": 29524,
  "toxin": 29090,
  "[unused795]": 800,
  "instead": 2612,
  "doha": 26528,
  "maneuver": 17519,
  "contact": 3967,
  "##ow": 5004,
  "hack": 20578,
  "soldier": 5268,
  "ties": 7208,
  "harvey": 7702,
  "rafael": 10999,
  "##sal": 12002,
  "fable": 28458,
  "[unused554]": 559,
  "confused": 5457,
  "considerations": 16852,
  "pamphlet": 19899,
  "organizational": 13296,
  "イ": 1695,
  "dismissed": 7219,
  "##pl": 24759,
  "##「": 30167,
  "##lington": 18722,
  "[unused189]": 194,
  "bonds": 9547,
  "bribe": 26470,
  "tarzan": 24566,
  "olive": 9724,
  "undertaking": 18457,
  "##皇": 30443,
  "##udged": 27066,
  "##oris": 21239,
  "boca": 22765,
  "ᴰ": 1492,
  "carmichael": 23537,
  "##nessy": 25441,
  "##pts": 22798,
  "dried": 9550,
  "macon": 20025,
  "lit": 5507,
  "rec": 28667,
  "##ax": 8528,
  "greeks": 13176,
  "##eia": 27958,
  "cemetery": 4528,
  "##事": 30277,
  "ட": 1384,
  "zhejiang": 26805,
  "owns": 8617,
  "##base": 15058,
  "##g": 2290,
  "##њ": 29763,
  "##ᅳ": 30017,
  "pulse": 8187,
  "birch": 16421,
  "convey": 16636,
  "balloons": 22163,
  "underground": 5230,
  "##eta": 12928,
  "tournament": 2977,
  "##rca": 18992,
  "timeless": 27768,
  "##jk": 15992,
  "muscles": 6650,
  "##55": 24087,
  "ff": 21461,
  "##pus": 12207,
  "submarine": 6982,
  "remain": 3961,
  "vidhan": 28590,
  "##mates": 15416,
  "##u": 2226,
  "ц": 1201,
  "leadership": 4105,
  "[unused429]": 434,
  "mentions": 9704,
  "pitcher": 8070,
  "[unused509]": 514,
  "scanner": 26221,
  "##ا": 25573,
  "presidency": 8798,
  "indira": 28232,
  "torches": 24711,
  "[unused161]": 166,
  "shine": 12342,
  "nasser": 26099,
  "parramatta": 22820,
  "reclamation": 27389,
  "imposed": 9770,
  "29": 2756,
  "fraternity": 13577,
  "limiting": 14879,
  "[unused634]": 639,
  "student": 3076,
  "digest": 17886,
  "##iam": 25107,
  "206": 18744,
  "ganga": 28646,
  "viper": 17947,
  "##ui": 10179,
  "tapes": 13324,
  "principle": 6958,
  "expert": 6739,
  "1876": 7326,
  "robin": 5863,
  "residential": 5647,
  "##borough": 10235,
  "landed": 5565,
  "[unused966]": 971,
  "[unused710]": 715,
  "barnsley": 25139,
  "newt": 25597,
  "piper": 11939,
  "researches": 27338,
  "ops": 23092,
  "[unused780]": 785,
  "##eth": 11031,
  "deposed": 18298,
  "arenas": 26434,
  "axial": 26819,
  "nacional": 10718,
  "surround": 15161,
  "def": 13366,
  "byzantine": 8734,
  "partially": 6822,
  "parkway": 12602,
  "strikers": 26049,
  "audrey": 14166,
  "の": 1671,
  "ヘ": 1721,
  "##esses": 26636,
  "intuitive": 29202,
  "targets": 7889,
  "happen": 4148,
  "labourers": 24043,
  "believe": 2903,
  "[unused378]": 383,
  "protagonists": 21989,
  "behaved": 26979,
  "benefits": 6666,
  "quantity": 11712,
  "##ih": 19190,
  "bold": 7782,
  "##rien": 23144,
  "shortlisted": 21353,
  "tis": 22320,
  "squirrel": 18197,
  "announcing": 13856,
  "ousted": 28368,
  "##in": 2378,
  "titanium": 23431,
  "##gist": 24063,
  "1880s": 12751,
  "recaptured": 23838,
  "inheritance": 12839,
  "sorted": 19616,
  "choi": 18151,
  "strengthening": 16003,
  "ย": 1416,
  "favorite": 5440,
  "##oon": 7828,
  "sexuality": 13798,
  "matches": 3503,
  "##ま": 30203,
  "reinforcement": 23895,
  "trough": 23389,
  "pomerania": 18631,
  "decreasing": 16922,
  "curly": 17546,
  "##elle": 14774,
  "exploitation": 14427,
  "providence": 11293,
  "mustered": 21900,
  "tung": 27079,
  "signed": 2772,
  "##worthy": 13966,
  "moderately": 17844,
  "##lized": 28931,
  "cai": 29080,
  "##tangled": 27898,
  "gardener": 19785,
  "##dd": 14141,
  "[unused829]": 834,
  "hereditary": 14800,
  "sting": 12072,
  "bu": 20934,
  "if": 2065,
  "proper": 5372,
  "##slin": 22908,
  "innocent": 7036,
  "gesturing": 22317,
  "faction": 10233,
  "samson": 18375,
  "penny": 10647,
  "diplomatic": 8041,
  "moreno": 17921,
  "unconventional": 23693,
  "anthologies": 25675,
  "architectural": 6549,
  "undisclosed": 18206,
  "##政": 30386,
  "paranoia": 27890,
  "##pen": 11837,
  "##ach": 6776,
  "##aire": 14737,
  "##neck": 18278,
  "belle": 9852,
  "squads": 20191,
  "surprises": 20096,
  "##inatory": 28230,
  "sideways": 12579,
  "truck": 4744,
  "isbn": 3175,
  "##tically": 25084,
  "chaired": 12282,
  "oswald": 17411,
  "buildings": 3121,
  "mentor": 10779,
  "##ensis": 9911,
  "##qua": 16211,
  "monk": 8284,
  "babylonian": 26990,
  "neighbourhoods": 27535,
  "xvi": 16855,
  "pageant": 12438,
  "readers": 8141,
  "bottom": 3953,
  "constituted": 11846,
  "murder": 4028,
  "escorting": 23831,
  "called": 2170,
  "repeatedly": 8385,
  "##ম": 29906,
  "ars": 29393,
  "teeth": 4091,
  "##hai": 10932,
  "gallantry": 22111,
  "sustained": 8760,
  "defences": 16828,
  "tang": 9745,
  "brest": 22451,
  "charm": 11084,
  "grandfather": 5615,
  "herald": 9536,
  "fender": 19028,
  "##rik": 15564,
  "losing": 3974,
  "toulouse": 17209,
  "endangered": 10193,
  "exported": 15612,
  "cheating": 16789,
  "january": 2254,
  "demanded": 6303,
  "kindly": 19045,
  "novice": 23131,
  "##ش": 29825,
  "##edging": 28002,
  "उ": 1313,
  "sears": 18493,
  "poverty": 5635,
  "drunk": 7144,
  "features": 2838,
  "enroll": 25612,
  "kelvin": 24810,
  "lighted": 26390,
  "godfrey": 18238,
  "syndicate": 16229,
  "##wled": 28365,
  "[unused657]": 662,
  "appendix": 22524,
  "wichita": 18614,
  "ahmed": 10208,
  "darkest": 23036,
  "cher": 24188,
  "⊕": 1612,
  "select": 7276,
  "##gles": 17125,
  "munchen": 25802,
  "steamed": 21734,
  "natasha": 17399,
  "cipher": 27715,
  "medicinal": 20632,
  "2001": 2541,
  "madagascar": 11934,
  "steps": 4084,
  "leon": 6506,
  "entity": 9178,
  "stairs": 5108,
  "tko": 26537,
  "amy": 6864,
  "fortress": 7841,
  "proposes": 17146,
  "miner": 18594,
  "trois": 25527,
  "antioch": 19078,
  "thirty": 4228,
  "##fest": 14081,
  "##mental": 26901,
  "##tres": 19168,
  "concerning": 7175,
  "statue": 6231,
  "##art": 8445,
  "[unused357]": 362,
  "duct": 23245,
  "1814": 10977,
  "borrowed": 11780,
  "rosy": 26851,
  "##ister": 12911,
  "routes": 5847,
  "catholic": 3234,
  "[unused904]": 909,
  "harmonies": 28594,
  "##ied": 6340,
  "arrived": 3369,
  "authorized": 9362,
  "elector": 20374,
  "replaces": 20736,
  "film": 2143,
  "nights": 6385,
  "tallinn": 21169,
  "port": 3417,
  "launch": 4888,
  "tampa": 9925,
  "thousands": 5190,
  "bombay": 11831,
  "##sso": 24137,
  "terry": 6609,
  "1852": 8784,
  "##nae": 17452,
  "vertical": 7471,
  "##23": 21926,
  "bucks": 14189,
  "effort": 3947,
  "paramount": 11734,
  "pretend": 9811,
  "harta": 26283,
  "valves": 17355,
  "name": 2171,
  "dundee": 14252,
  "yi": 12316,
  "orleans": 5979,
  "^": 1034,
  "suicidal": 26094,
  "##opa": 29477,
  "done": 2589,
  "diplomacy": 17610,
  "julio": 15090,
  "divine": 7746,
  "peace": 3521,
  "prospective": 17464,
  "##anor": 27869,
  "inequality": 16440,
  "##rgo": 18581,
  "grunt": 20696,
  "candi": 27467,
  "食": 1978,
  "raiding": 23530,
  "novelist": 9974,
  "rugby": 4043,
  "qualifications": 15644,
  "suites": 19796,
  "pharaoh": 22089,
  "##rri": 18752,
  "revolutionary": 6208,
  "##right": 15950,
  "aqua": 28319,
  "##ue": 5657,
  "siegel": 27996,
  "others": 2500,
  "1941": 3874,
  "casting": 9179,
  "ii": 2462,
  "cadets": 15724,
  "norte": 19931,
  "months": 2706,
  "tnt": 24048,
  "braves": 13980,
  "ao": 20118,
  "atkinson": 18646,
  "dynamo": 17205,
  "territorial": 7894,
  "268": 25143,
  "pool": 4770,
  "rights": 2916,
  "##dating": 16616,
  "species": 2427,
  "##lon": 7811,
  "lids": 26122,
  "altitudes": 21973,
  "spins": 23371,
  "daemon": 12828,
  "banished": 21319,
  "java": 9262,
  "nearest": 7205,
  "י": 1250,
  "cables": 15196,
  "sultanate": 21308,
  "theology": 8006,
  "1918": 4271,
  "facto": 13743,
  "reprinted": 13603,
  "trolley": 20820,
  "consolidation": 17439,
  "beethoven": 15461,
  "subsidiaries": 20178,
  "trash": 11669,
  "underwood": 22751,
  "diana": 8805,
  "scriptures": 22481,
  "##⅓": 30109,
  "libre": 21091,
  "rushing": 8375,
  "dietrich": 22567,
  "embassy": 8408,
  "##ω": 29739,
  "amherst": 19850,
  "encountered": 8567,
  "batter": 23801,
  "smug": 20673,
  "##cera": 19357,
  "##rae": 16652,
  "[unused484]": 489,
  "turkic": 22926,
  "guangzhou": 18693,
  "squire": 21263,
  "swamp": 11963,
  "surpassed": 15602,
  "##ingham": 16445,
  "dickson": 22076,
  "didn": 2134,
  "genevieve": 20245,
  "##utnant": 24620,
  "mobilization": 25580,
  "##թ": 29771,
  "cassidy": 13737,
  "insurgency": 23939,
  "answer": 3437,
  "hawthorne": 23440,
  "mid": 3054,
  "##holes": 19990,
  "beverley": 29057,
  "##ical": 7476,
  "shady": 22824,
  "railing": 15747,
  "cursing": 19752,
  "reading": 3752,
  "chi": 9610,
  "₃": 1550,
  "university": 2118,
  "docking": 25776,
  "hello": 7592,
  "##itte": 27100,
  "[unused798]": 803,
  "december": 2285,
  "神": 1925,
  "antigua": 26023,
  "fission": 27521,
  "##ues": 15808,
  "##naud": 26160,
  "arranger": 13981,
  "dependency": 24394,
  "ridden": 15230,
  "commemorative": 17524,
  "cw": 19296,
  "twitching": 25402,
  "##₅": 30081,
  "crawling": 15927,
  "predominantly": 9197,
  "pines": 17527,
  "running": 2770,
  "openly": 10132,
  "crimson": 11466,
  "solicitor": 15468,
  "highs": 26836,
  "##ctic": 13306,
  "irving": 12415,
  "henley": 20768,
  "sleeps": 25126,
  "1705": 29326,
  "serials": 28172,
  "asbestos": 29191,
  "abstract": 10061,
  "##rt": 5339,
  "black": 2304,
  "aggressively": 24663,
  "[unused42]": 43,
  "pulled": 2766,
  "virtual": 7484,
  "##dates": 27122,
  "baby": 3336,
  "pass": 3413,
  "parades": 26635,
  "shrines": 22562,
  "strap": 16195,
  "jolted": 28801,
  "periodical": 21802,
  "epoch": 25492,
  "commands": 10954,
  "taiwanese": 16539,
  "oblivious": 18333,
  "##head": 4974,
  "shipped": 12057,
  "extras": 26279,
  "reed": 7305,
  "speaking": 4092,
  "m1": 23290,
  "[unused236]": 241,
  "yeah": 3398,
  "betting": 19244,
  "##vili": 21661,
  "##landa": 24448,
  "tong": 15740,
  "confronting": 26964,
  "drifted": 10070,
  "methodist": 8938,
  "return": 2709,
  "packaging": 14793,
  "daly": 18509,
  "seen": 2464,
  "doctoral": 11316,
  "across": 2408,
  "inhabitants": 4864,
  "saxon": 10038,
  "inspectors": 28421,
  "laboratories": 12030,
  "[unused619]": 624,
  "##cic": 19053,
  "justice": 3425,
  "emotion": 7603,
  "##ela": 10581,
  "salzburg": 18369,
  "implementing": 14972,
  "##lau": 17298,
  "antilles": 27695,
  "distance": 3292,
  "cm": 4642,
  "る": 1687,
  "ashland": 24346,
  "wharton": 24249,
  "##riam": 25557,
  "reduced": 4359,
  "predators": 12630,
  "##hearted": 27693,
  "closes": 14572,
  "gould": 14913,
  "leave": 2681,
  "coconut": 16027,
  "rosie": 15820,
  "¥": 1071,
  "contents": 8417,
  "##ivating": 17441,
  "dyke": 22212,
  "##otted": 26174,
  "viewing": 10523,
  "joe": 3533,
  "spilling": 18054,
  "1863": 6899,
  "its": 2049,
  "leaflets": 27306,
  "cu": 12731,
  "arabs": 14560,
  "beg": 11693,
  "saint": 3002,
  "uneasy": 15491,
  "nose": 4451,
  "ae": 29347,
  "contrast": 5688,
  "islam": 7025,
  "displays": 8834,
  "##ished": 13295,
  "jacob": 6213,
  "##ย": 29952,
  "##uda": 14066,
  "wives": 10403,
  "sicilian": 22584,
  "##ouin": 25058,
  "instinctively": 16607,
  "bearings": 21714,
  "cheek": 5048,
  "acknowledged": 8969,
  "eventual": 9523,
  "muslim": 5152,
  "goalscorer": 28602,
  "resistant": 13070,
  "strangers": 12358,
  "elimination": 9614,
  "montana": 8124,
  ")": 1007,
  "vested": 26003,
  "care": 2729,
  "brasil": 21133,
  "forgotten": 6404,
  "doctors": 7435,
  "warm": 4010,
  "##page": 13704,
  "grabbed": 4046,
  "dade": 27647,
  "##yst": 27268,
  "misunderstood": 28947,
  "hellenistic": 27464,
  "section": 2930,
  "marcel": 13389,
  "nelly": 29498,
  "determination": 9128,
  "wish": 4299,
  "frankish": 26165,
  "##ɨ": 29684,
  "enoch": 28178,
  "dominates": 29532,
  "##↓": 30114,
  "1968": 3380,
  "##mist": 23738,
  "hosted": 4354,
  "##pods": 22925,
  "upwards": 14873,
  "金": 1964,
  "marx": 13518,
  "##tip": 25101,
  "evacuation": 13982,
  "##fully": 7699,
  "died": 2351,
  "novels": 6002,
  "fronts": 21430,
  "##liner": 20660,
  "leagues": 8121,
  "constraints": 14679,
  "##jack": 17364,
  "denominations": 17384,
  "jefferson": 7625,
  "##lusion": 24117,
  "351": 28474,
  "##†": 30061,
  "##nca": 20909,
  "##健": 30294,
  "renaissance": 8028,
  "competitors": 10159,
  "##rut": 22134,
  "standards": 4781,
  "careless": 23358,
  "faithful": 11633,
  "confusing": 16801,
  "hurt": 3480,
  "invariant": 23915,
  "ivy": 7768,
  "planetary": 17700,
  "super": 3565,
  "nigeria": 7387,
  "##hopper": 27330,
  "shitty": 28543,
  "terrorism": 10130,
  "clinical": 6612,
  "posed": 13686,
  "##村": 30404,
  "rice": 5785,
  "eyes": 2159,
  "botanic": 27761,
  "cartridge": 15110,
  "promoted": 3755,
  "annoyed": 11654,
  "lafayette": 14425,
  "valerie": 14264,
  "samuel": 5212,
  "lagoon": 15825,
  "##ف": 29833,
  "shit": 4485,
  "##tors": 6591,
  "castillo": 19371,
  "##nl": 20554,
  "luc": 12776,
  "accelerator": 23468,
  "incentive": 20438,
  "ley": 25866,
  "1625": 26263,
  "##sur": 26210,
  "mtv": 8692,
  "lumpur": 17761,
  "my": 2026,
  "ea": 19413,
  "transformed": 8590,
  "flared": 14937,
  "##tale": 22059,
  "strengthened": 13949,
  "##tadt": 18808,
  "##ods": 20620,
  "champion": 3410,
  "comedians": 25119,
  "##uring": 12228,
  "mohawk": 22338,
  "es": 9686,
  "daring": 15236,
  "##gal": 9692,
  "accordingly": 11914,
  "soo": 17111,
  "specifically": 4919,
  "bass": 3321,
  "##yala": 28617,
  "hungarian": 5588,
  "boiled": 17020,
  "median": 3991,
  "seahawks": 21390,
  "##gawa": 21188,
  "hartford": 13381,
  "##lase": 25002,
  "[unused339]": 344,
  "deadly": 9252,
  "handicap": 15822,
  "foe": 22277,
  "001": 25604,
  "technological": 10660,
  "devotion": 13347,
  "##ula": 7068,
  "##mined": 25089,
  "award": 2400,
  "pinnacle": 26007,
  "cellar": 15423,
  "##ticus": 29587,
  "##mmer": 15810,
  "[unused960]": 965,
  "representation": 6630,
  "##aca": 19629,
  "rumor": 19075,
  "cartwright": 27513,
  "##yl": 8516,
  "trenches": 19874,
  "masovian": 23703,
  "##osaurus": 25767,
  "##tt": 4779,
  "speculated": 15520,
  "friar": 25287,
  "ghosts": 11277,
  "remote": 6556,
  "portrayed": 6791,
  "comrades": 19033,
  "heller": 25038,
  "contaminated": 19450,
  "donnell": 18016,
  "##ively": 14547,
  "controversies": 25962,
  "mackenzie": 11407,
  "##haus": 13821,
  "##cke": 19869,
  "brilliance": 28850,
  "permit": 9146,
  "whitley": 27007,
  "newman": 10625,
  "[unused736]": 741,
  "house": 2160,
  "athletes": 7576,
  "gaga": 23332,
  "zurich": 10204,
  "reservoir": 8071,
  "professionals": 8390,
  "airport": 3199,
  "m3": 29061,
  "inhibitor": 24054,
  "wilcox": 23926,
  "و": 1298,
  "concentrated": 8279,
  "##ـ": 29832,
  "choke": 16769,
  "##istle": 24242,
  "terence": 22677,
  "informed": 6727,
  "gracefully": 28266,
  "##coe": 16288,
  "statesman": 17689,
  "##llum": 20845,
  "siding": 17326,
  "dealer": 11033,
  "joao": 16304,
  "[unused117]": 122,
  "##夏": 30334,
  "note": 3602,
  "spectators": 12405,
  "##rem": 28578,
  "crowded": 10789,
  "##bid": 17062,
  "franks": 21310,
  "klan": 26613,
  "analogous": 19639,
  "mir": 14719,
  "##41": 23632,
  "nokia": 22098,
  "scratched": 15047,
  "staple": 18785,
  "elle": 15317,
  "stomped": 21918,
  "amounted": 18779,
  "キ": 1701,
  "kensington": 17775,
  "jakarta": 14426,
  "shuddering": 25735,
  "lia": 22393,
  "[unused624]": 629,
  "hilary": 22744,
  "tending": 25069,
  "ং": 1346,
  "moravian": 28131,
  "marge": 25532,
  "whom": 3183,
  "##llet": 22592,
  "monster": 6071,
  "upside": 14961,
  "spectra": 29237,
  "wren": 16255,
  "mozambique": 16274,
  "toad": 21344,
  "wwf": 16779,
  "defensive": 5600,
  "jewel": 13713,
  "generating": 11717,
  "chevrolet": 14724,
  "father": 2269,
  "##kker": 23793,
  "crying": 6933,
  "##ically": 15004,
  "works": 2573,
  "##oom": 17650,
  "jillian": 27286,
  "bakery": 18112,
  "drops": 9010,
  "হ": 1377,
  "##fighting": 22158,
  "か": 1651,
  "socrates": 26772,
  "##holding": 23410,
  "tweed": 26922,
  "conferred": 15186,
  "[unused884]": 889,
  "chapels": 24130,
  "##je": 6460,
  "coughing": 21454,
  "[unused837]": 842,
  "stale": 26729,
  "abbot": 11428,
  "##grate": 22780,
  "pairing": 22778,
  "ascribed": 28025,
  "##oia": 25463,
  "[unused956]": 961,
  "andersson": 28643,
  "##ono": 17175,
  "boar": 24187,
  "airline": 8582,
  "eh": 15501,
  "nailed": 26304,
  "sale": 5096,
  "##bri": 23736,
  "##bra": 10024,
  "lecturer": 9162,
  "healing": 8907,
  "2021": 25682,
  "mule": 20568,
  "remade": 26943,
  "[unused769]": 774,
  "##ว": 29955,
  "##ang": 5654,
  "1910s": 28088,
  "tailor": 22701,
  "freely": 10350,
  "paid": 3825,
  "framed": 10366,
  "verbal": 12064,
  "##hu": 6979,
  "##¨": 29651,
  "passengers": 5467,
  "[unused13]": 14,
  "tourism": 6813,
  "en": 4372,
  "returning": 4192,
  "##sat": 16846,
  "underside": 17313,
  "einstein": 15313,
  "oblique": 20658,
  "##ₖ": 30094,
  "apartments": 9620,
  "designing": 12697,
  "[unused774]": 779,
  "broncos": 14169,
  "choked": 12444,
  "janeiro": 11497,
  "blanca": 27538,
  "[unused760]": 765,
  "##uded": 13936,
  "brakes": 13627,
  "nude": 15287,
  "##piece": 11198,
  "##urity": 25137,
  "welcome": 6160,
  "[unused941]": 946,
  "##ows": 15568,
  "hilly": 22800,
  "##ttes": 14581,
  "##tream": 25379,
  "custody": 9968,
  "##dal": 9305,
  "##₹": 30104,
  "mukherjee": 27040,
  "ear": 4540,
  "genetic": 7403,
  "hurling": 10839,
  "asian": 4004,
  "μ": 1166,
  "windsor": 10064,
  "flip": 11238,
  "1772": 17483,
  "pitches": 19299,
  "csi": 22174,
  "our": 2256,
  "seymour": 13254,
  "away": 2185,
  "##zel": 12638,
  "##tonic": 25009,
  "mechanically": 27846,
  "2014": 2297,
  "subsistence": 27667,
  "ـ": 1290,
  "chopra": 28826,
  "patrol": 6477,
  "##gas": 12617,
  "notes": 3964,
  "curved": 9203,
  "ind": 27427,
  "leopold": 12752,
  "##ต": 29947,
  "sinclair": 11881,
  "joyah": 27098,
  "transform": 10938,
  "mali": 16007,
  "updates": 14409,
  "putnam": 20230,
  "logging": 15899,
  "demands": 7670,
  "fact": 2755,
  "consumers": 10390,
  "temporary": 5741,
  "attained": 12754,
  "ga": 11721,
  "55": 4583,
  "ツ": 1712,
  "thistle": 24328,
  "photo": 6302,
  "prison": 3827,
  "odisha": 21874,
  "fk": 14352,
  "[unused157]": 162,
  "mostly": 3262,
  "develop": 4503,
  "ו": 1246,
  "wes": 14008,
  "城": 1804,
  "sympathetic": 13026,
  "problematic": 18636,
  "172": 18253,
  "gladstone": 21765,
  "candidate": 4018,
  "1300": 19527,
  "crime": 4126,
  "statement": 4861,
  "##life": 15509,
  "drown": 19549,
  "flower": 6546,
  "##ves": 6961,
  "rake": 26008,
  "lyman": 27587,
  "compiled": 9227,
  "aware": 5204,
  "1824": 11617,
  "irwin": 17514,
  "sincere": 18006,
  "fleetwood": 23866,
  "unsuccessful": 7736,
  "caution": 14046,
  "attendant": 16742,
  "[SEP]": 102,
  "scaling": 25169,
  "danish": 5695,
  "custom": 7661,
  "cock": 10338,
  "rearview": 28726,
  "##陳": 30498,
  "restaurant": 4825,
  "paralympics": 15600,
  "##rter": 19418,
  "dug": 8655,
  "ya": 8038,
  "[unused421]": 426,
  "##do": 3527,
  "corrupted": 27279,
  "insect": 14211,
  "uploaded": 21345,
  "emigration": 20387,
  "displaying": 14962,
  "platoon": 13799,
  "##vana": 27313,
  "ottomans": 17774,
  "admitted": 4914,
  "##het": 27065,
  "beloved": 11419,
  "heads": 4641,
  "leather": 5898,
  "##be": 4783,
  "strategy": 5656,
  "##iard": 14619,
  "##dier": 24612,
  "apache": 15895,
  "heartbreak": 27724,
  "ching": 19992,
  "505": 28952,
  "∅": 1593,
  "invoked": 24959,
  "kg": 4705,
  "ן": 1256,
  "preoccupied": 23962,
  "##by": 3762,
  "doe": 18629,
  "cbe": 15852,
  "complex": 3375,
  "mikey": 25998,
  "awoke": 19179,
  "raced": 8255,
  "contrasting": 22133,
  "brutally": 23197,
  "##ᄋ": 29999,
  "emails": 22028,
  "1936": 4266,
  "directors": 5501,
  "musicians": 5389,
  "psyche": 25774,
  "boards": 7923,
  "information": 2592,
  "export": 9167,
  "560": 21267,
  "organisation": 5502,
  "whichever": 29221,
  "suspect": 8343,
  "[unused857]": 862,
  "miserable": 13736,
  "montgomery": 8482,
  "antenna": 13438,
  "cowboy": 11762,
  "murmurs": 22888,
  "preparing": 8225,
  "perspective": 7339,
  "byrd": 17845,
  "runoff": 19550,
  "##rave": 22401,
  "shards": 23327,
  "certainty": 15855,
  "maurice": 7994,
  "replace": 5672,
  "##mute": 26746,
  "exclaimed": 12713,
  "bubbling": 25054,
  "[unused638]": 643,
  "rainy": 16373,
  "flood": 7186,
  "impatient": 17380,
  "promoters": 26512,
  "propped": 16863,
  "relationship": 3276,
  "registration": 8819,
  "1721": 27689,
  "ark": 15745,
  "<": 1026,
  "unitary": 22127,
  "bangor": 21895,
  "##les": 4244,
  "##pole": 15049,
  "coast": 3023,
  "suburbs": 9435,
  "##eer": 11510,
  "afterlife": 25115,
  "##umi": 12717,
  "horace": 12757,
  "intimidated": 28028,
  "briefcase": 21793,
  "ant": 14405,
  "##guchi": 16918,
  "sims": 18135,
  "##rooms": 29020,
  "honourable": 17164,
  "##ci": 6895,
  "´": 1084,
  "limousine": 28012,
  "grinned": 6973,
  "pumped": 16486,
  "babylon": 17690,
  "85": 5594,
  "sultan": 7544,
  "policeman": 14460,
  "vengeance": 14096,
  "sumatra": 18262,
  "repeated": 5567,
  "dentistry": 26556,
  "yves": 19687,
  "nearer": 20388,
  "afterward": 9707,
  "archery": 21383,
  "##arney": 25831,
  "accusation": 19238,
  "enlightenment": 16724,
  "missionary": 8696,
  "gangster": 20067,
  "[unused348]": 353,
  "##care": 16302,
  "convinces": 19480,
  "taxonomy": 25274,
  "[unused337]": 342,
  "crosses": 7821,
  "unemployment": 12163,
  "figurative": 29407,
  "11th": 6252,
  "##lite": 22779,
  "exceptional": 11813,
  "1835": 10150,
  "first": 2034,
  "messaging": 24732,
  "clutch": 15357,
  "crawley": 28854,
  "##sos": 17063,
  "nigerian": 11884,
  "traces": 10279,
  "##oed": 29099,
  "##erian": 27549,
  "previously": 3130,
  "moons": 23377,
  "flinders": 29120,
  "pere": 23976,
  "##א": 29788,
  "1798": 13036,
  "##play": 13068,
  "##non": 8540,
  "mount": 4057,
  "clone": 17598,
  "ħ": 1103,
  "##aker": 22626,
  "overtook": 28920,
  "recipient": 7799,
  "cristina": 22246,
  "job": 3105,
  "[unused936]": 941,
  "##let": 7485,
  "lucy": 7004,
  "malls": 25943,
  "hoax": 28520,
  "##vron": 28588,
  "rhineland": 21640,
  "[unused217]": 222,
  "191": 19871,
  "artifact": 20785,
  "##loid": 27710,
  "##⇌": 30118,
  "presses": 14616,
  "snatched": 14177,
  "treatments": 13441,
  "##enbach": 21409,
  "war": 2162,
  "[unused924]": 929,
  "trunk": 8260,
  "##9": 2683,
  "##rman": 14515,
  "nutritional": 28268,
  "cyber": 16941,
  "focused": 4208,
  "nu": 16371,
  "consequences": 8465,
  "##kon": 19648,
  "lilly": 14765,
  "##wd": 21724,
  "##mes": 7834,
  "##⁸": 30077,
  "endeavor": 23855,
  "[unused545]": 550,
  "decreed": 28447,
  "[unused107]": 112,
  "##bn": 24700,
  "##iente": 25099,
  "[unused775]": 780,
  "excitedly": 23885,
  "##dition": 20562,
  "manila": 9011,
  "galaxies": 21706,
  "##nberg": 11144,
  "gotten": 5407,
  "##ß": 19310,
  "mongol": 17450,
  "##ech": 15937,
  "[unused681]": 686,
  "sunshine": 9609,
  "uniting": 26112,
  "silky": 18848,
  "ledger": 27106,
  "ο": 1169,
  "syrian": 9042,
  "205": 16327,
  "love": 2293,
  "infiltrate": 29543,
  "##hian": 14204,
  "pricing": 20874,
  "[unused975]": 980,
  "##gne": 10177,
  "haley": 16624,
  "##litz": 24725,
  "suite": 7621,
  "dorothy": 9984,
  "##ower": 25114,
  "evolution": 6622,
  "eighties": 27690,
  "##pal": 12952,
  "humming": 20364,
  "##urer": 27595,
  "760": 24643,
  "culturally": 20547,
  "##oven": 25592,
  "past": 2627,
  "situated": 4350,
  "bare": 6436,
  "assuming": 10262,
  "plurality": 29018,
  "studied": 3273,
  "##hiti": 27798,
  "heiress": 20020,
  "traced": 9551,
  "##bate": 20179,
  "outspoken": 22430,
  "locking": 14889,
  "stefan": 8852,
  "##enas": 26474,
  "##gill": 19791,
  "##hett": 28499,
  "31": 2861,
  "##ere": 7869,
  "equally": 8053,
  "rotate": 24357,
  "glowing": 10156,
  "coptic": 27672,
  "##tina": 13770,
  "keeping": 4363,
  "zoe": 11199,
  "arsenic": 29596,
  "protests": 8090,
  "cope": 11997,
  "annette": 22521,
  "[unused174]": 179,
  "1795": 13397,
  "denny": 14465,
  "submarines": 12622,
  "smoothed": 17966,
  "##onic": 12356,
  "ness": 23384,
  "lightweight": 12038,
  "5": 1019,
  "accused": 5496,
  "incarcerated": 23995,
  "napkin": 20619,
  "later": 2101,
  "eastwood": 24201,
  "ash": 6683,
  "##ם": 29800,
  "##red": 5596,
  "##og": 8649,
  "developer": 9722,
  "compilation": 6268,
  "hears": 14994,
  "javier": 13824,
  "titus": 18828,
  "570": 24902,
  "##stone": 9221,
  "##dling": 14423,
  "davidson": 12017,
  "perimeter": 13443,
  "etudes": 25041,
  "hospitality": 15961,
  "nuremberg": 19346,
  "roasted": 28115,
  "gunmen": 28932,
  "evans": 6473,
  "supervising": 21238,
  "elk": 18995,
  "ն": 1231,
  "##agi": 22974,
  "##ffen": 18032,
  "reflection": 9185,
  "toxic": 11704,
  "თ": 1444,
  "holden": 9988,
  "visual": 5107,
  "implemented": 7528,
  "bree": 21986,
  "2008": 2263,
  "##ect": 22471,
  "##ʌ": 29700,
  "trustee": 13209,
  "ɑ": 1110,
  "[unused507]": 512,
  "##ggs": 21314,
  "asleep": 6680,
  "experiments": 7885,
  "apartment": 4545,
  "255": 20637,
  "ケ": 1703,
  "##elo": 18349,
  "saskatoon": 25447,
  "foam": 17952,
  "courageous": 26103,
  "tucked": 9332,
  "knotted": 27039,
  "suicide": 5920,
  "vault": 11632,
  "##moor": 17622,
  "##古": 30315,
  "prosecuted": 21651,
  "yes": 2748,
  "##ₕ": 30093,
  "##eng": 13159,
  "evidently": 15329,
  "doubted": 12979,
  "tata": 23236,
  "pyrenees": 22696,
  "##ila": 11733,
  "cane": 11942,
  "[unused135]": 140,
  "luther": 9678,
  "scientific": 4045,
  "fifteenth": 16249,
  "repulsed": 24571,
  "troubled": 11587,
  "地": 1802,
  "intimacy": 20893,
  "mouth": 2677,
  "hitting": 7294,
  "bars": 6963,
  "priest": 5011,
  "ios": 16380,
  "performing": 4488,
  "##isa": 14268,
  "neighbour": 20065,
  "initiatives": 11107,
  "##graph": 14413,
  "##jevic": 26782,
  "coiled": 24599,
  "mob": 11240,
  "jug": 26536,
  "strain": 10178,
  "starboard": 25211,
  "rashid": 22080,
  "donaldson": 23164,
  "recognizing": 14622,
  "fisher": 8731,
  "crouch": 21676,
  "codes": 9537,
  "##pour": 27757,
  "propaganda": 10398,
  "raphael": 12551,
  "odd": 5976,
  "poised": 22303,
  "shifter": 18189,
  "##vor": 14550,
  "cantata": 23629,
  "spider": 6804,
  "musica": 21137,
  "shooter": 13108,
  "luisa": 25412,
  "##saurus": 22244,
  "foot": 3329,
  "college": 2267,
  "##zi": 5831,
  "counting": 10320,
  "crabs": 26076,
  "coveted": 28821,
  "[unused452]": 457,
  "lister": 27177,
  "ひ": 1673,
  "pt": 13866,
  "papyrus": 29575,
  "[unused121]": 126,
  "northwestern": 7855,
  "iain": 24486,
  "aspirations": 22877,
  "usaf": 18531,
  "casinos": 27300,
  "grimsby": 24470,
  "bartlett": 20081,
  "##urized": 28405,
  "pr": 10975,
  "breakout": 25129,
  "republished": 24476,
  "[unused946]": 951,
  "roofs": 15753,
  "greer": 25939,
  "match": 2674,
  "detect": 11487,
  "243": 22884,
  "cat": 4937,
  "bile": 23974,
  "##lkirk": 23913,
  "##cko": 19665,
  "half": 2431,
  "##ciation": 23247,
  "164": 17943,
  "gamer": 27911,
  "##cycle": 23490,
  "drones": 24633,
  "overrun": 24672,
  "innings": 7202,
  "course": 2607,
  "caden": 23600,
  "##open": 26915,
  "##幸": 30367,
  "middlesex": 13654,
  "renovations": 15576,
  "rapids": 12775,
  "auspices": 20153,
  "mab": 26661,
  "beverly": 12218,
  "##lind": 27164,
  "brien": 9848,
  "physiology": 16127,
  "##ito": 9956,
  "##weed": 18041,
  "exhaled": 16242,
  "choking": 18329,
  "ね": 1670,
  "##ale": 9453,
  "steady": 6706,
  "helium": 22764,
  "96": 5986,
  "liang": 16982,
  "profit": 5618,
  "undercover": 16382,
  "ნ": 1449,
  "\\": 1032,
  "drank": 10749,
  "narcotics": 27290,
  "pinned": 11807,
  "disclosure": 19380,
  "##arts": 20591,
  "lashes": 16008,
  "nigel": 12829,
  "your": 2115,
  "flashing": 12659,
  "171": 18225,
  "superb": 21688,
  "##b": 2497,
  "zones": 10019,
  "different": 2367,
  "intact": 10109,
  "##arium": 17285,
  "tangled": 14170,
  "midi": 22265,
  "brushes": 22569,
  "andreas": 12460,
  "admiring": 24588,
  "freyja": 7075,
  "departmental": 28912,
  "illustration": 14614,
  "scholarship": 6566,
  "##dez": 24601,
  "##cano": 23803,
  "gaped": 23832,
  "##ʳ": 29708,
  "##lok": 29027,
  "##ι": 18199,
  "costumes": 12703,
  "defined": 4225,
  "interpreter": 19555,
  "dickinson": 17590,
  "mclaughlin": 23720,
  "skilled": 10571,
  "tier": 7563,
  "ferris": 23202,
  "violation": 11371,
  "abbreviated": 12066,
  "kelsey": 21004,
  "pursed": 21954,
  "bk": 23923,
  "flank": 12205,
  "candidates": 5347,
  "oversized": 21698,
  "slovenian": 16583,
  "bratislava": 22992,
  "silenced": 25030,
  "fuels": 20145,
  "##ngo": 16656,
  "##khan": 26370,
  "red": 2417,
  "stalk": 23899,
  "strata": 22913,
  "[unused25]": 26,
  "##δ": 29722,
  "[unused120]": 125,
  "concerns": 5936,
  "##北": 30307,
  "##,": 29623,
  "raw": 6315,
  "wryly": 28325,
  "##mba": 11201,
  "##rating": 15172,
  "1925": 4849,
  "prompt": 25732,
  "1830": 9500,
  "cavalier": 28778,
  "drafts": 28967,
  "joshi": 26645,
  "percussion": 6333,
  "xiii": 15031,
  "stan": 9761,
  "grassy": 22221,
  "車": 1954,
  "stack": 9991,
  "forceful": 28552,
  "37th": 23027,
  "contributing": 8020,
  "inputs": 20407,
  "positions": 4460,
  "pm": 7610,
  "migratory": 22262,
  "midtown": 27219,
  "brussels": 9371,
  "brit": 28101,
  "amalgamated": 17143,
  "decay": 13121,
  "##lett": 20897,
  "##ael": 21147,
  "pathetic": 17203,
  "##dman": 21804,
  "finals": 4399,
  "org": 8917,
  "jaws": 16113,
  "seduction": 26962,
  "##س": 29824,
  "electrically": 29103,
  "iaaf": 21259,
  "valley": 3028,
  "administering": 28965,
  "##pd": 17299,
  "volunteer": 6951,
  "earnings": 16565,
  "growling": 22413,
  "decreases": 17913,
  "earl": 4656,
  "ralph": 6798,
  "[unused459]": 464,
  "builds": 16473,
  "囗": 1797,
  "nathan": 7150,
  "##chel": 15721,
  "semantic": 21641,
  "##rte": 19731,
  "cactus": 23265,
  "brawl": 23244,
  "videos": 6876,
  "##⽥": 30160,
  "region": 2555,
  "upton": 26900,
  "photon": 26383,
  "rehab": 24497,
  "##adia": 25205,
  "hash": 23325,
  "##taro": 28160,
  "lam": 16983,
  "rutherford": 18472,
  "rd": 16428,
  "norway": 5120,
  "reckless": 18555,
  "related": 3141,
  "activist": 7423,
  "##can": 9336,
  "timetable": 23839,
  "marxism": 27255,
  "1915": 4936,
  "チ": 1710,
  "char": 25869,
  "lesbian": 11690,
  "bentley": 15988,
  "coil": 17085,
  "june": 2238,
  "cleveland": 6044,
  "wilkes": 20635,
  "lesson": 10800,
  "[unused465]": 470,
  "exclusion": 15945,
  "migrating": 28636,
  "headed": 3753,
  "ropes": 14607,
  "dolores": 21544,
  "[unused881]": 886,
  "##rod": 14127,
  "##kan": 9126,
  "back": 2067,
  "advice": 6040,
  "grey": 4462,
  "##cea": 21456,
  "##oit": 28100,
  "elements": 3787,
  "spd": 23772,
  "firth": 25138,
  "sin": 8254,
  "berman": 29482,
  "graded": 21976,
  "coastal": 5780,
  "1648": 22533,
  "##emon": 26941,
  "ferries": 20157,
  "conveyed": 21527,
  "plays": 3248,
  "grumbled": 17030,
  "##with": 24415,
  "php": 25718,
  "tatiana": 22725,
  "[unused447]": 452,
  "[unused482]": 487,
  "deserted": 12768,
  "intermittent": 23852,
  "##uder": 29190,
  "[unused50]": 51,
  "jimi": 27624,
  "quarries": 27069,
  "[unused152]": 157,
  "educational": 4547,
  "rejects": 19164,
  "##bir": 17706,
  "accumulated": 14830,
  "quebec": 5447,
  "[MASK]": 103,
  "sachs": 22818,
  "photographic": 12416,
  "judith": 12924,
  "lana": 16554,
  "platinum": 8899,
  "##的": 30442,
  "bar": 3347,
  "bishop": 3387,
  "meanings": 15383,
  "baltic": 11275,
  "covering": 5266,
  "ann": 5754,
  "##owing": 14138,
  "pants": 6471,
  "rocks": 5749,
  "##ld": 6392,
  "redesign": 25136,
  "scope": 9531,
  "hanover": 14393,
  "skirts": 18184,
  "##wley": 20609,
  "where": 2073,
  "exited": 15284,
  "wife": 2564,
  "relegated": 7049,
  "triumphant": 25251,
  "flats": 14201,
  "headquarters": 4075,
  "##moral": 22049,
  "liszt": 26273,
  "tractors": 28292,
  "huntsville": 28492,
  "##華": 30468,
  "##ও": 29888,
  "##rad": 12173,
  "appalachian": 19682,
  "[unused460]": 465,
  "snuck": 24492,
  "spaghetti": 26666,
  "ன": 1387,
  "rivers": 5485,
  "##}": 29642,
  "analyzed": 16578,
  "stephan": 15963,
  "cake": 9850,
  "storey": 11676,
  "erect": 14908,
  "questioning": 11242,
  "##ggles": 24989,
  "ة": 1272,
  "composure": 23619,
  "pills": 15345,
  "heir": 8215,
  "joaquin": 16877,
  "rounding": 26939,
  "box": 3482,
  "evie": 26400,
  "bladder": 24176,
  "##wal": 13476,
  "[unused719]": 724,
  "##ত": 29898,
  "##phila": 26083,
  "kade": 26159,
  "apostle": 20121,
  "alfonso": 13591,
  "subsp": 24807,
  "procedures": 8853,
  "chopped": 24881,
  "aged": 4793,
  "conductor": 7589,
  "##β": 29720,
  "dual": 7037,
  "##of": 11253,
  "instructions": 8128,
  "judo": 19083,
  "[unused304]": 309,
  "nfc": 22309,
  "liechtenstein": 26500,
  "[unused238]": 243,
  "1771": 20708,
  "newcomer": 16866,
  "উ": 1350,
  "180": 8380,
  "mohammed": 12619,
  "pens": 25636,
  "lacks": 14087,
  "peng": 26473,
  "regain": 12452,
  "multiplayer": 17762,
  "card": 4003,
  "psychotic": 27756,
  "forgiven": 24280,
  "activation": 13791,
  "spectroscopy": 25458,
  "##ductive": 26638,
  "hare": 14263,
  "lauderdale": 23520,
  "reissue": 17173,
  "containing": 4820,
  "ecosystem": 16927,
  "distribute": 16062,
  "rejoin": 25261,
  "anarchy": 26395,
  "artifacts": 10471,
  "##vard": 25911,
  "kira": 15163,
  "##ナ": 30241,
  "emission": 15760,
  "kapoor": 17129,
  "invites": 18675,
  "solemnly": 26294,
  "[unused822]": 827,
  "1699": 28718,
  "##fers": 24396,
  "lublin": 18967,
  "themselves": 3209,
  "##iad": 28665,
  "radiated": 23000,
  "さ": 1656,
  "delight": 12208,
  "manufactured": 7609,
  "repression": 22422,
  "raid": 8118,
  "flirt": 27978,
  "spanning": 13912,
  "piers": 16067,
  "##version": 27774,
  "leaf": 7053,
  "tissues": 14095,
  "volkswagen": 18817,
  "lifestyle": 9580,
  "patriarch": 12626,
  "attracting": 15411,
  "##oof": 21511,
  "lakshmi": 21352,
  "¹⁄₂": 18728,
  "preston": 8475,
  "680": 23944,
  "rookie": 8305,
  "texture": 14902,
  "flesh": 5771,
  "##rgh": 27172,
  "bend": 8815,
  "##inium": 27585,
  "peugeot": 26385,
  "durable": 25634,
  "splits": 19584,
  "ads": 14997,
  "##hp": 22269,
  "##gration": 29397,
  "clemson": 25906,
  "moody": 14434,
  "sindh": 20284,
  "sling": 27076,
  "flies": 10029,
  "decomposition": 22511,
  "suburban": 9282,
  "currie": 20667,
  "ラ": 1731,
  "allie": 16944,
  "##elling": 23918,
  "ambient": 17093,
  "stability": 9211,
  "daytona": 18226,
  "substituted": 17316,
  "caf": 24689,
  "##ii": 6137,
  "##say": 24322,
  "patient": 5776,
  "##mas": 9335,
  "sponsored": 6485,
  "room": 2282,
  "##van": 6212,
  "[unused28]": 29,
  "withdraw": 10632,
  "intimidating": 24439,
  "benches": 19571,
  "mediation": 26435,
  "##vre": 12229,
  "leaving": 2975,
  "flemish": 15427,
  "screen": 3898,
  "countdown": 18144,
  "1735": 26063,
  "skier": 21294,
  "พ": 1414,
  "dies": 8289,
  "allotted": 23932,
  "fitch": 26062,
  "[unused261]": 266,
  "trips": 9109,
  "hope": 3246,
  "##etto": 20082,
  "carpathian": 26349,
  "terrifying": 17082,
  "stimulating": 27295,
  "210": 12875,
  "worcestershire": 20218,
  "mermaid": 22322,
  "marilyn": 14749,
  "##tia": 10711,
  "##rito": 28414,
  "neatly": 15981,
  "caroline": 7981,
  "##wehr": 27156,
  "tons": 6197,
  "##hesion": 21471,
  "bottoms": 24196,
  "##rain": 21166,
  "36th": 21460,
  "ostensibly": 23734,
  "1894": 6539,
  "transition": 6653,
  "carlton": 12989,
  "freelance": 15919,
  "vis": 25292,
  "dt": 26718,
  "condom": 20910,
  "dubbed": 9188,
  "##gler": 17420,
  "##chner": 28254,
  "g": 1043,
  "lambda": 23375,
  "von": 3854,
  "chaotic": 19633,
  "##hammer": 19742,
  "sql": 29296,
  "outrageous": 25506,
  "nawab": 26543,
  "mag": 23848,
  "broadly": 13644,
  "backs": 10457,
  "impaired": 18234,
  "gibbs": 15659,
  "##laya": 22923,
  "[unused278]": 283,
  "seated": 8901,
  "evening": 3944,
  "wealthiest": 27809,
  "##nell": 9091,
  "tools": 5906,
  "releases": 7085,
  "##cot": 24310,
  "aus": 17151,
  "##ٹ": 29838,
  "introduces": 13999,
  "##ო": 29986,
  "brothers": 3428,
  "floors": 8158,
  "1710": 23841,
  "architect": 4944,
  "derivative": 13819,
  "mankind": 14938,
  "##ক": 29889,
  "##ン": 30263,
  "407": 28941,
  "kisses": 8537,
  "francais": 22357,
  "matthews": 12351,
  "##tyn": 25680,
  "battalion": 4123,
  "112": 11176,
  "reconcile": 21063,
  "##pheus": 22809,
  "monarchs": 19799,
  "lessons": 8220,
  "##roll": 28402,
  "vip": 21722,
  "lighting": 7497,
  "rhyme": 20622,
  "versailles": 18346,
  "##yle": 12844,
  "wayne": 6159,
  "primate": 25662,
  "munich": 7469,
  "healer": 19783,
  "carson": 9806,
  "concerto": 10405,
  "amidst": 17171,
  "##kali": 28613,
  "merely": 6414,
  "bn": 24869,
  "##gizing": 28660,
  "seminary": 8705,
  "networks": 6125,
  "##vs": 15088,
  "aiden": 15086,
  "mortgage": 14344,
  "tick": 16356,
  "##dee": 26095,
  "benton": 18685,
  "landmark": 8637,
  "annually": 6604,
  "mutant": 15527,
  "##y": 2100,
  "rescue": 5343,
  "stamford": 22469,
  "explicitly": 12045,
  "##ders": 13375,
  "##ssen": 14416,
  "ninja": 14104,
  "goalkeeper": 9653,
  "defamation": 27652,
  "##ada": 8447,
  "治": 1900,
  "articles": 4790,
  "multiplied": 28608,
  "##‐": 30048,
  "ث": 1274,
  "spawn": 25645,
  "del": 3972,
  "##loh": 24729,
  "##xton": 14226,
  "[unused48]": 49,
  "hating": 22650,
  "[unused451]": 456,
  "guatemala": 11779,
  "duo": 6829,
  "##iz": 10993,
  "basque": 13915,
  "horrified": 14603,
  "1913": 5124,
  "arrogance": 24416,
  "trajectory": 22793,
  "##ique": 7413,
  "##ij": 28418,
  "brick": 5318,
  "beast": 6841,
  "suffered": 4265,
  "##alla": 25425,
  "halted": 12705,
  "farewell": 13407,
  "rise": 4125,
  "##op": 7361,
  "statistical": 7778,
  "##um": 2819,
  "resin": 24604,
  "義": 1936,
  "races": 3837,
  "service": 2326,
  "engravings": 28611,
  "bunch": 9129,
  "membranes": 24972,
  "چ": 1303,
  "warrior": 6750,
  "[unused444]": 449,
  "mapping": 12375,
  "235": 17825,
  "wesleyan": 19858,
  "nodding": 11863,
  "visions": 12018,
  "bs": 18667,
  "syllable": 16353,
  "press": 2811,
  "[unused299]": 304,
  "anthropologist": 21571,
  "flaw": 28450,
  "philippines": 5137,
  "gathering": 7215,
  "fest": 17037,
  "1866": 7647,
  "historically": 7145,
  "न": 1327,
  "inched": 25330,
  "charities": 15430,
  "show": 2265,
  "##>": 29631,
  "117": 12567,
  "##tting": 13027,
  "weekends": 13499,
  "uniquely": 20640,
  "resisted": 13335,
  "##amo": 22591,
  "##tling": 15073,
  "website": 4037,
  "##nting": 24360,
  "thinks": 6732,
  "lake": 2697,
  "bella": 12101,
  "#": 1001,
  "lungs": 8948,
  "[unused866]": 871,
  "##ags": 26454,
  "nest": 9089,
  "unsuitable": 25622,
  "burmese": 14468,
  "##rano": 20770,
  "mines": 7134,
  "せ": 1659,
  "witnesses": 9390,
  "308": 24232,
  "##ₜ": 30099,
  "dancer": 8033,
  "americana": 25988,
  "titanic": 20753,
  "##ब": 29865,
  "upstream": 13909,
  "[unused91]": 92,
  "authentic": 14469,
  "jj": 29017,
  "##tier": 17579,
  "assyrian": 19950,
  "blah": 27984,
  "addict": 26855,
[...]
