{
  "benfica": 26542,
  "successive": 11165,
  "tony": 4116,
  "swallow": 10577,
  "##tf": 24475,
  "recreated": 29414,
  "organized": 4114,
  "##est": 4355,
  "weaver": 14077,
  "reset": 25141,
  "cartoons": 13941,
  "trader": 17667,
  "undone": 25757,
  "shang": 29382,
  "##kal": 12902,
  "catch": 4608,
  "darker": 9904,
  "##mous": 27711,
  "denmark": 5842,
  "tablet": 13855,
  "eleanor": 10508,
  "poisonous": 22641,
  "holster": 29447,
  "tata": 23236,
  "installation": 8272,
  "##ge": 3351,
  "honestly": 9826,
  "book": 2338,
  "##τ": 29734,
  "campeonato": 17675,
  "theaters": 12370,
  "viewpoint": 21386,
  "consume": 16678,
  "venezuela": 8326,
  "llc": 11775,
  "external": 6327,
  "ע": 1259,
  "animator": 25132,
  "soho": 23771,
  "##ulating": 10924,
  "aegean": 27198,
  "academia": 16926,
  "##aks": 29243,
  "##pu": 14289,
  "backing": 5150,
  "##chenko": 25872,
  "sidewalk": 11996,
  "łodz": 17814,
  "discharge": 11889,
  "##─": 30142,
  "development": 2458,
  "corruption": 7897,
  "##tling": 15073,
  "addiction": 13449,
  "##ɬ": 29687,
  "##∪": 30132,
  "vigorously": 22400,
  "davy": 23255,
  "[unused338]": 343,
  "low": 2659,
  "dirk": 17594,
  "leaves": 3727,
  "1981": 3261,
  "quo": 22035,
  "crows": 21623,
  "involved": 2920,
  "goodnight": 22708,
  "odisha": 21874,
  "##alia": 22786,
  "さ": 1656,
  "prospective": 17464,
  "##ulation": 9513,
  "2006": 2294,
  "##day": 10259,
  "accounting": 9529,
  "medicinal": 20632,
  "##太": 30338,
  "rank": 4635,
  "complained": 10865,
  "##lateral": 28277,
  "pointer": 20884,
  "attract": 9958,
  "##nx": 26807,
  "bypass": 11826,
  "creeks": 24974,
  "dizzy": 14849,
  "dual": 7037,
  "forecast": 19939,
  "accounted": 14729,
  "pricing": 20874,
  "expired": 13735,
  "resignation": 8172,
  "exploding": 20728,
  "satisfying": 17087,
  "photographs": 7008,
  "jimi": 27624,
  "fancy": 11281,
  "##आ": 29848,
  "italics": 19408,
  "disputes": 11936,
  "agile": 29003,
  "synagogue": 13067,
  "dinah": 26562,
  "fold": 10671,
  "braid": 24148,
  "contention": 18974,
  "taxes": 7773,
  "princess": 4615,
  "sha": 21146,
  "concentration": 6693,
  "vines": 16702,
  "##т": 22919,
  "forged": 16158,
  "1803": 12651,
  "looked": 2246,
  "perceive": 23084,
  "moshe": 27123,
  "ा": 1340,
  "ᵏ": 1501,
  "remodeled": 27170,
  "arguably": 15835,
  "geometridae": 24687,
  "47": 4700,
  "##藤": 30470,
  "downloadable": 26720,
  "runaway": 19050,
  "dominic": 11282,
  "everywhere": 7249,
  "thoroughbred": 18359,
  "came": 2234,
  "##illa": 9386,
  "##titled": 21309,
  "oblast": 10379,
  "roland": 8262,
  "870": 28864,
  "creek": 3636,
  "conservatoire": 29233,
  "embodied": 25405,
  "lu": 11320,
  "advantages": 12637,
  "itf": 27682,
  "##lia": 6632,
  "##bourg": 20431,
  "binds": 20817,
  "1860": 7313,
  "mound": 12048,
  "galileo": 21514,
  "sampled": 18925,
  "nyu": 27935,
  "##liest": 21292,
  "luigi": 15153,
  "##ti": 3775,
  "stud": 16054,
  "feedback": 12247,
  "bran": 24905,
  "[unused301]": 306,
  "vulture": 27588,
  "[unused71]": 72,
  "sarah": 4532,
  "[unused936]": 941,
  "grazed": 26627,
  "corrupt": 13593,
  "noticeably": 25327,
  "clifford": 13894,
  "acquire": 9878,
  "hypnotic": 28322,
  "anomaly": 28685,
  "##ule": 9307,
  "protested": 11456,
  "outrage": 19006,
  "enclave": 25867,
  "##女": 30341,
  "##ظ": 29829,
  "##arium": 17285,
  "carlos": 5828,
  "along": 2247,
  "stumbled": 9845,
  "terre": 25170,
  "developer": 9722,
  "##ain": 8113,
  "sergey": 22703,
  "##ム": 30251,
  "ralph": 6798,
  "lazy": 13971,
  "color": 3609,
  "##lk": 13687,
  "hour": 3178,
  "##rate": 11657,
  "##nikov": 22576,
  "gloria": 10778,
  "undoubtedly": 17319,
  "losers": 23160,
  "invaded": 10836,
  "wore": 5078,
  "lone": 10459,
  "armored": 10612,
  "##agger": 27609,
  "##zoo": 23221,
  "##uke": 15851,
  "swearing": 25082,
  "latest": 6745,
  "genetically": 19345,
  "##lving": 25780,
  "climax": 14463,
  "水": 1893,
  "encountered": 8567,
  "normal": 3671,
  "##nna": 9516,
  "foolish": 13219,
  "##κ": 29726,
  "frustrated": 10206,
  "clinch": 29119,
  "adobe": 18106,
  "punishments": 29115,
  "##ades": 18673,
  "##joy": 24793,
  "longest": 6493,
  "cleric": 29307,
  "‒": 1515,
  "inquiry": 9934,
  "happening": 6230,
  "##rina": 11796,
  "##physics": 15638,
  "đ": 1102,
  "loop": 7077,
  "[unused565]": 570,
  "aren": 4995,
  "consuming": 15077,
  "happier": 19366,
  "##din": 8718,
  "bang": 9748,
  "replication": 21647,
  "enzo": 26218,
  "brandenburg": 16426,
  "emeritus": 12372,
  "inc": 4297,
  "[unused744]": 749,
  "##gra": 17643,
  "petra": 20953,
  "vain": 15784,
  "ferocious": 27863,
  "##lating": 22248,
  "##35": 19481,
  "##ffi": 26989,
  "canton": 8770,
  "citadel": 15364,
  "hilary": 22744,
  "##50": 12376,
  "##rino": 17815,
  "##ク": 30228,
  "floated": 13715,
  "escorts": 24877,
  "velvet": 10966,
  "molly": 9618,
  "##itis": 13706,
  "boards": 7923,
  "phoebe": 18188,
  "##ya": 3148,
  "temporal": 15850,
  "subjective": 20714,
  "saddam": 24111,
  "⺩": 1632,
  "1807": 13206,
  "gonna": 6069,
  "webber": 19861,
  "aboriginal": 9757,
  "##mpt": 27718,
  "##qu": 28940,
  "kang": 16073,
  "towed": 18948,
  "persecuted": 27666,
  "##kon": 19648,
  "є": 1212,
  "##jar": 16084,
  "gregory": 7296,
  "shook": 3184,
  "##皇": 30443,
  "##clave": 23650,
  "##ark": 17007,
  "veil": 15562,
  "computational": 15078,
  "competes": 14190,
  "##iaceae": 23357,
  "##cuting": 29163,
  "##ז": 29793,
  "[unused810]": 815,
  "##stead": 25647,
  "module": 11336,
  "ᆨ": 1484,
  "screen": 3898,
  "mallory": 20468,
  "36th": 21460,
  "charities": 15430,
  "espn": 10978,
  "rhodes": 10588,
  "ₖ": 1565,
  "##gau": 20420,
  "aztec": 25245,
  "##hony": 27629,
  "military": 2510,
  "wounding": 27285,
  "都": 1961,
  "sucker": 26476,
  "yields": 16189,
  "clit": 17962,
  "37": 4261,
  "activate": 20544,
  "bilingual": 17636,
  "##cke": 19869,
  "[unused467]": 472,
  "sub": 4942,
  "64": 4185,
  "johanna": 21498,
  "syria": 7795,
  "lewis": 4572,
  "nope": 16780,
  "looming": 23430,
  "godfather": 23834,
  "lure": 17256,
  "##chu": 20760,
  "accepts": 13385,
  "policies": 6043,
  "turbo": 15386,
  "1817": 12529,
  "townspeople": 27938,
  "—": 1517,
  "##erate": 22139,
  "##ulf": 21007,
  "1892": 6527,
  "##tead": 14565,
  "researchers": 6950,
  "bwv": 23860,
  "josie": 15293,
  "locality": 10246,
  "renew": 20687,
  "townsville": 27492,
  "##out": 5833,
  "rainforest": 18951,
  "fulfilling": 21570,
  "outta": 24955,
  "unable": 4039,
  "mix": 4666,
  "grit": 24842,
  "austrian": 6161,
  "##ode": 10244,
  "parasitic": 26045,
  "freeing": 22198,
  "demolition": 12451,
  "##ically": 15004,
  "[unused859]": 864,
  "##ths": 26830,
  "ч": 1202,
  "[unused389]": 394,
  "##erty": 15010,
  "townsend": 16139,
  "sensual": 18753,
  "restriction": 16840,
  "notices": 14444,
  "congestion": 20176,
  "catholic": 3234,
  "##gling": 18483,
  "spring": 3500,
  "##sible": 19307,
  "fierce": 9205,
  "merely": 6414,
  "thinks": 6732,
  "dyke": 22212,
  "deity": 12764,
  "##rys": 24769,
  "glare": 10982,
  "tenderness": 24605,
  "attributed": 7108,
  "varsity": 11710,
  "wavy": 23098,
  "runes": 29161,
  "therapeutic": 17261,
  "301": 19123,
  "##arte": 24847,
  "kincaid": 24510,
  "goalkeeper": 9653,
  "secretly": 10082,
  "marine": 3884,
  "[unused252]": 257,
  "##han": 4819,
  "denied": 6380,
  "goaltender": 21437,
  "sherwood": 19427,
  "##bbing": 23200,
  "\"": 1000,
  "shortlisted": 21353,
  "rose": 3123,
  "blogger": 28205,
  "planet": 4774,
  "formal": 5337,
  "cbc": 13581,
  "[unused948]": 953,
  "forts": 15421,
  "darmstadt": 28381,
  "constantly": 7887,
  "appeals": 9023,
  "homemade": 25628,
  "##ories": 18909,
  "[unused707]": 712,
  "##uts": 16446,
  "stocked": 24802,
  "dancing": 5613,
  "networks": 6125,
  "##26": 23833,
  "mclean": 17602,
  "(": 1006,
  "cub": 21987,
  "eat": 4521,
  "bits": 9017,
  "cum": 13988,
  "nike": 18368,
  "##ecin": 28191,
  "sacramento": 11932,
  "rs": 12667,
  "ferdinand": 9684,
  "federation": 4657,
  "guaranteed": 12361,
  "earnest": 17300,
  "[unused228]": 233,
  "operational": 6515,
  "invasive": 17503,
  "##gible": 18507,
  "##ello": 15350,
  "ink": 10710,
  "christianity": 7988,
  "##ism": 2964,
  "kerman": 24500,
  "no": 2053,
  "receptors": 13833,
  "parts": 3033,
  "##elle": 14774,
  "declan": 16494,
  "abdullah": 14093,
  "##春": 30393,
  "prospect": 9824,
  "tatum": 25913,
  "ท": 1412,
  "##ια": 27432,
  "##zuka": 22968,
  "##pping": 14853,
  "akira": 21616,
  "mirrors": 13536,
  "eva": 9345,
  "composing": 16572,
  "##ub": 12083,
  "modeled": 14440,
  "munitions": 21061,
  "chairs": 8397,
  "training": 2731,
  "##₉": 30085,
  "abandonment": 22290,
  "women": 2308,
  "deployment": 10813,
  "##lled": 11001,
  "nm": 13221,
  "史": 1790,
  "dragons": 8626,
  "##khov": 25495,
  "fail": 8246,
  "chemistry": 6370,
  "[unused62]": 63,
  "jazz": 4166,
  "intends": 18754,
  "device": 5080,
  "ح": 1276,
  "##oese": 23379,
  "tournaments": 8504,
  "##ち": 30188,
  "magnolia": 24659,
  "spotlight": 17763,
  "interfaces": 19706,
  "stages": 5711,
  "grenade": 17038,
  "traction": 16493,
  "disadvantaged": 27322,
  "1819": 12552,
  "##pot": 11008,
  "damaging": 15011,
  "##bber": 29325,
  "kickoff": 25233,
  "##kari": 20224,
  "centuries": 4693,
  "[unused963]": 968,
  "##ᅢ": 30007,
  "arya": 26140,
  "thicker": 19638,
  "dario": 26800,
  "bowling": 9116,
  "coinage": 25396,
  "##区": 30308,
  "irrelevant": 22537,
  "preached": 21491,
  "julien": 19290,
  "formations": 13197,
  "applications": 5097,
  "eyeing": 19285,
  "beg": 11693,
  "[unused254]": 259,
  "##uan": 13860,
  "wrought": 18481,
  "cones": 23825,
  "[unused129]": 134,
  "anytime": 15933,
  "ravine": 23188,
  "pedersen": 27409,
  "par": 11968,
  "285": 21777,
  "adjustable": 26404,
  "favorite": 5440,
  "wish": 4299,
  "oaxaca": 26923,
  "chains": 8859,
  "obituary": 20815,
  "postdoctoral": 29272,
  "∗": 1598,
  "busted": 23142,
  "randomly": 18154,
  "[unused652]": 657,
  "wb": 25610,
  "[unused533]": 538,
  "##yat": 26139,
  "bite": 6805,
  "respond": 6869,
  "##asi": 21369,
  "flicked": 12777,
  "[unused856]": 861,
  "口": 1788,
  "##ɹ": 29691,
  "glasgow": 6785,
  "nerve": 9113,
  "barr": 19820,
  "shaded": 25273,
  "shan": 17137,
  "##oko": 16366,
  "scanned": 11728,
  "adelaide": 7364,
  "pioneers": 13200,
  "wendy": 12815,
  "statehood": 28000,
  "steamboat": 24897,
  "##dda": 25062,
  "##ʸ": 29710,
  "oracle": 14721,
  "daylight": 11695,
  "toro": 23790,
  "palatinate": 18990,
  "ncaa": 5803,
  "alert": 9499,
  "hammond": 11309,
  "tendency": 11765,
  "##shah": 25611,
  "politically": 10317,
  "guo": 22720,
  "sweetly": 22557,
  "thing": 2518,
  "1b": 26314,
  "unmarried": 17204,
  "replacements": 23936,
  "hopped": 17230,
  "takes": 3138,
  "deputy": 4112,
  "predators": 12630,
  "twitching": 25402,
  "##ς": 19579,
  "[unused910]": 915,
  "headlined": 25214,
  "hastily": 15789,
  "reservation": 11079,
  "hodge": 23148,
  "##幸": 30367,
  "gerhard": 21037,
  "emerson": 12628,
  "africans": 18076,
  "suggesting": 9104,
  "spoiled": 19582,
  "slide": 7358,
  "##edging": 28002,
  "bengals": 23227,
  "##reate": 29313,
  "##oed": 29099,
  "operating": 4082,
  "none": 3904,
  "##დ": 29977,
  "timmy": 27217,
  "##智": 30395,
  "gymnast": 25055,
  "ground": 2598,
  "orchid": 15573,
  "fraction": 12884,
  "c2": 29248,
  "brat": 28557,
  "##gi": 5856,
  "konrad": 22958,
  "harmonies": 28594,
  "evolving": 20607,
  "snowfall": 26043,
  "metro": 6005,
  "##)": 29620,
  "satire": 18312,
  "##quay": 25575,
  "[unused150]": 155,
  "partisans": 20762,
  "##ctive": 15277,
  "fog": 9666,
  "ನ": 1400,
  "batteries": 10274,
  "nightfall": 28018,
  "[unused777]": 782,
  "negatively": 19762,
  "1962": 3705,
  "1612": 29186,
  "bu": 20934,
  "52": 4720,
  "##ω": 29739,
  "##sun": 19729,
  "protestant": 8330,
  "christy": 21550,
  "perfume": 17013,
  "locomotive": 8098,
  "##₤": 30100,
  "gibraltar": 12272,
  "batted": 12822,
  "confinement": 21551,
  "bedside": 19475,
  "buck": 10131,
  "songwriting": 14029,
  "contribution": 6691,
  "arbitration": 18010,
  "lineman": 24062,
  "airlines": 7608,
  "≤": 1608,
  "truce": 18415,
  "hummed": 26747,
  "akin": 17793,
  "pharmacy": 13882,
  "##bria": 21556,
  "froze": 10619,
  "mcdonald": 9383,
  "adventures": 7357,
  "##birds": 12887,
  "nikolay": 28494,
  "explosion": 7738,
  "##khand": 25910,
  "oman": 16640,
  "fork": 9292,
  "storyline": 9994,
  "##rr": 12171,
  "[unused462]": 467,
  "yuki": 24924,
  "digital": 3617,
  "和": 1796,
  "##yoshi": 19196,
  "begins": 4269,
  "##ava": 12462,
  "irina": 25404,
  "rearview": 28726,
  "##ted": 3064,
  "proportion": 10817,
  "noon": 11501,
  "lunar": 11926,
  "handbook": 14812,
  "shannon": 10881,
  "guitar": 2858,
  "choosing": 10549,
  "##cha": 7507,
  "##ħ": 29672,
  "oaks": 13396,
  "840": 28122,
  "[unused176]": 181,
  "##jn": 22895,
  "##子": 30342,
  "spare": 8622,
  "lulu": 21744,
  "skill": 8066,
  "火": 1906,
  "##rro": 18933,
  "peyton": 17931,
  "curtain": 11002,
  "##dding": 27027,
  "bernie": 15941,
  "aspects": 5919,
  "lightly": 8217,
  "##ס": 29804,
  "grooves": 25880,
  "sedan": 15134,
  "[unused297]": 302,
  "##km": 22287,
  "##eger": 26320,
  "descent": 6934,
  "tinted": 25577,
  "70th": 26934,
  "smells": 14747,
  "try": 3046,
  "debates": 14379,
  "##deh": 25383,
  "baptiste": 17329,
  "replicate": 28024,
  "##va": 3567,
  "hurricane": 7064,
  "reunited": 11653,
  "signal": 4742,
  "smirked": 18775,
  "procedures": 8853,
  "glamorgan": 23861,
  "mission": 3260,
  "brazilian": 6142,
  "patented": 16719,
  "sounding": 9391,
  "argentina": 5619,
  "now": 2085,
  "##ע": 29805,
  "##ards": 18117,
  "disciplined": 28675,
  "rejecting": 21936,
  "##rine": 11467,
  "strokes": 13692,
  "##,": 29623,
  "ammonia": 25874,
  "participates": 17257,
  "dialect": 9329,
  "berkshire": 15570,
  "tricks": 12225,
  "solitary": 14348,
  "viper": 17947,
  "michel": 8709,
  "populations": 7080,
  "constitutes": 17367,
  "djs": 23837,
  "scarce": 18782,
  "[unused53]": 54,
  "managed": 3266,
  "apartments": 9620,
  "##ffle": 18142,
  "5": 1019,
  "wong": 11789,
  "authority": 3691,
  "car": 2482,
  "chase": 5252,
  "##hner": 28989,
  "forbid": 27206,
  "[unused192]": 197,
  "robotics": 21331,
  "sleeps": 25126,
  "beaten": 7854,
  "strolled": 20354,
  "considered": 2641,
  "##rney": 27114,
  "infringement": 20701,
  "ferns": 25715,
  "vacuum": 11641,
  "knicks": 27817,
  "mature": 9677,
  "controls": 7711,
  "hoc": 21929,
  "angled": 18756,
  "worshipped": 22876,
  "760": 24643,
  "encompassing": 19129,
  "olson": 21583,
  "##lini": 22153,
  "##kle": 19099,
  "leafs": 21349,
  "baptism": 18336,
  "##ulous": 16203,
  "boris": 11235,
  "moldova": 16772,
  "measured": 7594,
  "##ile": 9463,
  "unspoken": 25982,
  "##cian": 14483,
  "irene": 12855,
  "whipped": 12428,
  "embroidered": 23590,
  "[unused761]": 766,
  "organisation": 5502,
  "##mps": 25370,
  "rappers": 28257,
  "unrelated": 15142,
  "[unused576]": 581,
  "costa": 6849,
  "248": 24568,
  "dawned": 27702,
  "avenue": 3927,
  "giggling": 21783,
  "plain": 5810,
  "prestige": 14653,
  "overcame": 26463,
  "##nst": 23808,
  "##strom": 15687,
  "1848": 7993,
  "rang": 8369,
  "examine": 11628,
  "stephane": 26624,
  "marco": 8879,
  "prelude": 19508,
  "tease": 18381,
  "felicia": 27579,
  "grinning": 11478,
  "prohibit": 23469,
  "saunders": 15247,
  "##bio": 26282,
  "[unused880]": 885,
  "televised": 13762,
  "[unused257]": 262,
  "##ural": 11137,
  "cannes": 14775,
  "thoughtfully": 19897,
  "##ian": 2937,
  "maggie": 8538,
  "ceilings": 21098,
  "##rge": 20800,
  "palace": 4186,
  "irrigation": 12442,
  "##gga": 23033,
  "ski": 8301,
  "##7th": 27506,
  "hee": 18235,
  "decreased": 10548,
  "couch": 6411,
  "##idad": 27893,
  "前": 1776,
  "archway": 28189,
  "##arm": 27292,
  "##ogen": 23924,
  "impairment": 25172,
  "firing": 7493,
  "casino": 9270,
  "##є": 29759,
  "presidents": 11274,
  "transplant": 22291,
  "correspond": 17254,
  "ր": 1237,
  "##owski": 15249,
  "individuals": 3633,
  "roasted": 28115,
  "1771": 20708,
  "ᵇ": 1497,
  "betting": 19244,
  "cortes": 22242,
  "writ": 25697,
  "havilland": 23994,
  "unincorporated": 7754,
  "races": 3837,
  "シ": 1706,
  "artemis": 19063,
  "##ape": 24065,
  "uttered": 20947,
  "supervision": 10429,
  "atkins": 21087,
  "attorneys": 16214,
  "1901": 5775,
  "325": 19652,
  "fabric": 8313,
  "chandra": 16469,
  "especially": 2926,
  "##emi": 23238,
  "graduating": 6800,
  "555": 29541,
  "[unused907]": 912,
  "jakob": 19108,
  "1789": 13739,
  "fast": 3435,
  "graz": 26918,
  "elusive": 26475,
  "##logue": 24277,
  "breed": 8843,
  "tears": 4000,
  "labelled": 18251,
  "bauer": 17838,
  "twisting": 12814,
  "supplier": 17024,
  "brno": 28634,
  "winding": 12788,
  "##у": 29748,
  "stanton": 15845,
  "rugby": 4043,
  "jackets": 17764,
  "preliminary": 8824,
  "albania": 10407,
  "absence": 6438,
  "valet": 27238,
  "sheffield": 8533,
  "muslims": 7486,
  "pt": 13866,
  "111": 11118,
  "hebrew": 6836,
  "excitedly": 23885,
  "paste": 19351,
  "apostle": 20121,
  "sights": 15925,
  "##eak": 25508,
  "[unused544]": 549,
  "psyche": 25774,
  "##香": 30505,
  "correctly": 11178,
  "convicts": 24948,
  "emerald": 14110,
  "##islaus": 25678,
  "executions": 22679,
  "reviewer": 12027,
  "##ude": 12672,
  "’": 1521,
  "adolescent": 20274,
  "interviews": 7636,
  "robot": 8957,
  "storing": 23977,
  "lcd": 27662,
  "##tment": 21181,
  "westward": 15165,
  "undertaking": 18457,
  "mueller": 26774,
  "rightful": 27167,
  "compounds": 10099,
  "cranes": 27083,
  "##rcus": 29006,
  "despite": 2750,
  "[unused149]": 154,
  "landlord": 18196,
  "say": 2360,
  "charity": 5952,
  "##ows": 15568,
  "confederate": 8055,
  "seriously": 5667,
  "transmitter": 11659,
  "economically": 15318,
  "wiener": 25072,
  "anxiety": 10089,
  "recounts": 23412,
  "tame": 24763,
  "224": 19711,
  "sequential": 25582,
  "strictly": 9975,
  "decrees": 28966,
  "##ђ": 29758,
  "##3d": 29097,
  "04": 5840,
  "hardened": 15015,
  "operatives": 25631,
  "occupation": 6139,
  "si": 9033,
  "inducing": 29290,
  "releasing": 8287,
  "##naud": 26160,
  "bed": 2793,
  "##ucible": 21104,
  "##³": 18107,
  "waller": 23550,
  "jew": 16522,
  "chefs": 27828,
  "##ct": 6593,
  "pregnant": 6875,
  "##国": 30325,
  "quinlan": 28451,
  "[unused21]": 22,
  "rec": 28667,
  "##bles": 13510,
  "exhibits": 10637,
  "threaded": 26583,
  "£5": 27813,
  "royals": 15426,
  "underway": 14128,
  "engaged": 5117,
  "ན": 1429,
  "donations": 11440,
  "##cision": 28472,
  "older": 3080,
  "##uz": 17040,
  "##da": 2850,
  "##eers": 22862,
  "##‒": 30050,
  "zach": 12397,
  "museums": 9941,
  "54": 5139,
  "grade": 3694,
  "##ing": 2075,
  "teammate": 10809,
  "sin": 8254,
  "herr": 23506,
  "cornerstone": 23354,
  "centenary": 17705,
  "[unused838]": 843,
  "##中": 30272,
  "patrols": 14703,
  "glittering": 20332,
  "##imeter": 19198,
  "bucks": 14189,
  "reconciled": 28348,
  "st": 2358,
  "axe": 12946,
  "borneo": 15688,
  "snatched": 14177,
  "reaches": 6561,
  "rotary": 16933,
  "opens": 7480,
  "shrug": 13409,
  "coined": 13279,
  "stretching": 10917,
  "martial": 7761,
  "drafted": 7462,
  "sac": 17266,
  "blooded": 26064,
  "goo": 27571,
  "serialized": 27289,
  "laszlo": 28226,
  "##hri": 26378,
  "ambassadors": 20986,
  "auditioned": 23008,
  "passage": 6019,
  "bancroft": 29351,
  "##ʂ": 29695,
  "inning": 12994,
  "excuses": 21917,
  "##hesion": 21471,
  "encouraged": 6628,
  "lithium": 22157,
  "##།": 29961,
  "span": 8487,
  "aft": 16638,
  "unopposed": 17123,
  "configurations": 22354,
  "catering": 18640,
  "cochin": 28982,
  "##oris": 21239,
  "[unused16]": 17,
  "target": 4539,
  "##due": 20041,
  "noting": 9073,
  "cease": 13236,
  "rabbi": 7907,
  "##水": 30419,
  "surveyed": 12876,
  "shaved": 20665,
  "votes": 4494,
  "municipality": 3250,
  "saskatchewan": 10068,
  "slips": 17433,
  "quit": 8046,
  "hugged": 10308,
  "mi": 2771,
  "drown": 19549,
  "scripted": 22892,
  "gut": 9535,
  "geraldine": 26987,
  "[unused481]": 486,
  "gladly": 24986,
  "pa": 6643,
  "nottinghamshire": 20126,
  "ars": 29393,
  "throbbed": 27714,
  "criticized": 6367,
  "appropriated": 29223,
  "guild": 9054,
  "partial": 7704,
  "fused": 19660,
  "##nin": 11483,
  "donetsk": 29151,
  "##aia": 27131,
  "##ble": 3468,
  "norte": 19931,
  "1967": 3476,
  "slapping": 22021,
  "nan": 16660,
  "##llan": 19036,
  "thanksgiving": 15060,
  "fredrik": 25454,
  "layers": 9014,
  "##sford": 17658,
  "oct": 13323,
  "servants": 8858,
  "punches": 17957,
  "##tures": 22662,
  "identical": 7235,
  "polynomial": 17505,
  "##ek": 5937,
  "viewers": 7193,
  "##rington": 17281,
  "trail": 4446,
  "b1": 29491,
  "designing": 12697,
  "realm": 8391,
  "championed": 28683,
  "boxes": 8378,
  "claire": 6249,
  "heaviest": 26858,
  "argent": 23157,
  "restoring": 16487,
  "happiness": 8404,
  "kingdom": 2983,
  "disks": 23999,
  "##lland": 26087,
  "disregard": 27770,
  "businesses": 5661,
  "##quil": 26147,
  "##mit": 22930,
  "rouge": 12801,
  "deluxe": 15203,
  "depicted": 8212,
  "propeller": 15692,
  "##ronia": 28140,
  "ineligible": 22023,
  "ceiling": 5894,
  "factions": 13815,
  "guinness": 17323,
  "quivering": 26012,
  "principles": 6481,
  "shimmering": 22349,
  "madden": 24890,
  "stuart": 6990,
  "gables": 27008,
  "1729": 28449,
  "catalyst": 16771,
  "brady": 10184,
  "heights": 7535,
  "momentum": 11071,
  "slayer": 20005,
  "##3": 2509,
  "##御": 30373,
  "ludwig": 10302,
  "selective": 13228,
  "cbn": 21824,
  "edinburgh": 5928,
  "audit": 15727,
  "stole": 10312,
  "cruz": 8096,
  "glossy": 19504,
  "proxy": 24540,
  "groups": 2967,
  "authenticity": 21452,
  "arrangement": 6512,
  "navigator": 20532,
  "dump": 15653,
  "##ख": 29852,
  "dismounted": 29580,
  "accompany": 12673,
  "shake": 6073,
  "serve": 3710,
  "rodgers": 15652,
  "yanking": 25716,
  "iranian": 7726,
  "bey": 20289,
  "##rchy": 29389,
  "##ocene": 25793,
  "pie": 11345,
  "withdrawing": 21779,
  "rejoined": 14311,
  "aviv": 12724,
  "365": 19342,
  "decreasing": 16922,
  "layered": 21323,
  "rapper": 10687,
  "continents": 17846,
  "花": 1940,
  "520": 19611,
  "coherent": 18920,
  "stranded": 15577,
  "ourselves": 9731,
  "scanning": 13722,
  "pr": 10975,
  "##bat": 14479,
  "nailed": 26304,
  "parasite": 21198,
  "rough": 5931,
  "##tones": 11115,
  "fits": 16142,
  "views": 5328,
  "paris": 3000,
  "font": 15489,
  "stacked": 16934,
  "wrist": 7223,
  "deeds": 15616,
  "saturated": 23489,
  "give": 2507,
  "resonance": 17011,
  "plight": 24525,
  "[unused160]": 165,
  "sparked": 13977,
  "scratches": 25980,
  "fated": 27442,
  "jaipur": 28355,
  "captures": 19566,
  "reign": 5853,
  "##evich": 16277,
  "##trust": 24669,
  "##kumar": 18494,
  "alexei": 21219,
  "uniformly": 27423,
  "##hole": 11484,
  "makes": 3084,
  "goodwill": 22875,
  "intellectuals": 17412,
  "emphasizing": 22671,
  "aggression": 14974,
  "readily": 12192,
  "physicians": 11572,
  "institute": 2820,
  "630": 23609,
  "patent": 7353,
  "##heim": 8049,
  "license": 6105,
  "spheres": 19885,
  "alexis": 13573,
  "waterways": 21938,
  "godfrey": 18238,
  "stylized": 19551,
  "mg": 11460,
  "tucson": 17478,
  "typhoon": 15393,
  "darling": 9548,
  "ames": 19900,
  "dso": 22951,
  "277": 25578,
  "##mic": 7712,
  "wireless": 9949,
  "seminar": 18014,
  "##xes": 20156,
  "tribal": 8807,
  "nilsson": 29376,
  "volume": 3872,
  "funded": 6787,
  "##ously": 13453,
  "##mount": 20048,
  "bananas": 26191,
  "plagued": 17808,
  "##swell": 19228,
  "ruth": 7920,
  "rushing": 8375,
  "impoverished": 25488,
  "##ider": 18688,
  "extended": 3668,
  "blanchard": 26870,
  "##working": 21398,
  "sarcastic": 22473,
  "##arding": 29154,
  "triumphant": 25251,
  "ks": 29535,
  "##reus": 23446,
  "paxton": 27765,
  "clown": 15912,
  "symposium": 17899,
  "advisor": 8619,
  "tigers": 7600,
  "tattoos": 18395,
  "##vor": 14550,
  "byu": 23471,
  "electric": 3751,
  "vulcan": 25993,
  "average": 2779,
  "enables": 12939,
  "hive": 26736,
  "[unused580]": 585,
  "provide": 3073,
  "democratic": 3537,
  "bloc": 15984,
  "clues": 15774,
  "representing": 5052,
  "queer": 19483,
  "listener": 19373,
  "##nington": 23155,
  "ballad": 11571,
  "overlooking": 12549,
  "decomposition": 22511,
  "petrol": 17141,
  "explanation": 7526,
  "alison": 12684,
  "intimidated": 28028,
  "gould": 14913,
  "gustave": 27973,
  "emergency": 5057,
  "english": 2394,
  "crawford": 10554,
  "grimsby": 24470,
  "mayfair": 28387,
  "demons": 7942,
  "faulkner": 25109,
  "ming": 11861,
  "##swick": 27720,
  "1680": 24621,
  "reminiscent": 14563,
  "medications": 20992,
  "kristina": 28802,
  "##pani": 26569,
  "cooled": 12981,
  "goats": 17977,
  "breakdown": 12554,
  "kassel": 27884,
  "list": 2862,
  "swore": 12860,
  "confederates": 24627,
  "##itive": 13043,
  "technology": 2974,
  "abroad": 6917,
  "documenting": 23138,
  "[unused829]": 834,
  "[unused246]": 251,
  "piano": 3682,
  "replace": 5672,
  "boots": 6879,
  "rooftop": 23308,
  "compassion": 15398,
  "##ව": 29943,
  "meant": 3214,
  "clapping": 27104,
  "wrestle": 25579,
  "endurance": 14280,
  "zombies": 14106,
  "parochial": 28773,
  "##vern": 23062,
  "manager": 3208,
  "groans": 27778,
  "outskirts": 12730,
  "##illon": 20343,
  "targeting": 14126,
  "disagreement": 18185,
  "##wear": 16689,
  "duluth": 28218,
  "obsidian": 29042,
  "##五": 30279,
  "##ulously": 21227,
  "##tyn": 25680,
  "1690": 24765,
  "##bolic": 18647,
  "tooth": 11868,
  "youtube": 7858,
  "selector": 27000,
  "dwelling": 13160,
  "perfection": 15401,
  "##nya": 17238,
  "ivan": 7332,
  "luzon": 21622,
  "drain": 12475,
  "##ocating": 27483,
  "##न": 29863,
  "error": 7561,
  "##sty": 21756,
  "holt": 12621,
  "donna": 10972,
  "下": 1743,
  "[unused186]": 191,
  "angered": 18748,
  "archbishop": 6507,
  "gunfire": 16978,
  "boyd": 12164,
  "outdoor": 7254,
  "##ini": 5498,
  "consolidate": 24939,
  "business": 2449,
  "##zman": 24340,
  "city": 2103,
  "midway": 12213,
  "elephants": 16825,
  "##lid": 21273,
  "rca": 12639,
  "garments": 21902,
  "dynamic": 8790,
  "aided": 11553,
  "մ": 1229,
  "sprayed": 25401,
  "##a1": 27717,
  "eight": 2809,
  "messina": 27270,
  "##ating": 5844,
  "##olic": 23518,
  "weed": 17901,
  "environments": 10058,
  "directly": 3495,
  "sit": 4133,
  "motive": 15793,
  "formidable": 18085,
  "died": 2351,
  "瀬": 1905,
  "convict": 20462,
  "coca": 16787,
  "y": 1061,
  "johnstone": 24160,
  "kgb": 25467,
  "ᵘ": 1506,
  "plane": 4946,
  "seneca": 21224,
  "marlborough": 22830,
  "ironic": 19313,
  "breeding": 8119,
  "concerts": 6759,
  "##stra": 20528,
  "##erative": 25284,
  "useless": 11809,
  "1400": 20652,
  "ghost": 5745,
  "jonathan": 5655,
  "永": 1896,
  "landfall": 21042,
  "##tries": 21011,
  "afforded": 22891,
  "chatter": 24691,
  "spot": 3962,
  "##llus": 20159,
  "441": 28015,
  "physiological": 19389,
  "overcome": 9462,
  "hauling": 23113,
  "[unused321]": 326,
  "aleppo": 22973,
  "##plin": 28296,
  "dixie": 18910,
  "investigated": 10847,
  "op": 6728,
  "val": 11748,
  "commenting": 15591,
  "cores": 25562,
  "moment": 2617,
  "electromagnetic": 17225,
  "berries": 22681,
  "underneath": 7650,
  "xavier": 10062,
  "studies": 2913,
  "alignment": 12139,
  "egan": 27889,
  "sardinia": 21594,
  "##rle": 20927,
  "fuels": 20145,
  "##pin": 8091,
  "shaping": 20300,
  "critics": 4401,
  "yale": 7996,
  "documentary": 4516,
  "ava": 10927,
  "[unused898]": 903,
  "commentator": 12268,
  "notwithstanding": 26206,
  "stamford": 22469,
  "edge": 3341,
  "noah": 7240,
  "civilian": 6831,
  "complexes": 15420,
  "allocated": 11095,
  "winger": 16072,
  "##arns": 23549,
  "porte": 25927,
  "scowled": 17474,
  "caucus": 13965,
  "ramsey": 15092,
  "##ntino": 25318,
  "briefly": 4780,
  "[unused458]": 463,
  "outline": 12685,
  "##昭": 30394,
  "[unused807]": 812,
  "道": 1957,
  "graphs": 19287,
  "ɡ": 1116,
  "##zin": 17168,
  "cocked": 13179,
  "rivals": 9169,
  "undertaken": 10607,
  "allied": 6035,
  "ow": 27593,
  "sober": 17358,
  "pulp": 16016,
  "##་": 29960,
  "hilltop": 25566,
  "dragon": 5202,
  "lal": 21348,
  "##ison": 10929,
  "60": 3438,
  "⁵": 1539,
  "dauphin": 29102,
  "trek": 10313,
  "broughton": 29187,
  "reared": 23295,
  "terminated": 12527,
  "merchant": 6432,
  "ants": 16111,
  "##son": 3385,
  "江": 1897,
  "inquiries": 27050,
  "##cute": 26869,
  "ruined": 9868,
  "lagoon": 15825,
  "##co": 3597,
  "##truct": 18300,
  "transportation": 5193,
  "badge": 10780,
  "##jected": 24455,
  "[unused382]": 387,
  "collected": 5067,
  "##仮": 30287,
  "demeanor": 21745,
  "##anum": 27975,
  "livelihood": 24585,
  "coal": 5317,
  "##finder": 23695,
  "felipe": 17095,
  "collaborator": 18843,
  "sneered": 28098,
  "1719": 28162,
  "visually": 17453,
  "arising": 17707,
  "##amy": 24079,
  "copied": 15826,
  "chuckles": 26088,
  "##amina": 27651,
  "ix": 11814,
  "##kong": 25460,
  "accountant": 17907,
  "ᴮ": 1491,
  "craters": 27561,
  "[unused13]": 14,
  "appendix": 22524,
  "cb": 17324,
  "scouts": 10158,
  "##np": 16275,
  "congressional": 7740,
  "##サ": 30231,
  "translucent": 22897,
  "temples": 8436,
  "元": 1769,
  "classic": 4438,
  "embarked": 11299,
  "northwards": 27592,
  "1856": 8708,
  "dance": 3153,
  "[unused67]": 68,
  "diplomacy": 17610,
  "stirred": 13551,
  "o": 1051,
  "chapter": 3127,
  "##ய": 29926,
  "bangkok": 12627,
  "♦": 1626,
  "289": 27054,
  "##ares": 17933,
  "slavery": 8864,
  "گ": 1305,
  "whichever": 29221,
  "shuffled": 18764,
  "tom": 3419,
  "rams": 13456,
  "disclosure": 19380,
  "bracing": 25919,
  "unknown": 4242,
  "accomplishment": 24718,
  "addressed": 8280,
  "##rut": 22134,
  "emptiness": 23397,
  "[unused935]": 940,
  "fundamentally": 24670,
  "least": 2560,
  "milos": 26038,
  "launches": 18989,
  "explained": 4541,
  "seekers": 24071,
  "sympathetic": 13026,
  "pedestrians": 24946,
  "1993": 2857,
  "reef": 12664,
  "graveyard": 16685,
  "honorable": 13556,
  "森": 1882,
  "œ": 1107,
  "walsh": 11019,
  "1830": 9500,
  "##ui": 10179,
  "baxter": 14664,
  "neatly": 15981,
  "ik": 20912,
  "fishermen": 16532,
  "##suke": 16867,
  "introducing": 10449,
  "inorganic": 28256,
  "[unused121]": 126,
  "activists": 10134,
  "majors": 15279,
  "haydn": 25595,
  "##tius": 22638,
  "depend": 12530,
  "##mat": 18900,
  "kaufman": 23699,
  "##mma": 14760,
  "[unused276]": 281,
  "##ium": 5007,
  "atv": 29108,
  "##lithic": 28508,
  "submissions": 27842,
  "there": 2045,
  "adriatic": 23400,
  "overcoming": 27363,
  "##sted": 14701,
  "gaa": 19930,
  "pradesh": 7970,
  "##lub": 27959,
  "axle": 17290,
  "expeditions": 15014,
  "farmland": 16439,
  "colorado": 5169,
  "bars": 6963,
  "##pg": 26952,
  "##thal": 24090,
  "lengths": 10742,
  "##wl": 13668,
  "registrar": 24580,
  "##hum": 28600,
  "zip": 14101,
  "[unused320]": 325,
  "puddle": 25081,
  "opposed": 4941,
  "mirage": 21483,
  "opened": 2441,
  "coloured": 11401,
  "##urable": 23086,
  "wage": 11897,
  "faces": 5344,
  "racecourse": 15948,
  "secret": 3595,
  "covent": 29456,
  "[unused590]": 595,
  "essex": 8862,
  "15th": 6286,
  "preseason": 20038,
  "[unused268]": 273,
  "inclusion": 10502,
  "patna": 29565,
  "480": 17295,
  "frankly": 19597,
  "solomon": 9168,
  "spit": 13183,
  "define": 9375,
  "³": 1083,
  "forster": 21316,
  "##shida": 25541,
  "knockout": 11369,
  "wept": 24966,
  "churchill": 10888,
  "marxism": 27255,
  "##mon": 8202,
  "emilio": 18644,
  "beauty": 5053,
  "##jer": 20009,
  "posts": 8466,
  "convincing": 13359,
  "ee": 25212,
  "##non": 8540,
  "##tooth": 19392,
  "##sitor": 28307,
  "location": 3295,
  "valle": 20171,
  "mph": 5601,
  "##pile": 22090,
  "crooked": 15274,
  "##worm": 22769,
  "mechanics": 9760,
  "ʃ": 1130,
  "savior": 24859,
  "mentally": 10597,
  "##о": 14150,
  "raked": 22438,
  "begin": 4088,
  "fourth": 2959,
  "numbers": 3616,
  "reserve": 3914,
  "oh": 2821,
  "345": 23785,
  "oversaw": 14105,
  "##lellan": 25839,
  "290": 17222,
  "gasping": 17054,
  "1794": 13199,
  "##ctors": 24817,
  "both": 2119,
  "playback": 18245,
  "49ers": 18156,
  "temple": 3379,
  "tko": 26537,
  "hobart": 14005,
  "professorship": 22661,
  "##beam": 28302,
  "1921": 4885,
  "palms": 9486,
  "hers": 5106,
  "french": 2413,
  "##坂": 30329,
  "allergic": 27395,
  "nothin": 24218,
  "viaduct": 20596,
  "parish": 3583,
  "##eto": 18903,
  "conducts": 17976,
  "nov": 13292,
  "commandos": 25144,
  "ₘ": 1567,
  "##print": 16550,
  "##oki": 23212,
  "cyber": 16941,
  "huffed": 25014,
  "##phate": 24556,
  "turning": 3810,
  "##rta": 13320,
  "roses": 10529,
  "##ged": 5999,
  "smelling": 19773,
  "ᴬ": 1490,
  "bergman": 24544,
  "##ike": 17339,
  "wallis": 24029,
  "ar": 12098,
  "##bie": 11283,
  "glowed": 16497,
  "hall": 2534,
  "yoko": 28758,
  "[unused68]": 69,
  "miner": 18594,
  "foxes": 24623,
  "##bn": 24700,
  "180": 8380,
  "gertrude": 18734,
  "##ingham": 16445,
  "tobin": 28096,
  "elise": 14251,
  "##cd": 19797,
  "##ox": 11636,
  "ceo": 5766,
  "##ψ": 29738,
  "auschwitz": 24363,
  "right": 2157,
  "criminal": 4735,
  "house": 2160,
  "decisive": 13079,
  "lowlands": 26411,
  "nrl": 20686,
  "leans": 12671,
  "substantially": 12381,
  "difficult": 3697,
  "aerial": 9682,
  "orthodox": 6244,
  "1860s": 15914,
  "flap": 20916,
  "simi": 28684,
  "##vier": 14356,
  "campo": 22339,
  "isis": 18301,
  "consolation": 24831,
  "locks": 11223,
  "according": 2429,
  "##ook": 14659,
  "predictions": 20932,
  "tours": 7562,
  "impetus": 27961,
  "##mmy": 18879,
  "faculty": 4513,
  "targets": 7889,
  "advancing": 10787,
  "apple": 6207,
  "winston": 10180,
  "[unused72]": 73,
  "##atter": 20097,
  "£10": 26812,
  "mankind": 14938,
  "installed": 5361,
  "blank": 8744,
  "aston": 14327,
  "grimace": 25898,
  "improper": 24156,
  "indefinitely": 20733,
  "acknowledged": 8969,
  "bypassed": 27539,
  "1726": 28342,
  "automobiles": 19207,
  "##ount": 21723,
  "stereo": 12991,
  "λ": 1165,
  "nicholls": 27043,
  "disappearing": 14489,
  "handkerchief": 23975,
  "maddox": 22730,
  "1745": 21809,
  "wheel": 5217,
  "##hm": 14227,
  "credibility": 21553,
  "##oka": 12352,
  "armory": 24139,
  "apes": 27754,
  "directorial": 21635,
  "burroughs": 25991,
  "turtle": 13170,
  "gottingen": 23607,
  "sanskrit": 11353,
  "unison": 18732,
  "commentators": 15957,
  "edo": 18314,
  "jurgen": 23171,
  "proton": 20843,
  "viz": 26619,
  "##orus": 21694,
  "singer": 3220,
  "freed": 10650,
  "questioned": 8781,
  "##oum": 24778,
  "table": 2795,
  "duties": 5704,
  "chatham": 16727,
  "##week": 28075,
  "someday": 13834,
  "hansen": 13328,
  "##nated": 23854,
  "investigators": 14766,
  "sandwiches": 22094,
  "14": 2403,
  "granville": 24926,
  "continental": 6803,
  "exactly": 3599,
  "gerry": 14926,
  "orchestras": 19505,
  "cradled": 23774,
  "wary": 15705,
  "##uno": 27819,
  "embracing": 23581,
  "##ckey": 29183,
  "bends": 23394,
  "highland": 10983,
  "rosewood": 29528,
  "##mium": 27759,
  "minimal": 10124,
  "booked": 17414,
  "tran": 25283,
  "weston": 12755,
  "collapses": 25938,
  "murderer": 13422,
  "##ngo": 16656,
  "debating": 20767,
  "##nsen": 29428,
  "sexuality": 13798,
  "engineered": 13685,
  "##hu": 6979,
  "##plane": 11751,
  "emphasized": 13155,
  "[unused340]": 345,
  "vinnie": 24214,
  "anticipating": 26481,
  "eligibility": 11395,
  "bacteria": 10327,
  "christine": 10941,
  "helicopters": 12400,
  "moderate": 8777,
  "kiran": 22403,
  "##vus": 27500,
  "scholastic": 24105,
  "dilapidated": 29283,
  "approaching": 8455,
  "guantanamo": 23094,
  "peugeot": 26385,
  "rippled": 26862,
  "gleaming": 18242,
  "abuses": 21078,
  "ordeal": 23304,
  "medallist": 28595,
  "[unused504]": 509,
  "funds": 5029,
  "mongolian": 17855,
  "gulf": 6084,
  "[unused141]": 146,
  "odd": 5976,
  "amy": 6864,
  "##osh": 17369,
  "legislative": 4884,
  "internationals": 27340,
  "clinched": 18311,
  "officer": 2961,
  "closest": 7541,
  "jam": 9389,
  "assured": 8916,
  "##ull": 18083,
  "lila": 19286,
  "##hair": 26227,
  "punk": 7196,
  "speech": 4613,
  "abilities": 7590,
  "stanza": 29509,
  "##meister": 28824,
  "activist": 7423,
  "offices": 4822,
  "吉": 1793,
  "chattanooga": 23351,
  "remedy": 19519,
  "##hiff": 25798,
  "bet": 6655,
  "insults": 23862,
  "##阝": 30496,
  "wal": 24547,
  "mentioning": 18625,
  "javelin": 23426,
  "divers": 18612,
  "horsemen": 25431,
  "##nb": 27698,
  "[unused154]": 159,
  "emil": 16243,
  "alice": 5650,
  "spire": 19823,
  "traveler": 20174,
  "lunged": 17755,
  "serene": 25388,
  "berger": 16758,
  "recess": 28290,
  "crete": 19111,
  "storm": 4040,
  "design": 2640,
  "##vina": 17948,
  "[unused238]": 243,
  "delaware": 8452,
  "##tation": 12516,
  "powerhouse": 24006,
  "waivers": 28654,
  "##lan": 5802,
  "paused": 5864,
  "bukit": 29007,
  "##rin": 6657,
  "crown": 4410,
  "dea": 26709,
  "thinkers": 24762,
  "picturesque": 23273,
  "gangster": 20067,
  "ace": 9078,
  "298": 27240,
  "contributor": 12130,
  "ion": 10163,
  "##श": 29872,
  "##dm": 22117,
  "claims": 4447,
  "rehab": 24497,
  "himalayan": 28333,
  "inverse": 19262,
  "cycling": 9670,
  "stranger": 7985,
  "treats": 18452,
  "born": 2141,
  "publicity": 11845,
  "colloquially": 23992,
  "icon": 12696,
  "aurora": 13158,
  "commodities": 21955,
  "aim": 6614,
  "grasped": 15517,
  "clarissa": 25260,
  "conqueror": 25466,
  "canoe": 14347,
  "##rton": 11715,
  "guilt": 8056,
  "169": 18582,
  "viola": 10482,
  "##ᅵ": 30019,
  "dvd": 4966,
  "inlet": 15824,
  "wrestler": 10706,
  "и": 1188,
  "severn": 24753,
  "avatar": 22128,
  "malik": 14360,
  "recapture": 27639,
  "##dgets": 28682,
  "##rong": 17583,
  "andres": 15614,
  "bus": 3902,
  "liechtenstein": 26500,
  "experiments": 7885,
  "157": 17403,
  "laid": 4201,
  "securely": 28999,
  "elm": 17709,
  "graceful": 19415,
  "tian": 23401,
  "switching": 11991,
  "##balls": 18510,
  "##hian": 14204,
  "scramble": 25740,
  "275": 17528,
  "erotic": 14253,
  "flared": 14937,
  "##graphy": 12565,
  "wildlife": 6870,
  "##ˣ": 29718,
  "jagger": 25827,
  "―": 1518,
  "flats": 14201,
  "instructed": 10290,
  "rash": 23438,
  "board": 2604,
  "convoy": 9549,
  "refurbishment": 24478,
  "##合": 30318,
  "absolutely": 7078,
  "humour": 17211,
  "alexandria": 10297,
  "routes": 5847,
  "hoisted": 27269,
  "1709": 28955,
  "jem": 24193,
  "revisited": 24354,
  "##illo": 10486,
  "cook": 5660,
  "##dit": 23194,
  "##urities": 29366,
  "manufacturing": 5814,
  "kazakhstan": 11769,
  "australians": 15739,
  "##×": 26306,
  "printer": 15041,
  "##元": 30295,
  "elevations": 18166,
  "change": 2689,
  "maple": 11035,
  "forests": 6138,
  "mackenzie": 11407,
  "##ʐ": 29702,
  "shops": 7340,
  "cartoon": 9476,
  "hallmark": 25812,
  "##chy": 11714,
  "harmless": 19741,
  "theatre": 3004,
  "years": 2086,
  "vague": 13727,
  "admissions": 20247,
  "1642": 24061,
  "knowledge": 3716,
  "intervening": 26623,
  "112": 11176,
  "guggenheim": 20402,
  "agrarian": 23226,
  "fired": 5045,
  "telecast": 28803,
  "jewels": 15565,
  "##rained": 27361,
  "disturbance": 16915,
  "discretion": 19258,
  "potsdam": 26554,
  "##iae": 19001,
  "cascade": 16690,
  "##fighter": 20027,
  "dracula": 18500,
  "latvian": 14698,
  "wall": 2813,
  "##roi": 26692,
  "sm": 15488,
  "mildly": 19499,
  "infected": 10372,
  "confesses": 22826,
  "runner": 5479,
  "##pres": 28994,
  "opportunity": 4495,
  "spike": 9997,
  "##lch": 29358,
  "exploits": 20397,
  "1883": 7257,
  "##vat": 22879,
  "##›": 30068,
  "dexter": 14375,
  "cone": 13171,
  "superior": 6020,
  "##stellar": 29028,
  "##zle": 29247,
  "##hir": 11961,
  "salesman": 18968,
  "tenth": 7891,
  "greta": 26111,
  "zombie": 11798,
  "everybody": 7955,
  "nadia": 14942,
  "bold": 7782,
  "##base": 15058,
  "nanny": 19174,
  "##hal": 8865,
  "facebook": 9130,
  "##mah": 25687,
  "##目": 30444,
  "##pathic": 25940,
  "myanmar": 12620,
  "encouragement": 15846,
  "##holm": 18884,
  "engagement": 8147,
  "limestone": 9771,
  "millennium": 10144,
  "名": 1795,
  "paws": 24392,
  "ak": 17712,
  "straps": 19702,
  "##sbury": 18065,
  "northamptonshire": 21367,
  "eurovision": 12714,
  "silky": 18848,
  "##aa": 11057,
  "purchase": 5309,
  "substitution": 20885,
  "exeter": 12869,
  "margins": 17034,
  "similarly": 6660,
  "gareth": 20243,
  "markings": 13967,
  "liege": 17766,
  "##դ": 29769,
  "lutheran": 10034,
  "douglas": 5203,
  "modeling": 11643,
  "##kia": 21128,
  "optimistic": 21931,
  "closeness": 28398,
  "captained": 16041,
  "##မ": 29973,
  "##ov": 4492,
  "pardon": 14933,
  "stadion": 20756,
  "horror": 5469,
  "##san": 8791,
  "reclaim": 24104,
  "unbeaten": 20458,
  "##mt": 20492,
  "volatile": 20606,
  "studying": 5702,
  "1765": 20797,
  "proposal": 6378,
  "destination": 7688,
  "[unused852]": 857,
  "relative": 5816,
  "advised": 9449,
  "##oration": 21223,
  "perez": 10730,
  "行": 1945,
  "merchants": 10310,
  "degree": 3014,
  "appalled": 29279,
  "prima": 21111,
  "tripped": 21129,
  "joshi": 26645,
  "##ane": 7231,
  "[unused362]": 367,
  "真": 1921,
  "ة": 1272,
  "##he": 5369,
  "##ʼ": 29712,
  "##52": 25746,
  "1841": 9840,
  "thumbs": 16784,
  "##জ": 29894,
  "lb": 6053,
  "##kowski": 15449,
  "vectors": 19019,
  "nipple": 14298,
  "historia": 19891,
  "silvia": 27827,
  "unitary": 22127,
  "##von": 17789,
  "robots": 13507,
  "alright": 10303,
  "glove": 15913,
  "pulpit": 23134,
  "mri": 27011,
  "revised": 8001,
  "fluffy": 27036,
  "leak": 17271,
  "citizens": 4480,
  "enlist": 28845,
  "ᅳ": 1481,
  "eels": 29317,
  "thirds": 12263,
  "##п": 29746,
  "eastern": 2789,
  "hem": 19610,
  "reserved": 9235,
  "france": 2605,
  "masjid": 27779,
  "packaged": 21972,
  "##walk": 17122,
  "##itt": 12474,
  "moose": 17716,
  "preserved": 6560,
  "romani": 23982,
  "speed": 3177,
  "agriculture": 5237,
  "{": 1063,
  "成": 1854,
  "aluminum": 13061,
  "drugs": 5850,
  "welsh": 6124,
  "[unused562]": 567,
  "finland": 6435,
  "composers": 9929,
  "attempting": 7161,
  "[unused182]": 187,
  "sanity": 20039,
  "altitude": 7998,
  "ne": 11265,
  "arizona": 5334,
  "worker": 7309,
  "latvia": 12429,
  "126": 14010,
  "viable": 14874,
  "breakout": 25129,
  "##ries": 5134,
  "nicholas": 6141,
  "##ard": 4232,
  "[unused70]": 71,
  "seeming": 16064,
  "townland": 23635,
  "knowles": 22815,
  "intimidation": 28973,
  "aqua": 28319,
  "searched": 9022,
  "stems": 12402,
  "173": 19410,
  "sums": 20571,
  "produces": 7137,
  "note": 3602,
  "oro": 20298,
  "##¤": 29647,
  "revelations": 22191,
  "疒": 1913,
  "khyber": 28416,
  "midst": 12930,
  "voltage": 10004,
  "##nitz": 22792,
  "doorstep": 26581,
  "greeks": 13176,
  "dunedin": 22020,
  "interpretation": 7613,
  "[unused758]": 763,
  "policy": 3343,
  "##ence": 10127,
  "[unused691]": 696,
  "dani": 19522,
  "pomerania": 18631,
  "marquess": 17391,
  "橋": 1885,
  "accuracy": 10640,
  "paradox": 20506,
  "provisions": 8910,
  "jessie": 10934,
  "cameroon": 13841,
  "giles": 13287,
  "baku": 16807,
  "##shed": 14740,
  "##aurus": 17342,
  "##lish": 13602,
  "company": 2194,
  "cubic": 11919,
  "dormitory": 21538,
  "syndication": 26973,
  "flora": 10088,
  "comfort": 7216,
  "admiring": 24588,
  "##こ": 30181,
  "##द": 29861,
  "frost": 10097,
  "##encies": 15266,
  "ax": 22260,
  "##dp": 18927,
  "[unused538]": 543,
  "wii": 16568,
  "ist": 21541,
  "titular": 12960,
  "##rst": 12096,
  "tay": 28117,
  "howard": 4922,
  "filmmaking": 24466,
  "##lined": 18194,
  "above": 2682,
  "communism": 15523,
  "##bs": 5910,
  "1760": 19096,
  "##mp": 8737,
  "puppet": 13997,
  "mascara": 27700,
  "clark": 5215,
  "[unused324]": 329,
  "##fo": 14876,
  "realised": 11323,
  "##wil": 29602,
  "relaxed": 8363,
  "326": 28188,
  "namesake": 17283,
  "rattled": 19252,
  "subsistence": 27667,
  "##llins": 26655,
  "##oven": 25592,
  "##hips": 19801,
  "margaret": 5545,
  "facility": 4322,
  "roster": 9238,
  "attacking": 7866,
  "geography": 10505,
  "trois": 25527,
  "##script": 22483,
  "wire": 7318,
  "biology": 7366,
  "tyson": 19356,
  "croatian": 7963,
  "watford": 21740,
  "roberts": 7031,
  "fingers": 3093,
  "##tao": 28555,
  "steven": 7112,
  "bowed": 11489,
  "inhibitors": 25456,
  "prolific": 12807,
  "shamrock": 28782,
  "hosts": 6184,
  "frontman": 21597,
  "paranoia": 27890,
  "annoying": 15703,
  "forgive": 9641,
  "loosened": 22456,
  "romanesque": 17135,
  "suburbs": 9435,
  "universally": 21186,
  "roles": 4395,
  "groceries": 26298,
  "hamlet": 8429,
  "dwellers": 28857,
  "effort": 3947,
  "pebbles": 28962,
  "##arded": 28037,
  "interfere": 15115,
  "gonzalez": 10121,
  "##ional": 19301,
  "experienced": 5281,
  "chrome": 18546,
  "[unused718]": 723,
  "destroyers": 13242,
  "squads": 20191,
  "lion": 7006,
  "helpful": 14044,
  "mata": 22640,
  "##nza": 16786,
  "enchanted": 22454,
  "48": 4466,
  "##tub": 28251,
  "kissed": 4782,
  "##อ": 29957,
  "generous": 12382,
  "##mer": 5017,
  "wade": 10653,
  "contiguous": 25177,
  "georgina": 27358,
  "jd": 26219,
  "federally": 20892,
  "##udged": 27066,
  "engraved": 16328,
  "##tam": 15464,
  "procedural": 24508,
  "jordan": 5207,
  "eduardo": 14846,
  "[unused280]": 285,
  "bourne": 15803,
  "##wski": 10344,
  "natalie": 10829,
  "agony": 12812,
  "##tor": 4263,
  "##rized": 18425,
  "##lwyn": 29287,
  "trent": 7990,
  "ゆ": 1683,
  "##প": 29903,
  "undercover": 16382,
  "awkwardly": 18822,
  "indirect": 14958,
  "stray": 15926,
  "shirts": 11344,
  "##武": 30415,
  "hazards": 22010,
  "##una": 9521,
  "raging": 17559,
  "##cola": 26289,
  "masses": 11678,
  "singapore": 5264,
  "##writer": 15994,
  "sheer": 11591,
  "primary": 3078,
  "aimee": 23551,
  "excited": 7568,
  "cassette": 13903,
  "ₑ": 1561,
  "##テ": 30239,
  "great": 2307,
  "initiative": 6349,
  "katz": 20729,
  "turmoil": 17930,
  "##ingdon": 29138,
  "grips": 24758,
  "undergoes": 29129,
  "everest": 23914,
  "cyrus": 16123,
  "##oli": 10893,
  "[unused498]": 503,
  "##34": 22022,
  "dolls": 14421,
  "semifinals": 8565,
  "##een": 12129,
  "@": 1030,
  "[unused826]": 831,
  "wisdom": 9866,
  "##ى": 29837,
  "satisfy": 13225,
  "tune": 8694,
  "tables": 7251,
  "eyebrows": 8407,
  "nosed": 29338,
  "ribs": 10335,
  "utilizes": 21852,
  "adjacent": 5516,
  "middleton": 17756,
  "topped": 9370,
  "squadrons": 11435,
  "##lism": 28235,
  "##gues": 22967,
  "2017": 2418,
  "duncan": 7343,
  "##coat": 16531,
  "[unused655]": 660,
  "1632": 28216,
  "sniffed": 18013,
  "weak": 5410,
  "gentry": 20262,
  "漢": 1904,
  "ernesto": 22428,
  "##kushima": 24917,
  "approve": 14300,
  ":": 1024,
  "boarded": 17383,
  "reading": 3752,
  "dart": 14957,
  "todd": 6927,
  "kenyan": 20428,
  "##ध": 29862,
  "struggled": 6915,
  "eyelashes": 25150,
  "sash": 24511,
  "validation": 27354,
  "file": 5371,
  "##nessy": 25441,
  "insulting": 23979,
  "patriots": 11579,
  "factories": 11123,
  "sunshine": 9609,
  "##51": 22203,
  "ʻ": 1145,
  "display": 4653,
  "##iva": 11444,
  "##ส": 29956,
  "spaceship": 25516,
  "pencil": 14745,
  "##rdi": 17080,
  "myers": 13854,
  "weighing": 15243,
  "coliseum": 18338,
  "enclosed": 10837,
  "complain": 17612,
  "transcribed": 26223,
  "lynne": 26938,
  "##ido": 13820,
  "[unused593]": 598,
  "tested": 7718,
  "land": 2455,
  "sainte": 16947,
  "##nar": 11802,
  "niall": 21889,
  "sociology": 11507,
  "lens": 10014,
  "##ধ": 29901,
  "reflected": 7686,
  "di": 4487,
  "[unused193]": 198,
  "भ": 1330,
  "liza": 20503,
  "[unused809]": 814,
  "mikey": 25998,
  "consular": 27326,
  "blair": 10503,
  "appreciated": 12315,
  "institution": 5145,
  "[unused867]": 872,
  "forks": 19896,
  "##劉": 30303,
  "##lved": 26832,
  "ugly": 9200,
  "revealed": 3936,
  "presses": 14616,
  "opinion": 5448,
  "begs": 27591,
  "seminal": 20603,
  "consider": 5136,
  "olsen": 18997,
  "ethiopia": 11154,
  "[unused832]": 837,
  "[unused414]": 419,
  "sf": 16420,
  "bertrand": 20586,
  "cory": 18342,
  "controlled": 4758,
  "advising": 23875,
  "potter": 10693,
  "uhf": 20131,
  "anderson": 5143,
  "algebra": 11208,
  "showers": 23442,
  "⋅": 1614,
  "##+": 29622,
  "wadi": 28380,
  "improves": 24840,
  "canadian": 3010,
  "fremont": 22550,
  "##gni": 29076,
  "##sor": 21748,
  "emir": 23434,
  "inflammatory": 20187,
  "pushes": 13956,
  "colbert": 23928,
  "histoire": 20088,
  "empathy": 26452,
  "##adi": 17190,
  "playful": 18378,
  "1989": 2960,
  "hoax": 28520,
  "##pre": 28139,
  "skimmed": 28862,
  "failing": 7989,
  "news": 2739,
  "expressing": 14026,
  "prevents": 16263,
  "dinners": 29236,
  "##oll": 14511,
  "celine": 24550,
  "contraction": 21963,
  "##oned": 17799,
  "hay": 10974,
  "1611": 28769,
  "video": 2678,
  "wnba": 25554,
  "[unused245]": 250,
  "hmm": 17012,
  "globe": 7595,
  "##男": 30438,
  "156": 16734,
  "1796": 13885,
  "wasp": 19411,
  "expressed": 5228,
  "expensive": 6450,
  "corbin": 24003,
  "swirled": 19171,
  "ɪ": 1119,
  "1661": 24046,
  "carly": 18431,
  "partly": 6576,
  "田": 1911,
  "distinctly": 19517,
  "[unused451]": 456,
  "marian": 14042,
  "conquer": 16152,
  "bombs": 9767,
  "westbound": 24717,
  "gallons": 18501,
  "[unused483]": 488,
  "107": 10550,
  "garbage": 13044,
  "boulevard": 8459,
  "illumination": 21203,
  "[unused522]": 527,
  "semantic": 21641,
  "co₂": 20190,
  "##elial": 24587,
  "skipped": 16791,
  "mosaic": 16061,
  "sacrament": 28958,
  "##ability": 8010,
  "metabolic": 21453,
  "administer": 21497,
  "hollis": 27477,
  "simulcast": 20525,
  "##ع": 29830,
  "宿": 1826,
  "medical": 2966,
  "##李": 30403,
  "locating": 26339,
  "comedic": 21699,
  "portrays": 17509,
  "##寺": 30353,
  "##nr": 16118,
  "banners": 23562,
  "disqualification": 27782,
  "##mond": 11442,
  "##ved": 7178,
  "catalina": 22326,
  "prepared": 4810,
  "incident": 5043,
  "cary": 20533,
  "##ured": 12165,
  "gathered": 5935,
  "##chel": 15721,
  "strains": 18859,
  "parapet": 27372,
  "honour": 6225,
  "[unused584]": 589,
  "warriors": 6424,
  "headlining": 26533,
  "##bic": 13592,
  "alyssa": 26442,
  "[unused933]": 938,
  "[unused368]": 373,
  "##onga": 26356,
  "thursday": 9432,
  "dwyer": 29394,
  "easing": 24070,
  "1979": 3245,
  "shrugs": 23822,
  "exploring": 11131,
  "rte": 20375,
  "iq": 26264,
  "ahmedabad": 27249,
  "1665": 27676,
  "armando": 26716,
  "chairperson": 19072,
  "blazers": 28513,
  "bomb": 5968,
  "##16": 16048,
  "critique": 16218,
  "analysts": 18288,
  "shelves": 15475,
  "##cote": 19800,
  "appoint": 16823,
  "somerville": 27209,
  "acclaim": 10761,
  "comparing": 13599,
  "部": 1960,
  "restrict": 21573,
  "mundo": 25989,
  "disliked": 18966,
  "##tai": 15444,
  "occurrences": 27247,
  "##us": 2271,
  "ο": 1169,
  "[unused237]": 242,
  "nils": 27282,
  "lodges": 26767,
  "332": 29327,
  "amount": 3815,
  "cafe": 7668,
  "ukrainian": 5969,
  "steamer": 18027,
  "##lb": 20850,
  "##iad": 28665,
  "topping": 22286,
  "elements": 3787,
  "##dington": 21504,
  "##ddle": 20338,
  "unpopular": 19657,
  "174": 19492,
  "cookie": 17387,
  "ashley": 9321,
  "pronouns": 26028,
  "director": 2472,
  "proved": 4928,
  "lace": 12922,
  "##コ": 30230,
  "pod": 17491,
  "rated": 6758,
  "##sir": 29481,
  "walkover": 17495,
  "floors": 8158,
  "que": 10861,
  "[unused617]": 622,
  "stretched": 7121,
  "[unused378]": 383,
  "dignity": 13372,
  "awarded": 3018,
  "##yala": 28617,
  "bundles": 26825,
  "blockbuster": 27858,
  "##ver": 6299,
  "nominees": 17853,
  "messed": 18358,
  "uptown": 28539,
  "sulfate": 26754,
  "suicide": 5920,
  "for": 2005,
  "[unused955]": 960,
  "ள": 1393,
  "debate": 5981,
  "##cultural": 29415,
  "canning": 24549,
  "reconciliation": 16088,
  "blazing": 17162,
  "career": 2476,
  "##eving": 23559,
  "1646": 28783,
  "blooms": 29037,
  "commits": 27791,
  "##tees": 28313,
  "blackout": 26717,
  "candy": 9485,
  "##inia": 23309,
  "##ffen": 18032,
  "functionality": 15380,
  "อ": 1421,
  "controversial": 6801,
  "##mere": 13759,
  "behalf": 6852,
  "oxfordshire": 20124,
  "##grade": 24170,
  "telecom": 18126,
  "296": 27200,
  "congressman": 12295,
  "##bler": 16213,
  "##ต": 29947,
  "hosting": 9936,
  "textbook": 16432,
  "interrupted": 7153,
  "juveniles": 25406,
  "knuckles": 13513,
  "chow": 20209,
  "##ང": 29963,
  "kara": 13173,
  "announcements": 25674,
  "dax": 27116,
  "802": 23908,
  "survive": 5788,
  "##group": 17058,
  "stadiums": 28244,
  "dusk": 18406,
  "tavern": 13090,
  "posted": 6866,
  "panel": 5997,
  "wilderness": 9917,
  "swap": 19948,
  "nobles": 13969,
  "cozy": 26931,
  "satin": 19412,
  "1919": 4529,
  "siding": 17326,
  "symptoms": 8030,
  "flinched": 19201,
  "please": 3531,
  "##部": 30486,
  "ก": 1409,
  "boer": 19945,
  "darren": 12270,
  "biologist": 21477,
  "primal": 22289,
  "अ": 1311,
  "ton": 10228,
  "##aria": 10980,
  "##bham": 25522,
  "intended": 3832,
  "##moto": 15319,
  "computed": 24806,
  "bass": 3321,
  "grounds": 5286,
  "darlington": 19667,
  "hazel": 14015,
  "climb": 7105,
  "jang": 23769,
  "whoa": 23281,
  "cohen": 9946,
  "decrease": 9885,
  "looted": 27775,
  "green": 2665,
  "manufactures": 22027,
  "marion": 10115,
  "bird": 4743,
  "##ք": 29786,
  "wheeling": 29142,
  "petit": 17268,
  "##bery": 22509,
  "cambrian": 29228,
  "sevens": 19463,
  "1st": 3083,
  "disciplinary": 17972,
  "traveled": 6158,
  "ronnie": 11688,
  "chancel": 16482,
  "astronomy": 12799,
  "filtering": 22910,
  "hostile": 10420,
  "shoot": 5607,
  "charts": 6093,
  "resultant": 28573,
  "checkpoint": 26520,
  "hiroshi": 26882,
  "##nath": 16207,
  "himalayas": 26779,
  "chaplain": 14011,
  "sakura": 23066,
  "##mute": 26746,
  "escaping": 13002,
  "tentatively": 19325,
  "bodo": 28137,
  "■": 1617,
  "unsure": 12422,
  "strengthened": 13949,
  "nonstop": 25493,
  "are": 2024,
  "apostles": 19178,
  "##eli": 20806,
  "rev": 7065,
  "migrate": 22806,
  "britannia": 24677,
  "century": 2301,
  "[unused922]": 927,
  "merton": 28169,
  "popular": 2759,
  "championship": 2528,
  "acquitted": 18538,
  "##lidae": 21595,
  "章": 1932,
  "##thor": 27844,
  "classify": 26268,
  "dinosaur": 15799,
  "##anger": 25121,
  "kimberly": 23729,
  "coded": 22402,
  "germans": 7074,
  "valerie": 14264,
  "##⟨": 30155,
  "##am": 3286,
  "1965": 3551,
  "safer": 13726,
  "sabbath": 19546,
  "ヒ": 1719,
  "##ino": 5740,
  "##breaker": 21204,
  "notable": 3862,
  "1871": 7428,
  "suburban": 9282,
  "revolves": 19223,
  "86": 6564,
  "eldest": 7310,
  "etudes": 25041,
  "downwards": 28457,
  "depression": 6245,
  "train": 3345,
  "speeds": 10898,
  "artery": 16749,
  "sincerity": 23997,
  "##ffed": 15388,
  "##omics": 25524,
  "##iko": 12676,
  "##dium": 12811,
  "styles": 6782,
  "behold": 27541,
  "pair": 3940,
  "##ⁿ": 30080,
  "co": 2522,
  "vice": 3580,
  "##eer": 11510,
  "novi": 21574,
  "motorcycle": 9055,
  "116": 12904,
  "bristol": 7067,
  "ি": 1379,
  "209": 19348,
  "##eira": 21302,
  "fabian": 21174,
  "wryly": 28325,
  "kam": 27829,
  "##ʋ": 29699,
  "dylan": 7758,
  "##愛": 30379,
  "ecuador": 10378,
  "##tet": 22513,
  "compelling": 17075,
  "##¡": 29644,
  "flinders": 29120,
  "##im": 5714,
  "linguistics": 15397,
  "emerges": 19391,
  "maverick": 27187,
  "##su": 6342,
  "##hes": 15689,
  "zoo": 9201,
  "packaging": 14793,
  "##bos": 15853,
  "fatally": 26292,
  "calling": 4214,
  "##ト": 30240,
  "whimper": 28544,
  "##宀": 30344,
  "cases": 3572,
  "[unused355]": 360,
  "gu": 19739,
  "pump": 10216,
  "bonded": 20886,
  "quarterfinal": 29380,
  "taunton": 28181,
  "50th": 12951,
  "nasser": 26099,
  "广": 1842,
  "systemic": 22575,
  "rounded": 8352,
  "kowalski": 28874,
  "intercourse": 23198,
  "residues": 22644,
  "seem": 4025,
  "1818": 12094,
  "##rona": 26788,
  "##cure": 23887,
  "##adan": 26335,
  "##por": 17822,
  "stirring": 18385,
  "manufacture": 9922,
  "[unused893]": 898,
  "##th": 2705,
  "has": 2038,
  "iconic": 14430,
  "##ᅧ": 30010,
  "##ლ": 29983,
  "gunmen": 28932,
  "1689": 22685,
  "314": 26257,
  "##dot": 27364,
  "ieee": 15368,
  "##apple": 23804,
  "relay": 8846,
  "consonants": 19694,
  "agustin": 26889,
  "##yre": 16363,
  "substrate": 16305,
  "##kei": 29501,
  "aspen": 18567,
  "##onis": 27296,
  "surrey": 9948,
  "restrain": 28467,
  "##sr": 21338,
  "batch": 14108,
  "##lore": 20186,
  "chopin": 25479,
  "cong": 26478,
  "parkway": 12602,
  "chases": 29515,
  "amenities": 19870,
  "midland": 12240,
  "din": 11586,
  "##mise": 28732,
  "tak": 27006,
  "##ze": 4371,
  "##olt": 27914,
  "puppets": 26101,
  "heron": 22914,
  "seeks": 11014,
  "paralyzed": 22348,
  "stil": 25931,
  "ensured": 16316,
  "suit": 4848,
  "member": 2266,
  "##jali": 28948,
  "ع": 1288,
  "leone": 13363,
  "pursue": 7323,
  "abuse": 6905,
  "perhaps": 3383,
  "tuba": 29242,
  "[unused12]": 13,
  "singular": 13048,
  "marshall": 5832,
  "[unused233]": 238,
  "kamal": 21911,
  "morals": 25288,
  "[unused743]": 748,
  "condition": 4650,
  "1880": 6756,
  "##ʻ": 29711,
  "axial": 26819,
  "##horpe": 22044,
  "[unused307]": 312,
  "##slow": 26338,
  "linguist": 22978,
  "delicately": 28814,
  "##bain": 29148,
  "scooted": 24289,
  "warmth": 8251,
  "forsyth": 29434,
  "summit": 6465,
  "##≤": 30135,
  "##craft": 10419,
  "process": 2832,
  "fred": 5965,
  "carthage": 21959,
  "honorary": 5756,
  "visionary": 28036,
  "disclose": 26056,
  "cubs": 12469,
  "dinosaurs": 18148,
  "128": 11899,
  "offenders": 19591,
  "neighbor": 11429,
  "monterrey": 26843,
  "derek": 7256,
  "1717": 27525,
  "nocturnal": 23789,
  "highly": 3811,
  "##rl": 12190,
  "##hire": 20908,
  "lap": 5001,
  "cigarette": 9907,
  "karlsruhe": 26660,
  "##oked": 23461,
  "tandem": 18231,
  "alexandre": 16971,
  "mobility": 12969,
  "##mos": 15530,
  "reliable": 10539,
  "slept": 7771,
  "fellows": 13572,
  "##bilities": 14680,
  "somber": 28587,
  "##რ": 29987,
  "snowy": 20981,
  "verbs": 16025,
  "##sel": 11246,
  "something": 2242,
  "civil": 2942,
  "1580": 28278,
  "tablets": 17596,
  "missionaries": 11743,
  "gambia": 26728,
  "ء": 1269,
  "##sham": 21010,
  "multiple": 3674,
  "domain": 5884,
  "minister": 2704,
  "newbury": 29457,
  "crest": 11146,
  "##ٹ": 29838,
  "installing": 23658,
  "vishnu": 17647,
  "##«": 29654,
  "planck": 26486,
  "receipts": 28258,
  "babies": 10834,
  "##avia": 15164,
  "∪": 1605,
  "firearm": 23646,
  "<": 1026,
  "simultaneous": 17424,
  "pipes": 12432,
  "岡": 1832,
  "##⇒": 30119,
  "logan": 6307,
  "turin": 13667,
  "shaky": 15311,
  "dates": 5246,
  "kramer": 16322,
  "figured": 6618,
  "##ve": 3726,
  "ध": 1326,
  "[unused259]": 264,
  "adversary": 27248,
  "equations": 11380,
  "deteriorating": 28440,
  "producing": 5155,
  "baird": 20866,
  "examining": 12843,
  "wagon": 9540,
  "spatial": 13589,
  "earth": 3011,
  "psalm": 22728,
  "##ᄒ": 30005,
  "gonzaga": 26840,
  "torches": 24711,
  "[unused768]": 773,
  "##lock": 7878,
  "almighty": 26668,
  "##平": 30365,
  "scots": 12196,
  "##oted": 27428,
  "bound": 5391,
  "##tica": 22723,
  "peters": 12420,
  "tajikistan": 23538,
  "目": 1918,
  "rendezvous": 20558,
  "seville": 18983,
  "syrian": 9042,
  "friedman": 18486,
  "620": 23612,
  "##bant": 29604,
  "dealer": 11033,
  "pumps": 15856,
  "thump": 21324,
  "##raße": 27807,
  "thumb": 7639,
  "bombings": 20109,
  "consultation": 16053,
  "##rued": 28551,
  "pissed": 9421,
  "monster": 6071,
  "substituted": 17316,
  "##sack": 25607,
  "depicting": 10775,
  "outlaws": 23107,
  "penultimate": 25512,
  "##rent": 22787,
  "lot": 2843,
  "##chase": 26300,
  "frantically": 16460,
  "[PAD]": 0,
  "vibration": 17880,
  "natal": 17489,
  "##ump": 24237,
  "1738": 28009,
  "hinduism": 19632,
  "half": 2431,
  "safe": 3647,
  "21st": 7398,
  "legion": 8009,
  "##leader": 19000,
  "mills": 6341,
  "hardcover": 20990,
  "da": 4830,
  "sympathy": 11883,
  "[unused262]": 267,
  "marlene": 26921,
  "slab": 17584,
  "aaron": 7158,
  "থ": 1363,
  "xl": 28712,
  "armament": 14410,
  "http": 8299,
  "numerical": 15973,
  "##stov": 29473,
  "dreams": 5544,
  "societies": 8384,
  "grin": 5861,
  "discarded": 15105,
  "stated": 3090,
  "lacrosse": 13488,
  "19": 2539,
  "##itative": 29293,
  "banda": 24112,
  "automobile": 9935,
  "variants": 10176,
  "division": 2407,
  "everything": 2673,
  "##valent": 24879,
  "architect": 4944,
  "##―": 30053,
  "discus": 26047,
  "expeditionary": 15372,
  "cesare": 26708,
  "councils": 10784,
  "1846": 9244,
  "bobby": 6173,
  "radioactive": 17669,
  "##ilde": 23891,
  "concert": 4164,
  "commands": 10954,
  "volunteers": 7314,
  "216": 20294,
  "estimated": 4358,
  "pdf": 11135,
  "susan": 6294,
  "pulmonary": 21908,
  "enjoyment": 20195,
  "chips": 11772,
  "entrance": 4211,
  "rio": 5673,
  "##osing": 18606,
  "¨": 1074,
  "##rica": 14735,
  "##logists": 18738,
  "best": 2190,
  "ァ": 1692,
  "##burn": 8022,
  "rhymes": 24468,
  "cyril": 16049,
  "ji": 10147,
  "[unused701]": 706,
  "buddhism": 11388,
  "め": 1680,
  "rolls": 9372,
  "enlarged": 11792,
  "site": 2609,
  "nippon": 19364,
  "administratively": 23710,
  "arms": 2608,
  "billboard": 4908,
  "authoritarian": 27246,
  "##ady": 18632,
  "maneuvers": 23802,
  "##ty": 3723,
  "##acies": 20499,
  "solidarity": 14657,
  "occupants": 18837,
  "##pse": 29251,
  "##di": 4305,
  "sibling": 22941,
  "encompassed": 24058,
  "##outh": 17167,
  "towel": 10257,
  "[unused853]": 858,
  "##nostic": 28199,
  "##dalen": 26414,
  "knox": 11994,
  "00": 4002,
  "longtime": 11155,
  "##bbon": 27684,
  "##ssel": 21218,
  "trap": 8132,
  "shrieked": 22383,
  "armagh": 24678,
  "625": 22810,
  "##puri": 24661,
  "##mir": 14503,
  "##riders": 28116,
  "focuses": 7679,
  "anatolia": 23747,
  "plump": 26731,
  "le": 3393,
  "affect": 7461,
  "##گ": 29842,
  "artworks": 22000,
  "grows": 7502,
  "sloane": 17558,
  "##ナ": 30241,
  "##all": 8095,
  "antony": 16262,
  "prose": 12388,
  "intermittent": 23852,
  "herbs": 17561,
  "fifth": 3587,
  "alligator": 28833,
  "##lier": 14355,
  "fingernails": 21243,
  "humanitarian": 11470,
  "continued": 2506,
  "provoked": 19157,
  "specific": 3563,
  "tacoma": 22954,
  "supremacy": 22006,
  "help": 2393,
  "##leaf": 19213,
  "[unused393]": 398,
  "curated": 17940,
  "trading": 6202,
  "breeds": 15910,
  "##fera": 27709,
  "distributed": 5500,
  "せ": 1659,
  "research": 2470,
  "nguyen": 16577,
  "tyrant": 26508,
  "daniel": 3817,
  "cramer": 29433,
  "stade": 15649,
  "##quel": 22197,
  "weddings": 20429,
  "generate": 9699,
  "backs": 10457,
  "whitney": 9809,
  "##cide": 27082,
  "##ded": 5732,
  "franklin": 5951,
  "impending": 17945,
  "obsession": 17418,
  "bankrupt": 17482,
  "rhys": 13919,
  "hana": 26048,
  "[unused672]": 677,
  "vowed": 18152,
  "monitors": 15410,
  "##mada": 23574,
  "##sure": 28632,
  "##ending": 18537,
  "kidnapping": 15071,
  "##ragan": 28905,
  "##文": 30387,
  "worn": 6247,
  "reprint": 25364,
  "visitation": 28877,
  "fires": 8769,
  "maccabi": 24055,
  "landfill": 28382,
  "nickel": 15519,
  "chores": 27091,
  "rectory": 24606,
  "##200": 28332,
  "admired": 12749,
  "janeiro": 11497,
  "newcomers": 24159,
  "2005": 2384,
  "##rdes": 26371,
  "councillor": 10674,
  "tie": 5495,
  "##hey": 14844,
  "##owa": 21293,
  "[unused987]": 992,
  "breaker": 24733,
  "nonfiction": 25753,
  "chaotic": 19633,
  "trial": 3979,
  "observed": 5159,
  "geneva": 9810,
  "democrats": 8037,
  "nurse": 6821,
  "##lins": 24412,
  "ƒ": 1108,
  "cradle": 18293,
  "cleansing": 26799,
  "##bedo": 28759,
  "kinase": 21903,
  "probably": 2763,
  "cope": 11997,
  "monkey": 10608,
  "##bang": 25153,
  "##kov": 7724,
  "##空": 30456,
  "billie": 18210,
  "##rasia": 27839,
  "[unused480]": 485,
  "[unused239]": 244,
  "##nosis": 27109,
  "shark": 11420,
  "needy": 23927,
  "195": 17317,
  "phosphate": 17344,
  "bridges": 7346,
  "ching": 19992,
  "democrat": 7672,
  "mothers": 10756,
  "oversized": 21698,
  "bottles": 11015,
  "segregation": 18771,
  "[unused799]": 804,
  "peter": 2848,
  "ł": 1105,
  "moe": 22078,
  "hospital": 2902,
  "kinda": 17704,
  "faso": 22773,
  "cis": 20199,
  "avon": 16131,
  "need": 2342,
  "stool": 14708,
  "drafts": 28967,
  "remorse": 23124,
  "##མ": 29968,
  "##چ": 29840,
  "[unused171]": 176,
  "281": 22955,
  "nancy": 7912,
  "##dy": 5149,
  "arcadia": 25178,
  "recovery": 7233,
  "gesture": 9218,
  "averaged": 11398,
  "br": 7987,
  "repair": 7192,
  "##minated": 26972,
  "sinking": 10186,
  "bully": 20716,
  "groundwater": 22761,
  "wrists": 12150,
  "##sily": 26863,
  "fix": 8081,
  "ball": 3608,
  "rodriguez": 9172,
  "lineup": 10515,
  "newport": 9464,
  "highlighted": 11548,
  "starring": 4626,
  "glass": 3221,
  "##etti": 18319,
  "288": 24841,
  "shortages": 22623,
  "competition": 2971,
  "saxony": 13019,
  "mute": 20101,
  "##⅔": 30110,
  "##₈": 30084,
  "anarchist": 18448,
  "allegiance": 14588,
  "defeats": 14222,
  "ab": 11113,
  "volga": 26459,
  "ceremony": 5103,
  "buy": 4965,
  "statements": 8635,
  "optical": 9380,
  "renovations": 15576,
  "nixon": 11296,
  "kathleen": 14559,
  "netball": 25034,
  "caribbean": 7139,
  "incarcerated": 23995,
  "rand": 14566,
  "奈": 1814,
  "neck": 3300,
  "##isches": 27239,
  "shrub": 15751,
  "##neer": 19755,
  "##有": 30399,
  "lacey": 16355,
  "singles": 3895,
  "##ym": 24335,
  "hilly": 22800,
  "ascended": 19644,
  "spear": 12341,
  "dangling": 18737,
  "compute": 24134,
  "hesse": 16399,
  "ceded": 19705,
  "asserting": 27644,
  "accessed": 11570,
  "quebec": 5447,
  "garcia": 7439,
  "policing": 21107,
  "wells": 7051,
  "achieve": 6162,
  "foraging": 26912,
  "deleted": 17159,
  "stammered": 28532,
  "##lind": 27164,
  "wholesale": 17264,
  "pic": 27263,
  "gt": 14181,
  "##三": 30267,
  "boy": 2879,
  "tunic": 23002,
  "ي": 1300,
  "shrines": 22562,
  "posse": 25751,
  "englishman": 25244,
  "hilt": 21184,
  "sonny": 13584,
  "insertion": 23851,
  "rituals": 13549,
  "[unused825]": 830,
  "sickness": 15556,
  "spence": 22186,
  "##八": 30297,
  "yao": 23711,
  "exception": 6453,
  "spent": 2985,
  "decker": 20946,
  "copyright": 9385,
  "##mian": 20924,
  "adopted": 4233,
  "afi": 28697,
  "flanking": 24958,
  "##x": 2595,
  "##ζ": 29724,
  "##cks": 10603,
  "compliment": 19394,
  "##ₖ": 30094,
  "patterns": 7060,
  "facilitate": 10956,
  "transports": 19003,
  "chapels": 24130,
  "ascribed": 28025,
  "structured": 14336,
  "luke": 5355,
  "hoffmann": 24437,
  "monsters": 9219,
  "milton": 9660,
  "willie": 9893,
  "nano": 28991,
  "[unused354]": 359,
  "##bbly": 24200,
  "matches": 3503,
  "wilkins": 22745,
  "mediated": 19872,
  "diego": 5277,
  "spearheaded": 27721,
  "vaults": 28658,
  "##イ": 30221,
  "objective": 7863,
  "##usion": 14499,
  "apparel": 26278,
  "##yes": 23147,
  "life": 2166,
  "ryder": 11731,
  "orphans": 21478,
  "blanc": 18698,
  "caught": 3236,
  "musee": 18070,
  "miranda": 9392,
  "butler": 7055,
  "1879": 7449,
  "wings": 4777,
  "beale": 28371,
  "joining": 5241,
  "dunbar": 23034,
  "140": 8574,
  "##pf": 14376,
  "##vocation": 19152,
  "preschool": 23655,
  "##rts": 21217,
  "[unused625]": 630,
  "trim": 12241,
  "avoided": 9511,
  "##ulator": 20350,
  "##marine": 21966,
  "##kali": 28613,
  "a2": 22441,
  "shear": 18330,
  "rats": 11432,
  "feeder": 21429,
  "[unused842]": 847,
  "།": 1425,
  "edmonton": 10522,
  "generations": 8213,
  "allowing": 4352,
  "brewer": 18710,
  "louvre": 25110,
  "##stor": 23809,
  "stare": 6237,
  "##koff": 26126,
  "nodded": 3368,
  "##原": 30313,
  "nero": 19212,
  "tennessee": 5298,
  "crosses": 7821,
  "andre": 7213,
  "imperative": 23934,
  "compressed": 16620,
  "186": 19609,
  "parliament": 3323,
  "##tec": 26557,
  "[unused982]": 987,
  "kimball": 26659,
  "myles": 27056,
  "##分": 30301,
  "1820s": 28504,
  "##）": 30514,
  "boredom": 29556,
  "traders": 13066,
  "not": 2025,
  "battles": 7465,
  "1800s": 19878,
  "serves": 4240,
  "shielding": 25553,
  "gains": 12154,
  "sacred": 6730,
  "induced": 10572,
  "fails": 11896,
  "prescription": 20422,
  "inventor": 12235,
  "##ಾ": 29938,
  "darted": 14051,
  "stevenson": 13636,
  "sp": 11867,
  "bend": 8815,
  "spa": 12403,
  "##ises": 13087,
  "sporadic": 24590,
  "willed": 22705,
  "join": 3693,
  "kurdistan": 23627,
  "morse": 17107,
  "suspect": 8343,
  "mistakenly": 20706,
  "フ": 1720,
  "load": 7170,
  "##lana": 16695,
  "##ando": 28574,
  "julie": 7628,
  "##90": 21057,
  "arc": 8115,
  "##ods": 20620,
  "qualifications": 15644,
  "spying": 22624,
  "attachment": 14449,
  "basha": 26074,
  "cot": 26046,
  "tab": 21628,
  "nightmares": 15446,
  "##mming": 25057,
  "bolivar": 22118,
  "clad": 13681,
  "congratulations": 23156,
  "crusade": 16282,
  "arranging": 19018,
  "insignia": 16751,
  "unionist": 17104,
  "cummings": 20750,
  "##ailing": 29544,
  "mughal": 17877,
  "hawke": 24882,
  "neo": 9253,
  "cornice": 27848,
  "##ify": 8757,
  "walden": 24834,
  "ₛ": 1570,
  "chorus": 7165,
  "favourites": 28271,
  "##tained": 28055,
  "merrill": 16239,
  "hundreds": 5606,
  "moan": 13673,
  "##lino": 25226,
  "pry": 29198,
  "tracked": 12808,
  "hangul": 19051,
  "holders": 13304,
  "speaker": 5882,
  "derivation": 29280,
  "1626": 28818,
  "歌": 1886,
  "belly": 7579,
  "diverted": 18356,
  "careless": 23358,
  "##uk": 6968,
  "croix": 18733,
  "largely": 4321,
  "afrikaans": 28673,
  "1978": 3301,
  "greet": 17021,
  "xv": 15566,
  "malone": 16321,
  "##事": 30277,
  "emery": 24294,
  "##dion": 29573,
  "stain": 21101,
  "##ult": 11314,
  "##avi": 18891,
  "landon": 20642,
  "unwilling": 15175,
  "direct": 3622,
  "hudson": 6842,
  "##41": 23632,
  "puerto": 5984,
  "sheltered": 18304,
  "kennedy": 5817,
  "tenure": 7470,
  "palma": 23985,
  "mating": 15100,
  "banjo": 16698,
  "be": 2022,
  "trojan": 23445,
  "contemporaries": 16682,
  "2007": 2289,
  "nothing": 2498,
  "13th": 6122,
  "1780": 15051,
  "2d": 14134,
  "ray": 4097,
  "aide": 14895,
  "bewildered": 24683,
  "cellular": 12562,
  "solve": 9611,
  "refused": 4188,
  "##sur": 26210,
  "pawn": 19175,
  "fra": 25312,
  "amendments": 16051,
  "士": 1807,
  "shift": 5670,
  "kwan": 27741,
  "waterford": 17769,
  "gordon": 5146,
  "labels": 10873,
  "radcliffe": 22603,
  "disc": 5860,
  "isles": 14195,
  "##atory": 14049,
  "##orno": 26295,
  "##dh": 16425,
  "poised": 22303,
  "sedimentary": 25503,
  "destroying": 9846,
  "reminder": 14764,
  "##rret": 27032,
  "マ": 1723,
  "consumer": 7325,
  "##∨": 30130,
  "mhz": 11413,
  "lonely": 9479,
  "trident": 26515,
  "hereditary": 14800,
  "##yse": 23274,
  "previous": 3025,
  "projecting": 18398,
  "garage": 7381,
  "analog": 11698,
  "prostate": 25086,
  "delaying": 29391,
  "theatres": 13166,
  "lobe": 21833,
  "tender": 8616,
  "shield": 6099,
  "ᄂ": 1456,
  "persuaded": 11766,
  "##folding": 21508,
  "[unused511]": 516,
  "₄": 1551,
  "##biotic": 26591,
  "##growth": 26982,
  "raft": 21298,
  "perceptions": 23271,
  "tang": 9745,
  "lets": 11082,
  "abolished": 8961,
  "pulsed": 24107,
  "portals": 27388,
  "##吉": 30319,
  "265": 20549,
  "##tag": 15900,
  "##org": 21759,
  "talking": 3331,
  "1880s": 12751,
  "##ホ": 30248,
  "joey": 9558,
  "marlon": 25861,
  "involvement": 6624,
  "whatsoever": 18971,
  "commodity": 19502,
  "judgement": 16646,
  "##う": 30174,
  "[unused793]": 798,
  "punt": 18975,
  "program": 2565,
  "##ette": 7585,
  "greed": 22040,
  "ひ": 1673,
  "domingo": 15586,
  "##hood": 9021,
  "suzy": 28722,
  "sienna": 20210,
  "attain": 18759,
  "##ncies": 14767,
  "competed": 3879,
  "1888": 6690,
  "hungarian": 5588,
  "biking": 28899,
  "hopeless": 20625,
  "codes": 9537,
  "illustrations": 11249,
  "benin": 21164,
  "##eb": 15878,
  "zaragoza": 25744,
  "tier": 7563,
  "reproductive": 15124,
  "pasture": 20787,
  "[unused932]": 937,
  "establishing": 7411,
  "importance": 5197,
  "glint": 25263,
  "175": 12862,
  "##ม": 29951,
  "##aj": 13006,
  "sabrina": 21876,
  "##wang": 16600,
  "queen": 3035,
  "##sol": 19454,
  "##郎": 30484,
  "females": 3801,
  "auto": 8285,
  "##raphic": 20721,
  "reprinted": 13603,
  "hairy": 15892,
  "javier": 13824,
  "##lita": 27606,
  "curran": 19649,
  "##rsa": 22381,
  "regular": 3180,
  "##ination": 12758,
  "berry": 10498,
  "nominee": 9773,
  "care": 2729,
  "becca": 22140,
  "cornerback": 26857,
  "occupational": 16928,
  "subfamily": 10946,
  "##∇": 30123,
  "deposit": 12816,
  "ramsay": 19460,
  "floods": 14295,
  "astronomer": 15211,
  "##gative": 26792,
  "freeman": 11462,
  "rhyme": 20622,
  "technical": 4087,
  "julius": 10396,
  "reiterated": 28960,
  "chance": 3382,
  "##28": 22407,
  "confronting": 26964,
  "faster": 5514,
  "malley": 25271,
  "##ノ": 30243,
  "佐": 1764,
  "trials": 7012,
  "medicare": 27615,
  "##founded": 21001,
  "[unused740]": 745,
  "##patient": 24343,
  "aryan": 26030,
  "pass": 3413,
  "##using": 18161,
  "spoken": 5287,
  "##jing": 29518,
  "exams": 13869,
  "phosphorus": 25473,
  "##fort": 13028,
  "##cated": 12921,
  "democracy": 7072,
  "##roving": 22046,
  "##nese": 14183,
  "protests": 8090,
  "benny": 11945,
  "benefited": 19727,
  "zack": 13658,
  "ranch": 8086,
  "##hol": 14854,
  "grandchildren": 13628,
  "reproduce": 21376,
  "fire": 2543,
  "##iver": 16402,
  "borg": 28709,
  "philanthropist": 15246,
  "arrives": 8480,
  "giro": 19226,
  "х": 1200,
  "frowns": 29303,
  "nak": 17823,
  "nuclei": 23767,
  "##om": 5358,
  "randolph": 13031,
  "economist": 11708,
  "premier": 4239,
  "##neil": 27276,
  "melinda": 23721,
  "martha": 9246,
  "sui": 24086,
  "1811": 13086,
  "midday": 22878,
  "##oman": 20778,
  "pistons": 24399,
  "marina": 9985,
  "vehicle": 4316,
  "enhanced": 9412,
  "##ught": 18533,
  "¼": 1091,
  "qur": 23183,
  "[unused671]": 676,
  "##urgent": 27176,
  "programmers": 28547,
  "ireland": 3163,
  "subunit": 24312,
  "jeffrey": 10799,
  "316": 23980,
  "marks": 6017,
  "becky": 14407,
  "relevance": 21923,
  "pg": 18720,
  "##ome": 8462,
  "##nare": 26148,
  "collapsing": 22724,
  "streaked": 21276,
  "##lett": 20897,
  "##rnier": 28484,
  "completes": 28123,
  "sexy": 7916,
  "##rite": 17625,
  "giggle": 17565,
  "[unused821]": 826,
  "dry": 4318,
  "worms": 16253,
  "rankings": 10385,
  "##ன": 29923,
  "packard": 24100,
  "hindu": 7560,
  "swan": 10677,
  "technique": 6028,
  "tones": 12623,
  "tobacco": 9098,
  "c": 1039,
  "interact": 11835,
  "tractors": 28292,
  "rations": 29559,
  "け": 1654,
  "vp": 21210,
  "allan": 8926,
  "bremen": 16314,
  "##6": 2575,
  "83": 6640,
  "assam": 15181,
  "##ft": 6199,
  "##rol": 13153,
  "awaited": 19605,
  "wealth": 7177,
  "formulation": 20219,
  "192": 17613,
  "southland": 29121,
  "gypsy": 16006,
  "curves": 10543,
  "dispute": 7593,
  "luminous": 25567,
  "mukherjee": 27040,
  "other": 2060,
  "1804": 13140,
  "calgary": 10112,
  "##神": 30451,
  "powerful": 3928,
  "physicist": 13702,
  "ambush": 15283,
  "honda": 11990,
  "virtually": 8990,
  "western": 2530,
  "[unused705]": 710,
  "confidence": 7023,
  "##lle": 6216,
  "jill": 10454,
  "discovers": 9418,
  "ad": 4748,
  "yukon": 19898,
  "##schen": 23796,
  "countered": 17970,
  "[unused65]": 66,
  "glided": 26936,
  "glued": 22805,
  "responded": 5838,
  "##sions": 27466,
  "directs": 23303,
  "##lizer": 28863,
  "##dom": 9527,
  "1610": 25800,
  "##tique": 28437,
  "[unused760]": 765,
  "##ouring": 27897,
  "modify": 19933,
  "##ene": 8625,
  "gabled": 26182,
  "antiquities": 21387,
  "nut": 17490,
  "diner": 15736,
  "upcoming": 9046,
  "gorman": 25693,
  "think": 2228,
  "##and": 5685,
  "##h": 2232,
  "##uga": 16377,
  "majesty": 9995,
  "229": 22777,
  "wears": 11651,
  "scrambling": 25240,
  "unless": 4983,
  "fungi": 15289,
  "attends": 23933,
  "mocking": 19545,
  "##ungen": 23239,
  "##aud": 19513,
  "主": 1747,
  "fossils": 11954,
  "poking": 21603,
  "##zhou": 9791,
  "murdering": 21054,
  "physics": 5584,
  "excused": 28512,
  "##ellant": 24178,
  "taken": 2579,
  "ascension": 18071,
  "ms": 5796,
  "anchors": 24674,
  "referred": 3615,
  "prominently": 14500,
  "sunlight": 9325,
  "seasonal": 12348,
  "establish": 5323,
  "spirit": 4382,
  "dances": 11278,
  "[unused170]": 175,
  "regarding": 4953,
  "kazakh": 25907,
  "restored": 5854,
  "mojo": 28017,
  "shuffle": 23046,
  "1954": 4051,
  "recordings": 5633,
  "##cula": 19879,
  "cylindrical": 18797,
  "posthumously": 12770,
  "embroidery": 29507,
  "se": 7367,
  "bumped": 19030,
  "confrontation": 13111,
  "##oto": 11439,
  "rooney": 24246,
  "sweeps": 26981,
  "/": 1013,
  "oxidation": 19577,
  "hunan": 27374,
  "uh": 7910,
  "ruins": 8435,
  "success": 3112,
  "washed": 8871,
  "##ろ": 30215,
  "astor": 25159,
  "##ィ": 30220,
  "[unused306]": 311,
  "##н": 18947,
  "interceptor": 24727,
  "parsons": 13505,
  "gray": 3897,
  "paintings": 5265,
  "mcgrath": 23220,
  "zheng": 20985,
  "reappeared": 23040,
  "corey": 18132,
  "dissatisfaction": 28237,
  "##inas": 15227,
  "日": 1864,
  "riaa": 22716,
  "##nat": 19833,
  "diane": 12082,
  "hot": 2980,
  "protesting": 21248,
  "##ype": 18863,
  "alliances": 21277,
  "##hh": 23644,
  "[unused124]": 129,
  "oblique": 20658,
  "courtney": 14139,
  "##>": 29631,
  "boiler": 15635,
  "silas": 18553,
  "##landa": 24448,
  "colleagues": 8628,
  "chick": 14556,
  "vocals": 2955,
  "journey": 4990,
  "fond": 13545,
  "yours": 6737,
  "with": 2007,
  "giacomo": 22873,
  "spaces": 7258,
  "yep": 15624,
  "zoology": 22405,
  "1672": 27253,
  "##pole": 15049,
  "##tina": 13770,
  "incredible": 9788,
  "##zawa": 19708,
  "##tered": 14050,
  "341": 28358,
  "##isk": 20573,
  "polly": 17543,
  "##cheng": 21043,
  "altered": 8776,
  "ranks": 6938,
  "peers": 12746,
  "ག": 1426,
  "builders": 16472,
  "masks": 15806,
  "mai": 14736,
  "subsidiary": 7506,
  "reminded": 6966,
  "representation": 6630,
  "finite": 10713,
  "[unused54]": 55,
  "sims": 18135,
  "##eron": 26534,
  "chilly": 24222,
  "glow": 8652,
  "##gr": 16523,
  "hanged": 17818,
  "annexed": 13291,
  "gibson": 9406,
  "chevrolet": 14724,
  "bavarian": 15097,
  "ramp": 13276,
  "governments": 6867,
  "##cki": 18009,
  "sharpened": 26694,
  "planetary": 17700,
  "##lad": 27266,
  "choirs": 24743,
  "allegheny": 21192,
  "[unused956]": 961,
  "て": 1665,
  "pasha": 14292,
  "lil": 13451,
  "##⁻": 30079,
  "publicized": 24928,
  "layla": 19786,
  "bartholomew": 19866,
  "lyrical": 16376,
  "春": 1867,
  "hips": 6700,
  "canon": 9330,
  "says": 2758,
  "devastation": 25594,
  "1712": 28460,
  "darwin": 11534,
  "##章": 30458,
  "congregational": 20809,
  "adult": 4639,
  "40th": 16541,
  "neville": 14871,
  "catalan": 13973,
  "purposes": 5682,
  "##⊕": 30139,
  "papacy": 25097,
  "slender": 10944,
  "authentication": 27280,
  "represents": 5836,
  "breathless": 16701,
  "tung": 27079,
  "hearing": 4994,
  "[unused909]": 914,
  "vaccines": 28896,
  "egypt": 5279,
  "hormone": 18714,
  "北": 1781,
  "waist": 5808,
  "synthesizers": 22211,
  "90s": 17233,
  "dynasties": 23014,
  "chunks": 24839,
  "carry": 4287,
  "opined": 26084,
  "##lite": 22779,
  "##ctable": 23576,
  "composer": 4543,
  "accents": 24947,
  "vegas": 7136,
  "exchange": 3863,
  "[unused795]": 800,
  "gram": 13250,
  "casualty": 19844,
  "cia": 9915,
  "technological": 10660,
  "[unused189]": 194,
  "carter": 5708,
  "mauritius": 18004,
  "callahan": 25668,
  "devised": 14917,
  "simultaneously": 7453,
  "[unused885]": 890,
  "##ham": 3511,
  "leopard": 16240,
  "##uit": 14663,
  "##uin": 20023,
  "bridget": 19218,
  "claw": 15020,
  "hardy": 9532,
  "practical": 6742,
  "tomorrow": 4826,
  "hugging": 17662,
  "##vet": 19510,
  "##arts": 20591,
  "##ammed": 27479,
  "forrest": 16319,
  "lined": 7732,
  "tod": 28681,
  "glistening": 25203,
  "##marks": 27373,
  "fought": 4061,
  "##ण": 29858,
  "vodka": 21092,
  "##in": 2378,
  "notified": 19488,
  "exceeding": 17003,
  "plastic": 6081,
  "notice": 5060,
  "[unused649]": 654,
  "−": 1597,
  "initiated": 7531,
  "troubles": 13460,
  "##straße": 24967,
  "brightest": 26849,
  "amman": 25703,
  "2008": 2263,
  "flags": 9245,
  "vip": 21722,
  "individual": 3265,
  "##ssar": 25556,
  "influential": 6383,
  "थ": 1324,
  "proto": 15053,
  "suarez": 22551,
  "vary": 8137,
  "isabella": 10323,
  "dragoons": 28069,
  "##rani": 21578,
  "gazes": 23514,
  "##dust": 24220,
  "gambling": 12219,
  "section": 2930,
  "backup": 10200,
  "##rod": 14127,
  "suspend": 28324,
  "implementation": 7375,
  "behavioral": 14260,
  "engined": 21235,
  "adherence": 29235,
  "132": 14078,
  "anhalt": 27088,
  "collector": 10018,
  "ser": 14262,
  "straightened": 11168,
  "purported": 27023,
  "phillips": 8109,
  "sage": 10878,
  "scorer": 10835,
  "grandparents": 14472,
  "guillermo": 21070,
  "barker": 12852,
  "tuned": 15757,
  "doubtful": 21888,
  "ark": 15745,
  "believe": 2903,
  "trainers": 21992,
  "dewey": 20309,
  "appeal": 5574,
  "dean": 4670,
  "compliant": 24577,
  "liszt": 26273,
  "classification": 5579,
  "υ": 1175,
  "unstable": 14480,
  "sava": 28350,
  "waived": 16301,
  "hush": 20261,
  "remade": 26943,
  "commission": 3222,
  "industries": 6088,
  "premature": 21371,
  "classified": 6219,
  "wished": 6257,
  "rufus": 18316,
  "redesigned": 17051,
  "archdeacon": 21742,
  "griffith": 14135,
  "calming": 23674,
  "##matic": 12644,
  "##phs": 18757,
  "infections": 15245,
  "actions": 4506,
  "[unused988]": 993,
  "##rk": 8024,
  "ς": 1172,
  "discoveries": 15636,
  "spines": 20352,
  "kellogg": 26129,
  "learnt": 20215,
  "##quist": 18331,
  "stacks": 20829,
  "imitation": 20017,
  "zodiac": 28501,
  "vulgar": 29364,
  "usable": 24013,
  "##pher": 27921,
  "ferreira": 26135,
  "nikita": 29106,
  "dem": 17183,
  "[unused127]": 132,
  "rios": 25836,
  "##onzo": 29452,
  "##berman": 23991,
  "kangaroo": 21652,
  "ტ": 1453,
  "##後": 30372,
  "grenada": 29153,
  "novelist": 9974,
  "xbox": 12202,
  "flees": 24776,
  "easier": 6082,
  "herald": 9536,
  "##iation": 18963,
  "atop": 10234,
  "compression": 13379,
  "1741": 25280,
  "ג": 1243,
  "iucn": 20333,
  "[unused332]": 337,
  "publishers": 8544,
  "retro": 22307,
  "falkland": 25257,
  "guyana": 18786,
  "ibrahim": 13477,
  "bologna": 14102,
  "republished": 24476,
  "##ining": 24002,
  "passive": 13135,
  "reasonable": 9608,
  "##40": 12740,
  "##*": 29621,
  "ta": 11937,
  "16th": 5767,
  "##rdon": 28176,
  "manifestation": 24491,
  "[unused411]": 416,
  "lineage": 13321,
  "rusty": 13174,
  "##lson": 14881,
  "sweet": 4086,
  "led": 2419,
  "##uating": 24133,
  "quantity": 11712,
  "farming": 7876,
  "percy": 11312,
  "ch": 10381,
  "dd": 20315,
  "scoop": 23348,
  "inhibit": 26402,
  "##missible": 26770,
  "waited": 4741,
  "agent": 4005,
  "realization": 12393,
  "sheng": 25981,
  "deny": 9772,
  "[unused812]": 817,
  "phd": 8065,
  "imperial": 4461,
  "jed": 24401,
  "bedrock": 28272,
  "ivy": 7768,
  "rained": 28270,
  "webster": 11635,
  "characteristics": 6459,
  "participant": 13180,
  "silver": 3165,
  "##off": 7245,
  "elliot": 11759,
  "arabs": 14560,
  "install": 16500,
  "cpu": 17368,
  "columbus": 8912,
  "magnetic": 8060,
  "regal": 21279,
  "##uss": 17854,
  "##hone": 27406,
  "##iger": 17071,
  "slapped": 11159,
  "mentioned": 3855,
  "shrubs": 18812,
  "vaughn": 18220,
  "facial": 13268,
  "biomedical": 20906,
  "##rane": 18053,
  "climbed": 6589,
  "##iah": 12215,
  "cheating": 16789,
  "rourke": 24400,
  "##ª": 29653,
  "claus": 19118,
  "chemicals": 12141,
  "blanche": 18158,
  "disturbing": 14888,
  "khan": 4967,
  "documented": 8832,
  "##bby": 14075,
  "##rma": 17830,
  "exercises": 11110,
  "tipping": 25486,
  "boost": 12992,
  "##糹": 30460,
  "twist": 9792,
  "1": 1015,
  "statutory": 15201,
  "businessman": 6883,
  "finances": 16156,
  "carol": 8594,
  "welterweight": 20882,
  "cup": 2452,
  "##hampton": 21946,
  "mclaren": 18590,
  "也": 1750,
  "cartoonist": 19659,
  "transmission": 6726,
  "kits": 18628,
  "##jure": 25243,
  "widened": 8723,
  "aus": 17151,
  "50": 2753,
  "turn": 2735,
  "vito": 25550,
  "graded": 21976,
  "##ivating": 17441,
  "incline": 27461,
  "bestseller": 24304,
  "bisexual": 22437,
  "##chuk": 26516,
  "apology": 12480,
  "islands": 3470,
  "aired": 4836,
  "husband": 3129,
  "snoop": 29044,
  "filmfare": 25648,
  "##fen": 18940,
  "odin": 26195,
  "cruel": 10311,
  "[unused534]": 539,
  "connacht": 27062,
  "starr": 14330,
  "slow": 4030,
  "electrification": 23679,
  "alpine": 10348,
  "taylor": 4202,
  "hidalgo": 24715,
  "ի": 1225,
  "edges": 7926,
  "antenna": 13438,
  "beaux": 20290,
  "atoms": 13353,
  "cheyenne": 17778,
  "mercenary": 22146,
  "##ξ": 29729,
  "peacekeeping": 28364,
  "challenge": 4119,
  "234": 22018,
  "德": 1848,
  "companion": 7452,
  "##year": 29100,
  "participants": 6818,
  "resulting": 4525,
  "nfc": 22309,
  "##eet": 15558,
  "muzzle": 17750,
  "##stream": 21422,
  "##urbed": 29595,
  "##ɪ": 29685,
  "##ko": 3683,
  "isolation": 12477,
  "##zation": 9276,
  "precedent": 20056,
  "##হ": 29913,
  "explicit": 13216,
  "ethan": 6066,
  "ʾ": 1147,
  "screened": 12238,
  "embryo": 28086,
  "##手": 30384,
  "##hma": 22444,
  "weimar": 20695,
  "panties": 12095,
  "##−1": 27944,
  "wreckage": 21056,
  "am": 2572,
  "lucia": 12337,
  "##vera": 26061,
  "hamilton": 5226,
  "every": 2296,
  "gundam": 26152,
  "##bo": 5092,
  "[unused715]": 720,
  "long": 2146,
  "writers": 4898,
  "crafts": 14030,
  "[unused578]": 583,
  "constraint": 27142,
  "redevelopment": 15582,
  "guards": 4932,
  "ष": 1337,
  "##bund": 27265,
  "mussolini": 22554,
  "comfortable": 6625,
  "diplomat": 11125,
  "bottoms": 24196,
  "lava": 13697,
  "##one": 5643,
  "gently": 5251,
  "pigeon": 16516,
  "internationally": 7587,
  "##み": 30204,
  "utility": 9710,
  "peasant": 14539,
  "characterized": 7356,
  "craft": 7477,
  "initiating": 26616,
  "distorted": 19112,
  "##lag": 17802,
  "clock": 5119,
  "hanging": 5689,
  "pornographic": 26932,
  "gunshot": 22077,
  "spinal": 16492,
  "jordanian": 26276,
  "hastings": 12296,
  "[unused801]": 806,
  "point": 2391,
  "informant": 28694,
  "v": 1058,
  "manipulating": 26242,
  "petersburg": 8062,
  "clashed": 22600,
  "##oom": 17650,
  "spectator": 21027,
  "##ano": 6761,
  "fastest": 7915,
  "seconds": 3823,
  "christie": 13144,
  "v8": 15754,
  "##sum": 17421,
  "renaissance": 8028,
  "ripping": 17039,
  "mouths": 15076,
  "wiley": 18825,
  "##bl": 16558,
  "generates": 19421,
  "khalid": 21828,
  "conserve": 27749,
  "##buch": 25987,
  "swimmer": 13361,
  "sighting": 29426,
  "newfound": 27608,
  "##vel": 15985,
  "toppled": 27251,
  "camden": 13267,
  "roanoke": 25899,
  "ə": 1114,
  "forewings": 13211,
  "ₙ": 1568,
  "liga": 8018,
  "upton": 26900,
  "raided": 18784,
  "inflicted": 17303,
  "spruce": 19893,
  "[unused98]": 99,
  "sweating": 18972,
  "montpellier": 28153,
  "sniff": 27907,
  "embrace": 9979,
  "vanishing": 24866,
  "debra": 28762,
  "##つ": 30190,
  "tallest": 13747,
  "conscience": 13454,
  "register": 4236,
  "demon": 5698,
  "capital": 3007,
  "269": 25717,
  "twice": 3807,
  "wwe": 11700,
  "milk": 6501,
  "犬": 1908,
  "virgin": 6261,
  "clerical": 23106,
  "castro": 11794,
  "421": 29403,
  "crore": 21665,
  "bubbling": 25054,
  "interventions": 19388,
  "daemon": 12828,
  "databases": 17881,
  "intermediate": 7783,
  "released": 2207,
  "[unused144]": 149,
  "##tering": 17989,
  "##rar": 19848,
  "stroke": 6909,
  "staring": 4582,
  "lily": 7094,
  "langley": 19094,
  "ᵀ": 1495,
  "electronically": 28926,
  "##ipes": 28108,
  "shafts": 20542,
  "##თ": 29980,
  "##xa": 18684,
  "##vent": 15338,
  "guarantee": 11302,
  "overseeing": 19642,
  "forward": 2830,
  "##venting": 26703,
  "defended": 8047,
  "arrive": 7180,
  "##amps": 25167,
  "284": 26871,
  "til": 18681,
  "shale": 18488,
  "chiefs": 9058,
  "installations": 14111,
  "overlap": 17702,
  "jiang": 20613,
  "patrons": 13497,
  "factory": 4713,
  "etched": 20286,
  "shifts": 12363,
  "probe": 15113,
  "##ி": 29932,
  "accomplish": 14570,
  "iec": 24940,
  "elijah": 14063,
  "##ages": 13923,
  "wasted": 13842,
  "##tish": 24788,
  "erin": 11781,
  "threatening": 8701,
  "shutting": 17521,
  "seems": 3849,
  "ways": 3971,
  "##active": 19620,
  "really": 2428,
  "1840": 8905,
  "preoccupied": 23962,
  "announces": 17472,
  "305": 20405,
  "##hy": 10536,
  "actual": 5025,
  "vane": 23334,
  "plans": 3488,
  "amateurs": 24361,
  "miami": 5631,
  "dropping": 7510,
  "transparent": 13338,
  "##bilis": 27965,
  "eastenders": 28936,
  "valiant": 24329,
  "exposing": 14944,
  "fundamental": 8050,
  "##bility": 8553,
  "dennis": 6877,
  "##lin": 4115,
  "uzbekistan": 17065,
  "engaging": 11973,
  "##rom": 21716,
  "ך": 1251,
  "emily": 6253,
  "」": 1642,
  "ap": 9706,
  "maldives": 25059,
  "musa": 23154,
  "##oke": 11045,
  "favored": 12287,
  "monsoon": 19183,
  "whitman": 21311,
  "fours": 23817,
  "[unused360]": 365,
  "clear": 3154,
  "]": 1033,
  "athlete": 8258,
  "rumors": 11256,
  "nora": 12306,
  "chinese": 2822,
  "courier": 18092,
  "pleading": 16418,
  "northern": 2642,
  "##plate": 15725,
  "##ooped": 20671,
  "erosion": 14173,
  "bankruptcy": 10528,
  "##master": 8706,
  "precipitation": 13511,
  "##pie": 14756,
  "player": 2447,
  "end": 2203,
  "updates": 14409,
  "okinawa": 15052,
  "dust": 6497,
  "？": 1994,
  "##relli": 22948,
  "sailors": 11279,
  "##ᶜ": 30046,
  "lucknow": 23571,
  "alaska": 7397,
  "cured": 21391,
  "##guard": 18405,
  "[unused824]": 829,
  "##rini": 22612,
  "##weed": 18041,
  "watered": 27129,
  "here": 2182,
  "##ines": 10586,
  "seventh": 5066,
  "blackish": 22032,
  "##♦": 30153,
  "£100": 27708,
  "filtered": 21839,
  "creatures": 7329,
  "##uta": 13210,
  "arun": 28217,
  "##placed": 22829,
  "watson": 7908,
  "dmitry": 22141,
  "walking": 3788,
  "we": 2057,
  "broker": 20138,
  "median": 3991,
  "regain": 12452,
  "##ener": 24454,
  "mitsubishi": 19695,
  "##stones": 29423,
  "revealing": 8669,
  "arthur": 4300,
  "windy": 27370,
  "theoretical": 9373,
  "sprawled": 21212,
  "angrily": 14136,
  "beck": 10272,
  "##gano": 29451,
  "##tics": 14606,
  "quality": 3737,
  "kb": 21677,
  "##oni": 10698,
  "lived": 2973,
  "charlotte": 5904,
  "##lli": 6894,
  "##kot": 23342,
  "##uro": 10976,
  "eclectic": 20551,
  "blanco": 20036,
  "##say": 24322,
  "discussed": 6936,
  "[unused762]": 767,
  "##efined": 28344,
  "##れ": 30214,
  "jurist": 22757,
  "##quent": 15417,
  "addressing": 12786,
  "ni": 9152,
  "rochelle": 25649,
  "ahmad": 10781,
  "originates": 16896,
  "suffered": 4265,
  "cannabis": 17985,
  "obey": 15470,
  "figures": 4481,
  "abusive": 20676,
  "che": 18178,
  "tubes": 10868,
  "featherweight": 27145,
  "[unused303]": 308,
  "rocky": 6857,
  "seated": 8901,
  "directions": 7826,
  "##erland": 22492,
  "garde": 14535,
  "viktor": 13489,
  "brawl": 23244,
  "miguel": 8374,
  "bled": 23919,
  "transport": 3665,
  "pew": 29071,
  "##eft": 29218,
  "##rno": 19139,
  "cumberland": 12310,
  "suits": 11072,
  "affairs": 3821,
  "##iy": 28008,
  "bro": 22953,
  "cast": 3459,
  "##華": 30468,
  "153": 16710,
  "combinations": 14930,
  "cuisine": 12846,
  "tehran": 13503,
  "351": 28474,
  "coached": 8868,
  "rotor": 18929,
  "socket": 22278,
  "##和": 30322,
  "boulder": 13264,
  "leger": 26523,
  "##weight": 11179,
  "brick": 5318,
  "rocking": 14934,
  "anywhere": 5973,
  "terminates": 28790,
  "ruling": 6996,
  "##dic": 14808,
  "linguistic": 12158,
  "revive": 17995,
  "mouthed": 20521,
  "internship": 22676,
  "maestro": 25270,
  "142": 16087,
  "hai": 15030,
  "hahn": 24266,
  "##jun": 19792,
  "##dian": 11692,
  "psychiatry": 18420,
  "went": 2253,
  "marta": 18950,
  "[unused82]": 83,
  "##cene": 17968,
  "[unused302]": 307,
  "bhp": 22245,
  "poland": 3735,
  "restaurants": 7884,
  "##eland": 25689,
  "fit": 4906,
  "262": 21950,
  "1770": 17711,
  "weep": 27874,
  "##pl": 24759,
  "##icz": 18682,
  "stalin": 13125,
  "panchayat": 20079,
  "gmbh": 18289,
  "blending": 23293,
  "restraining": 28285,
  "[unused687]": 692,
  "guests": 6368,
  "accurately": 14125,
  "libraries": 8860,
  "lecturer": 9162,
  "censorship": 15657,
  "pockets": 10306,
  "dare": 8108,
  "sales": 4341,
  "aaa": 13360,
  "##was": 17311,
  "fashionable": 19964,
  "##bola": 24290,
  "warlock": 28861,
  "freak": 11576,
  "##lase": 25002,
  "psychologists": 25428,
  "coiled": 24599,
  "clarity": 15563,
  "ticket": 7281,
  "markedly": 29295,
  "tome": 21269,
  "##一": 30266,
  "drone": 18465,
  "##resses": 25932,
  "miniatures": 28615,
  "##ha": 3270,
  "bunny": 16291,
  "participation": 6577,
  "acre": 7456,
  "##jo": 5558,
  "##anus": 20849,
  "shareholder": 18668,
  "isaiah": 18850,
  "tract": 12859,
  "liberated": 19553,
  "readings": 15324,
  "suffix": 16809,
  "™": 1580,
  "reassigned": 18026,
  "est": 9765,
  "adopt": 11092,
  "sinai": 20837,
  "oblivious": 18333,
  "karnataka": 12092,
  "##ₒ": 30091,
  "ছ": 1357,
  "flights": 7599,
  "##lick": 25230,
  "©": 1075,
  "yuri": 14331,
  "##ᆸ": 30024,
  "##lake": 14530,
  "metric": 12046,
  "barbie": 22635,
  "rangers": 7181,
  "##uated": 16453,
  "constituents": 24355,
  "drive": 3298,
  "ju": 18414,
  "opium": 21075,
  "itv": 11858,
  "##fell": 23510,
  "remastered": 19484,
  "gonzales": 24334,
  "193": 19984,
  "spell": 6297,
  "gabe": 12900,
  "collectors": 14256,
  "##nified": 25201,
  "213": 19883,
  "pune": 16920,
  "terrific": 27547,
  "##aran": 20486,
  "substitute": 7681,
  "##扌": 30385,
  "##pc": 15042,
  "holiday": 6209,
  "micro": 12702,
  "abduction": 23415,
  "mischief": 25166,
  "race": 2679,
  "##נ": 29803,
  "genesis": 11046,
  "##gis": 17701,
  "possible": 2825,
  "pregnancy": 10032,
  "padded": 20633,
  "beats": 10299,
  "garlic": 20548,
  "honoring": 21494,
  "##ril": 15928,
  "kruger": 27823,
  "josh": 6498,
  "vertically": 20018,
  "auburn": 12704,
  "abrams": 23063,
  "trainer": 10365,
  "newark": 12948,
  "coffin": 13123,
  "tub": 14366,
  "##bbled": 12820,
  "hollywood": 5365,
  "tonight": 3892,
  "citizen": 6926,
  "##arina": 27943,
  "ascending": 22316,
  "guest": 4113,
  "yucatan": 28631,
  "clever": 12266,
  "yield": 10750,
  "[unused519]": 524,
  "պ": 1233,
  "used": 2109,
  "collier": 20466,
  "charred": 29030,
  "recovering": 13400,
  "batman": 8942,
  "hindi": 9269,
  "[unused685]": 690,
  "alleging": 23294,
  "reworked": 27575,
  "bills": 8236,
  "##mberg": 29084,
  "differ": 11234,
  "skinner": 17451,
  "madeline": 16974,
  "գ": 1221,
  "brunei": 18692,
  "beads": 17530,
  "ives": 23945,
  "kathmandu": 28045,
  "##ject": 20614,
  "professions": 22797,
  "wars": 5233,
  "proposition": 14848,
  "jesus": 4441,
  "caps": 9700,
  "##€": 30102,
  "ப": 1388,
  "interim": 9455,
  "guido": 20239,
  "##nah": 15272,
  "##ivo": 20984,
  "##bad": 9024,
  "wing": 3358,
  "haley": 16624,
  "vehicles": 4683,
  "champaign": 28843,
  "[unused742]": 747,
  "airport": 3199,
  "elbows": 13690,
  "gala": 16122,
  "fl": 13109,
  "departments": 7640,
  "[unused827]": 832,
  "safely": 9689,
  "commentaries": 21241,
  "shortest": 20047,
  "dialects": 11976,
  "subject": 3395,
  "residual": 21961,
  "seeker": 29444,
  "##ph": 8458,
  "types": 4127,
  "drink": 4392,
  "##bri": 23736,
  "sensible": 21082,
  "edouard": 21627,
  "##care": 16302,
  "dozen": 6474,
  "adjutant": 20690,
  "##acious": 20113,
  "scents": 29254,
  "hq": 16260,
  "retention": 20125,
  "1785": 17262,
  "monks": 9978,
  "cobra": 16604,
  "conjunction": 9595,
  "given": 2445,
  "postwar": 20013,
  "shuffling": 24770,
  "clearer": 24509,
  "tension": 6980,
  "tavi": 24283,
  "[unused274]": 279,
  "assyrian": 19950,
  "planting": 14685,
  "expect": 5987,
  "##tile": 15286,
  "halo": 17201,
  "mrs": 3680,
  "farrell": 16248,
  "lease": 10084,
  "speaking": 4092,
  "[unused803]": 808,
  "qualified": 4591,
  "rim": 11418,
  "prepare": 7374,
  "liberia": 18039,
  "jacobite": 28725,
  "##ts": 3215,
  "incomplete": 12958,
  "reviewers": 15814,
  "##rist": 15061,
  "1911": 5184,
  "kaye": 23686,
  "exercising": 28428,
  "entrances": 18084,
  "harvesting": 21534,
  "comics": 5888,
  "liberal": 4314,
  "kendall": 14509,
  "argued": 5275,
  "stimulation": 20858,
  "societe": 18341,
  "scholarships": 15691,
  "1540": 27536,
  "deepest": 17578,
  "130": 7558,
  "versa": 18601,
  "##cap": 17695,
  "methods": 4725,
  "[unused846]": 851,
  "か": 1651,
  "montrose": 24990,
  "witch": 6965,
  "preceded": 11677,
  "refit": 27070,
  "clutch": 15357,
  "beams": 13110,
  "powerplant": 19526,
  "persian": 4723,
  "##ssed": 29417,
  "##24": 18827,
  "hepatitis": 28389,
  "george": 2577,
  "##neck": 18278,
  "cellar": 15423,
  "##jured": 26949,
  "poole": 19107,
  "##ゆ": 30209,
  "algae": 18670,
  "midlands": 13256,
  "##uch": 10875,
  "metaphysical": 29081,
  "morgan": 5253,
  "brandt": 19407,
  "freyja": 7075,
  "hon": 10189,
  "currents": 14731,
  "ね": 1670,
  "perfectly": 6669,
  "##ona": 7856,
  "battista": 28422,
  "loyalists": 26590,
  "405": 23988,
  "ie": 29464,
  "勝": 1780,
  "yves": 19687,
  "predict": 16014,
  "guilty": 5905,
  "plaques": 28487,
  "##葉": 30469,
  "montenegro": 13018,
  "kinds": 7957,
  "[unused35]": 36,
  "##eon": 10242,
  "1816": 12357,
  "arrival": 5508,
  "osborn": 26999,
  "##color": 18717,
  "690": 28066,
  "##low": 8261,
  "inspirational": 28676,
  "raped": 15504,
  "hides": 17382,
  "researched": 18800,
  "unicef": 29073,
  "sima": 26769,
  "paranoid": 19810,
  "##iled": 18450,
  "bust": 13950,
  "whimpered": 26184,
  "universidad": 16501,
  "[unused968]": 973,
  "donate": 21357,
  "ᆫ": 1485,
  "##書": 30397,
  "##ি": 29915,
  "reunification": 28044,
  "##ito": 9956,
  "regulate": 15176,
  "misconduct": 23337,
  "montevideo": 22460,
  "otago": 21831,
  "227": 21489,
  "draped": 15098,
  "provinces": 6941,
  "conducting": 9283,
  "april": 2258,
  "crush": 10188,
  "deepened": 20183,
  "dan": 4907,
  "priesthood": 17911,
  "latin": 3763,
  "cyprus": 9719,
  "hardness": 23608,
  "ர": 1391,
  "advocate": 8175,
  "##sper": 17668,
  "jaguars": 24017,
  "surgery": 5970,
  "fisher": 8731,
  "elisa": 29490,
  "32": 3590,
  "tremor": 27734,
  "activism": 16841,
  "##ia": 2401,
  "warming": 12959,
  "##yal": 21095,
  "canal": 5033,
  "voivodeship": 7225,
  "election": 2602,
  "კ": 1446,
  "kepler": 28219,
  "gunnery": 27919,
  "##arney": 25831,
  "textual": 25304,
  "##馬": 30506,
  "．": 1991,
  "1570": 28881,
  "testing": 5604,
  "softball": 12585,
  "norris": 15466,
  "johnny": 5206,
  "sonic": 12728,
  "qui": 21864,
  "pretending": 12097,
  "footage": 8333,
  "intimately": 29024,
  "deposition": 19806,
  "slam": 9555,
  "compartments": 27998,
  "bavaria": 11606,
  "##wer": 13777,
  "armand": 20371,
  "##lou": 23743,
  "advanced": 3935,
  "olympian": 25977,
  "##cina": 28748,
  "ache": 12336,
  "##vius": 26055,
  "center": 2415,
  "geese": 28519,
  "1934": 4579,
  "##oured": 16777,
  "[unused887]": 892,
  "vaguely": 15221,
  "stabilization": 28715,
  "sai": 18952,
  "repetition": 23318,
  "outdoors": 19350,
  "skeletal": 20415,
  "ـ": 1290,
  "mikhail": 11318,
  "sud": 19219,
  "commune": 5715,
  "struggles": 11785,
  "appointed": 2805,
  "##nburg": 22642,
  "belarusian": 15626,
  "prolonged": 15330,
  "##ो": 29879,
  "sweets": 26844,
  "drinking": 5948,
  "##{": 29640,
  "##hedron": 26440,
  "warehouse": 9746,
  "##eem": 21564,
  "ナ": 1715,
  "##rand": 13033,
  "disk": 9785,
  "##tech": 15007,
  "awareness": 7073,
  "kaplan": 22990,
  "tipperary": 17333,
  "cherokee": 13796,
  "gas": 3806,
  "crisis": 5325,
  "enormous": 8216,
  "albums": 4042,
  "##raine": 26456,
  "ӏ": 1218,
  "ezio": 23043,
  "annoyance": 17466,
  "temeraire": 23611,
  "elders": 13376,
  "avalon": 18973,
  "predatory": 21659,
  "mps": 12616,
  "meiji": 23214,
  "traveller": 21916,
  "score": 3556,
  "journalist": 4988,
  "dies": 8289,
  "[unused957]": 962,
  "ipad": 25249,
  "mayoral": 23578,
  "larsen": 20094,
  "♭": 1627,
  "experiences": 6322,
  "[unused409]": 414,
  "spans": 14798,
  "welfare": 7574,
  "bandage": 24446,
  "comprises": 8681,
  "cadiz": 26342,
  "advancement": 12607,
  "veronica": 13133,
  "cavendish": 23570,
  "parade": 7700,
  "furious": 9943,
  "tech": 6627,
  "tour": 2778,
  "dal": 17488,
  "renamed": 4096,
  "boogie": 21495,
  "relates": 14623,
  "reply": 7514,
  "##ign": 23773,
  "331": 27533,
  "弘": 1843,
  "fang": 15197,
  "vimes": 28482,
  "exchanging": 25620,
  "reintroduced": 28263,
  "footballers": 27784,
  "##թ": 29771,
  "indians": 6505,
  "barrio": 25676,
  "walker": 5232,
  "##boards": 15271,
  "cassidy": 13737,
  "objects": 5200,
  "vol": 5285,
  "once": 2320,
  "##rdy": 17460,
  "##ime": 14428,
  "bald": 13852,
  "pierce": 9267,
  "sevilla": 29363,
  "senators": 10153,
  "##vitt": 28656,
  "1980s": 3865,
  "proportional": 14267,
  "unions": 9209,
  "reacted": 14831,
  "[unused694]": 699,
  "frequency": 6075,
  "och": 28166,
  "##ques": 10997,
  "dysfunction": 28466,
  "##nberger": 28825,
  "##к": 23925,
  "confined": 12302,
  "undefeated": 15188,
  "exchequer": 28889,
  "##chule": 20269,
  "laurent": 14718,
  "complicated": 8552,
  "##planes": 26634,
  "specially": 11974,
  "##oire": 26250,
  "1746": 24507,
  "deities": 17091,
  "fir": 21554,
  "##toy": 29578,
  "adventist": 25696,
  "emma": 5616,
  "aj": 19128,
  "pamela": 17217,
  "senate": 4001,
  "realism": 15650,
  "sofie": 26359,
  "therefore": 3568,
  "weasel": 29268,
  "tissue": 8153,
  "reducing": 8161,
  "lucivar": 21401,
  "##道": 30483,
  "##sz": 17112,
  "arrivals": 25470,
  "unit": 3131,
  "requires": 5942,
  "##isch": 19946,
  "fourteenth": 15276,
  "##genic": 16505,
  "towing": 28379,
  "definition": 6210,
  "phrases": 15672,
  "wwii": 25755,
  "boardwalk": 29496,
  "[unused679]": 684,
  "spur": 12996,
  "##β": 29720,
  "##nies": 15580,
  "##omo": 19506,
  "##slin": 22908,
  "activation": 13791,
  "account": 4070,
  "mexican": 4916,
  "bytes": 27507,
  "[unused748]": 753,
  "[unused555]": 560,
  "westchester": 25489,
  "welch": 17939,
  "##rmed": 29540,
  "elaborate": 9603,
  "##nium": 14907,
  "##eves": 23047,
  "##!": 29612,
  "gave": 2435,
  "hostility": 18258,
  "##igo": 14031,
  "recently": 3728,
  "##tov": 26525,
  "kaitlyn": 28584,
  "leadership": 4105,
  "whereupon": 26090,
  "##etto": 20082,
  "pinto": 25066,
  "##inge": 23496,
  "attracted": 6296,
  "##night": 15864,
  "pete": 6969,
  "chaos": 8488,
  "toby": 11291,
  "147": 16471,
  "supper": 15264,
  "##wise": 14244,
  "dakota": 7734,
  "blowing": 11221,
  "marriott": 26490,
  "path": 4130,
  "146": 16333,
  "alejandro": 16810,
  "routine": 9410,
  "commencement": 20561,
  "uganda": 10031,
  "[unused976]": 981,
  "accountable": 26771,
  "happen": 4148,
  "##ric": 7277,
  "representatives": 4505,
  "fates": 26417,
  "veto": 22102,
  "crap": 10231,
  "##aina": 27971,
  "stretch": 7683,
  "nonetheless": 9690,
  "##rie": 7373,
  "sellers": 19041,
  "idea": 2801,
  "wright": 6119,
  "identity": 4767,
  "key": 3145,
  "powered": 6113,
  "corvette": 22687,
  "##lga": 27887,
  "氷": 1895,
  "owners": 5608,
  "replay": 15712,
  "soaked": 13077,
  "alumnus": 19678,
  "closed": 2701,
  "descendants": 8481,
  "lauded": 26507,
  "mention": 5254,
  "1670": 26253,
  "competent": 17824,
  "##edo": 26010,
  "endeavour": 26911,
  "inspected": 20456,
  "1737": 26738,
  "easton": 21636,
  "outs": 21100,
  "denote": 19090,
  "mama": 9588,
  "burton": 9658,
  "adrenaline": 14963,
  "performer": 9256,
  "##i": 2072,
  "##room": 9954,
  "outfielder": 21033,
  "[unused36]": 37,
  "activities": 3450,
  "sonar": 24609,
  "possibility": 6061,
  "[unused973]": 978,
  "atlas": 11568,
  "rubbing": 10137,
  "mounds": 19503,
  "gruff": 27038,
  "similar": 2714,
  "togo": 23588,
  "weaknesses": 21775,
  "ʋ": 1133,
  "smuggling": 19535,
  "##bc": 9818,
  "##gl": 23296,
  "inhuman": 29582,
  "brutality": 24083,
  "##lz": 23858,
  "fuse": 19976,
  "##yam": 14852,
  "rounding": 26939,
  "##nad": 25389,
  "posed": 13686,
  "twelfth": 11313,
  "##花": 30466,
  "combatants": 26622,
  "##थ": 29860,
  "agreement": 3820,
  "modest": 10754,
  "instructional": 23219,
  "##ן": 29802,
  "website": 4037,
  "##nk": 8950,
  "barracks": 10492,
  "##oya": 18232,
  "squeezed": 7757,
  "surrounding": 4193,
  "##urance": 25863,
  "invested": 11241,
  "##400": 29537,
  "katherine": 9477,
  "describing": 7851,
  "##chang": 22305,
  "fears": 10069,
  "rebelled": 25183,
  "thong": 27468,
  "##standing": 24911,
  "michaels": 17784,
  "[unused400]": 405,
  "suffer": 9015,
  "##iance": 28335,
  "£1": 14534,
  "succeeds": 21645,
  "nikola": 24794,
  "midnight": 7090,
  "mutual": 8203,
  "[unused119]": 124,
  "crunch": 24514,
  "sniper": 17515,
  "[unused636]": 641,
  "##hide": 26100,
  "代": 1760,
  "ashes": 11289,
  "titles": 4486,
  "reputation": 5891,
  "toll": 9565,
  "managers": 10489,
  "[unused77]": 78,
  "cr": 13675,
  "##省": 30446,
  "resort": 7001,
  "ricardo": 13559,
  "issued": 3843,
  "stirling": 15597,
  "##nds": 18376,
  "curry": 15478,
  "doherty": 23798,
  "rom": 17083,
  "netting": 26909,
  "1985": 3106,
  "yearning": 29479,
  "grey": 4462,
  "rumbling": 26670,
  "##rred": 20529,
  "bearings": 21714,
  "1869": 7845,
  "grocery": 13025,
  "philippines": 5137,
  "##vao": 24682,
  "ћ": 1217,
  "##duction": 16256,
  "##rons": 28212,
  "[unused836]": 841,
  "gaza": 14474,
  "silesia": 21872,
  "laval": 26205,
  "outrageous": 25506,
  "truths": 23019,
  "##idi": 28173,
  "sino": 19432,
  "295": 21679,
  "user": 5310,
  "sampling": 16227,
  "##iff": 13355,
  "tyres": 24656,
  "239": 23688,
  "maris": 23787,
  "[unused275]": 280,
  "preaching": 17979,
  "sued": 12923,
  "marche": 28791,
  "[unused524]": 529,
  "tong": 15740,
  "##tively": 25499,
  "keynes": 22152,
  "stormed": 16201,
  "##ョ": 30256,
  "##raus": 25965,
  "1720": 23535,
  "yelling": 13175,
  "oath": 11292,
  "bob": 3960,
  "relegated": 7049,
  "timetable": 23839,
  "cloak": 11965,
  "utter": 14395,
  "romney": 19615,
  "intently": 16170,
  "return": 2709,
  "258": 24398,
  "linking": 11383,
  "students": 2493,
  "##logical": 9966,
  "338": 27908,
  "##tze": 23102,
  "##stic": 10074,
  "850": 15678,
  "quartz": 20971,
  "spectators": 12405,
  "medicines": 20233,
  "stratford": 17723,
  "hara": 18820,
  "beirut": 15335,
  "－": 1990,
  "##baum": 14898,
  "margarita": 24570,
  "prequel": 28280,
  "dumping": 23642,
  "access": 3229,
  "completion": 6503,
  "ufo": 24321,
  "10": 2184,
  "manga": 8952,
  "procession": 14385,
  "reluctance": 21662,
  "brianna": 25558,
  "##aq": 20784,
  "yellowstone": 29231,
  "sly": 18230,
  "[unused596]": 601,
  "montgomery": 8482,
  "promotes": 14067,
  "handled": 8971,
  "∇": 1595,
  "##堂": 30331,
  "emilia": 20417,
  "containment": 29174,
  "shifter": 18189,
  "embankment": 22756,
  "[unused863]": 868,
  "polo": 11037,
  "locations": 5269,
  "1648": 22533,
  "equivalent": 5662,
  "buckled": 26368,
  "observe": 11949,
  "aids": 8387,
  "##athy": 17308,
  "##ck": 3600,
  "kolkata": 13522,
  "understand": 3305,
  "石": 1922,
  "rigged": 25216,
  "cars": 3765,
  "##sari": 22740,
  "vanish": 25887,
  "page": 3931,
  "organisms": 11767,
  "##taro": 28160,
  "sister": 2905,
  "freshman": 10452,
  "kirby": 15129,
  "nervously": 12531,
  "carole": 24348,
  "reduces": 13416,
  "##vili": 21661,
  "chad": 9796,
  "[unused890]": 895,
  "biplane": 28686,
  "scribe": 27789,
  "spectrum": 8674,
  "nuclear": 4517,
  "##oria": 11069,
  "burma": 11050,
  "##post": 19894,
  "##yad": 25152,
  "town": 2237,
  "mainly": 3701,
  "argus": 25294,
  "お": 1650,
  "lesser": 8276,
  "au": 8740,
  "##ri": 3089,
  "nbl": 28013,
  "[unused603]": 608,
  "##dor": 7983,
  "floating": 8274,
  "##ر": 17149,
  "subgenus": 25356,
  "illustrious": 26150,
  "diaries": 18707,
  "purpose": 3800,
  "whispered": 3990,
  "daze": 28918,
  "##ices": 23522,
  "billing": 25640,
  "shooters": 28310,
  "##sso": 24137,
  "##uity": 18518,
  "gloom": 24067,
  "drip": 27304,
  "picnic": 12695,
  "remembering": 10397,
  "enthusiasm": 12024,
  "⁶": 1540,
  "lightweight": 12038,
  "ape": 23957,
  "cornelius": 17354,
  "alias": 14593,
  "hilton": 15481,
  "thayer": 25563,
  "completely": 3294,
  "deeper": 6748,
  "stillness": 29435,
  "revelation": 11449,
  "determined": 4340,
  "emerged": 6003,
  "inactivated": 15663,
  "goat": 13555,
  "ᆯ": 1486,
  "[unused398]": 403,
  "inputs": 20407,
  "pillars": 13766,
  "gravely": 28070,
  "excellent": 6581,
  "cadet": 12738,
  "##メ": 30252,
  "peaks": 11373,
  "coincided": 18616,
  "luis": 6446,
  "gal": 14891,
  "pitt": 15091,
  "phenomena": 13352,
  "roofs": 15753,
  "##ץ": 29808,
  "##bered": 22408,
  "tariff": 23234,
  "merritt": 26701,
  "sheen": 20682,
  "nutrition": 14266,
  "##fu": 11263,
  "unrest": 16591,
  "sneak": 13583,
  "respectively": 4414,
  "sons": 4124,
  "##phus": 25255,
  "ted": 6945,
  "torso": 15190,
  "swelled": 21851,
  "1927": 4764,
  "enthusiastically": 24935,
  "##tung": 21847,
  "##tted": 16190,
  "narrative": 7984,
  "vein": 12818,
  "ordnance": 14445,
  "ng": 12835,
  "ˡ": 1151,
  "tracey": 25984,
  "casinos": 27300,
  "##or": 2953,
  "transition": 6653,
  "##igen": 29206,
  "ɬ": 1121,
  "wanted": 2359,
  "cultivated": 13237,
  "##rian": 6862,
  "stumble": 21811,
  "[unused911]": 916,
  "republic": 3072,
  "boyfriend": 6898,
  "##imate": 21499,
  "teatro": 16038,
  "defaulted": 17265,
  "holstein": 18864,
  "asahi": 29465,
  "##lash": 27067,
  "analysis": 4106,
  "introduction": 4955,
  "republicans": 10643,
  "34th": 20460,
  "shifting": 9564,
  "lip": 5423,
  "auspices": 20153,
  "nr": 17212,
  "·": 1087,
  "ashford": 26545,
  "##hett": 28499,
  "robust": 15873,
  "delays": 14350,
  "defence": 4721,
  "subspecies": 11056,
  "pouch": 21445,
  "tenderly": 26596,
  "pat": 6986,
  "tidy": 29369,
  "jock": 23407,
  "damn": 4365,
  "bowls": 15220,
  "##hot": 12326,
  "balloon": 13212,
  "tells": 4136,
  "translators": 28396,
  "mitchell": 6395,
  "雄": 1974,
  "hose": 21290,
  "##oms": 22225,
  "throwing": 6886,
  "conditions": 3785,
  "davenport": 16273,
  "honourable": 17164,
  "##yst": 27268,
  "noticeable": 17725,
  "criterion": 19229,
  "asa": 17306,
  "restructuring": 18322,
  "caledonia": 19305,
  "pile": 8632,
  "reached": 2584,
  "mouse": 8000,
  "щ": 1204,
  "looting": 29367,
  "squirrels": 29384,
  "retribution": 25928,
  "bulging": 27569,
  "winnipeg": 11093,
  "weapons": 4255,
  "rooted": 15685,
  "##listic": 27348,
  "sweatshirt": 28095,
  "waves": 5975,
  "mu": 14163,
  "indie": 10271,
  "initiatives": 11107,
  "muscle": 6740,
  "##uary": 24384,
  "1618": 29029,
  "anatomical": 28141,
  "danish": 5695,
  "caspian": 25893,
  "##ida": 8524,
  "##高": 30507,
  "[unused564]": 569,
  "interested": 4699,
  "bahamas": 17094,
  "501": 16202,
  "disbelief": 12537,
  "hitler": 8042,
  "tower": 3578,
  "darryl": 22821,
  "replacing": 6419,
  "alexia": 21683,
  "den": 7939,
  "outreach": 15641,
  "introduce": 8970,
  "packets": 23730,
  "health": 2740,
  "enamel": 29484,
  "attaining": 26615,
  "detection": 10788,
  "institut": 17126,
  "##par": 19362,
  "##eded": 19082,
  "aggregation": 28041,
  "iata": 9833,
  "bitter": 8618,
  "##chester": 25322,
  "grange": 18203,
  "colonies": 8355,
  "##oux": 28700,
  "michigan": 4174,
  "miscellaneous": 25408,
  "##e": 2063,
  "##:": 29627,
  "mediterranean": 7095,
  "basket": 10810,
  "position": 2597,
  "solely": 9578,
  "all": 2035,
  "[unused404]": 409,
  "roderick": 28326,
  "unpleasant": 16010,
  "##ological": 10091,
  "parcel": 20463,
  "ought": 11276,
  "burn": 6402,
  "privacy": 9394,
  "copeland": 27303,
  "you": 2017,
  "rhino": 24091,
  "protagonists": 21989,
  "dew": 24903,
  "[unused787]": 792,
  "repeating": 15192,
  "[unused944]": 949,
  "compromised": 20419,
  "clinton": 7207,
  "detached": 12230,
  "mergers": 28585,
  "unesco": 12239,
  "warring": 28509,
  "##iel": 9257,
  "designated": 4351,
  "data": 2951,
  "realities": 22213,
  "settling": 9853,
  "☆": 1621,
  "##場": 30332,
  "sb": 24829,
  "##oney": 17791,
  "andersen": 18308,
  "creaked": 28068,
  "##ji": 4478,
  "299": 25926,
  "pedro": 7707,
  "##sibility": 28255,
  "210": 12875,
  "probability": 9723,
  "mango": 24792,
  "producer": 3135,
  "deformation": 29130,
  "poetic": 13805,
  "##ego": 20265,
  "slicing": 26514,
  "chicks": 20649,
  "travelled": 7837,
  "lucha": 25390,
  "lighting": 7497,
  "parentheses": 27393,
  "prompting": 15870,
  "pointless": 23100,
  "magnitude": 10194,
  "##yard": 14132,
  "mack": 11349,
  "##pling": 14353,
  "lunch": 6265,
  "##erin": 23282,
  "jogged": 27812,
  "fishery": 22880,
  "confluence": 13693,
  "##氏": 30417,
  "lawsuits": 20543,
  "##ட": 29920,
  "##wee": 28394,
  "[unused914]": 919,
  "##49": 26224,
  "heterosexual": 28229,
  "binoculars": 29549,
  "sparhawk": 13709,
  "[unused700]": 705,
  "mud": 8494,
  "##bek": 24597,
  "reapers": 27733,
  "trooper": 28224,
  "rann": 26312,
  "jackie": 9901,
  "presently": 12825,
  "weekday": 16904,
  "owed": 12232,
  "deter": 28283,
  "##ggs": 21314,
  "##akh": 27573,
  "consul": 11801,
  "tropical": 5133,
  "ml": 19875,
  "jobs": 5841,
  "travellers": 19284,
  "lead": 2599,
  "##hart": 10686,
  "spraying": 29035,
  "achievement": 6344,
  "[unused639]": 644,
  "and": 1998,
  "[unused682]": 687,
  "airspace": 29357,
  "listen": 4952,
  "radiant": 23751,
  "subordinate": 15144,
  "[unused101]": 106,
  "mutant": 15527,
  "##÷": 29669,
  "ث": 1274,
  "amateur": 5515,
  "prism": 26113,
  "extend": 7949,
  "practice": 3218,
  "ﬂ": 1985,
  "appropriate": 6413,
  "##uses": 25581,
  "##य": 29868,
  "##athic": 20972,
  "1887": 6837,
  "warp": 24136,
  "##kou": 24861,
  "scripture": 18919,
  "paolo": 14174,
  "##puram": 17809,
  "commonly": 4141,
  "##ound": 28819,
  "initial": 3988,
  "dickson": 22076,
  "events": 2824,
  "##ali": 11475,
  "treating": 12318,
  "army": 2390,
  "dukes": 16606,
  "##rna": 12789,
  "money": 2769,
  "thomson": 11161,
  "presley": 17229,
  "bp": 17531,
  "explode": 15044,
  "ð": 1098,
  "##miento": 28883,
  "43rd": 25747,
  "##llet": 22592,
  "welcomed": 10979,
  "[unused712]": 717,
  "89": 6486,
  "tiffany": 14381,
  "namibia": 15408,
  "##ense": 16700,
  "charles": 2798,
  "taught": 4036,
  "royalty": 16664,
  "##ctuated": 25638,
  "virtual": 7484,
  "aba": 19557,
  "opponents": 7892,
  "extraction": 14676,
  "##hort": 27794,
  "ottawa": 8166,
  "blond": 8855,
  "explosive": 11355,
  "tributary": 8914,
  "sweetie": 22872,
  "weiss": 17889,
  "until": 2127,
  "व": 1335,
  "bearing": 7682,
  "arch": 7905,
  "line": 2240,
  "[unused654]": 659,
  "abyss": 22159,
  "1881": 7005,
  "sw": 25430,
  "231": 20304,
  "ツ": 1712,
  "vibrating": 24987,
  "bryn": 19904,
  "should": 2323,
  "##－": 30516,
  "greenwich": 13861,
  "mock": 12934,
  "mania": 29310,
  "helps": 7126,
  "loans": 10940,
  "cocky": 24995,
  "ව": 1407,
  "safeguard": 28805,
  "champ": 24782,
  "clap": 28618,
  "[unused820]": 825,
  "trademark": 11749,
  "communicating": 20888,
  "chanting": 22417,
  "##llen": 12179,
  "##kas": 13716,
  "[unused895]": 900,
  "rhea": 24775,
  "anaheim": 20835,
  "stylistic": 24828,
  "birth": 4182,
  "arrange": 13621,
  "##本": 30402,
  "haggard": 27912,
  "immigration": 7521,
  "daphne": 16847,
  "poor": 3532,
  "mural": 15533,
  "##peed": 25599,
  "##ren": 7389,
  "nobel": 10501,
  "##position": 26994,
  "does": 2515,
  "sutra": 26567,
  "amusing": 19142,
  "leipzig": 11222,
  "5000": 13509,
  "culminating": 16979,
  "immersion": 27013,
  "violet": 8766,
  "mediation": 26435,
  "fraud": 9861,
  "lesions": 22520,
  "340": 16029,
  "delivers": 18058,
  "geometric": 14965,
  "pajamas": 27621,
  "unnatural": 21242,
  "unearthed": 27422,
  "levin": 20206,
  "lives": 3268,
  "slap": 14308,
  "favoured": 16822,
  "huntsville": 28492,
  "clary": 13145,
  "283": 25504,
  "##deck": 26547,
  "pea": 26034,
  "periodically": 18043,
  "1951": 4131,
  "immature": 26838,
  "##udeau": 27627,
  "insulin": 22597,
  "discourse": 15152,
  "looks": 3504,
  "ventilation": 19536,
  "##fied": 10451,
  "08": 5511,
  "weighed": 12781,
  "tt": 23746,
  "##oids": 17086,
  "israelis": 28363,
  "positioning": 19120,
  "confront": 14323,
  "hal": 11085,
  "ج": 1275,
  "warrior": 6750,
  "gestured": 11574,
  "narratives": 22143,
  "recognizable": 20123,
  "wind": 3612,
  "##tl": 19646,
  "dispatch": 18365,
  "##fahan": 28975,
  "minute": 3371,
  "spurs": 18205,
  "soc": 27084,
  "##疒": 30439,
  "##rm": 10867,
  "##ross": 25725,
  "vigor": 24474,
  "[unused508]": 513,
  "naming": 10324,
  "brasil": 21133,
  "theologians": 29013,
  "berkeley": 8256,
  "##tative": 27453,
  "allmusic": 10477,
  "sections": 5433,
  "ave": 13642,
  "torch": 12723,
  "##∗": 30125,
  "##utnant": 24620,
  "equation": 8522,
  "son": 2365,
  "replies": 14054,
  "russia": 3607,
  "平": 1839,
  "73": 6421,
  "##rp": 14536,
  "master": 3040,
  "##nan": 7229,
  "hooves": 28399,
  "hood": 7415,
  "monitor": 8080,
  "ripple": 24644,
  "reacher": 22970,
  "saharan": 24505,
  "aachen": 29093,
  "seahawks": 21390,
  "##anta": 26802,
  "mat": 13523,
  "product": 4031,
  "santos": 11053,
  "##ج": 29819,
  "illicit": 25049,
  "##ily": 6588,
  "courtship": 28592,
  "rwanda": 17591,
  "landslide": 20148,
  "yeomanry": 26883,
  "souls": 9293,
  "intuition": 26406,
  "peaking": 13015,
  "kylie": 9008,
  "##ass": 12054,
  "vibe": 21209,
  "hitchcock": 19625,
  "##cliffe": 18115,
  "coventry": 13613,
  "taiwanese": 16539,
  "sprung": 22057,
  "lauren": 10294,
  "##ading": 23782,
  "abbreviated": 12066,
  "236": 23593,
  "badly": 6649,
  "regime": 6939,
  "session": 5219,
  "gwen": 11697,
  "lau": 21360,
  "logging": 15899,
  "staggering": 26233,
  "el": 3449,
  "minded": 13128,
  "been": 2042,
  "pius": 14363,
  "decorate": 29460,
  "metres": 3620,
  "augustine": 14060,
  "logged": 26618,
  "##ures": 14900,
  "rhineland": 21640,
  "ト": 1714,
  "harp": 14601,
  "antigen": 28873,
  "marketing": 5821,
  "pumped": 16486,
  "寺": 1827,
  "wards": 11682,
  "swelling": 18348,
  "appointment": 6098,
  "ballot": 10428,
  "clinging": 17892,
  "##oir": 21165,
  "envelope": 11255,
  "roberto": 10704,
  "##un": 4609,
  "justin": 6796,
  "ordained": 9492,
  "##la": 2721,
  "iraqi": 8956,
  "backgrounds": 15406,
  "##ɐ": 29676,
  "11": 2340,
  "juris": 27551,
  "##bular": 28808,
  "coke": 14492,
  "##nged": 21558,
  "pensacola": 26073,
  "adoptive": 24787,
  "una": 14477,
  "tools": 5906,
  "##ך": 29797,
  "bravo": 17562,
  "hutchinson": 17165,
  "concealed": 14091,
  "levy": 12767,
  "deliberately": 9969,
  "河": 1899,
  "sydney": 3994,
  "kyoto": 15008,
  "rust": 18399,
  "[unused703]": 708,
  "##op": 7361,
  "yet": 2664,
  "rumble": 15658,
  "outright": 13848,
  "maha": 24404,
  "strapped": 18019,
  "cadence": 23620,
  "revolt": 10073,
  "lankan": 16159,
  "ර": 1405,
  "##mus": 7606,
  "destined": 16036,
  "chilled": 23362,
  "ether": 28855,
  "##keeper": 13106,
  "##ssler": 23385,
  "bon": 14753,
  "remembrance": 19451,
  "##gnon": 26977,
  "##ance": 6651,
  "н": 1192,
  "ذ": 1279,
  "viscount": 12182,
  "60th": 20928,
  "ᄒ": 1469,
  "##now": 19779,
  "earthquakes": 17932,
  "##awan": 25903,
  "##pina": 26787,
  "stipulated": 25729,
  "act": 2552,
  "##tel": 9834,
  "pearson": 12874,
  "ste": 26261,
  "[unused873]": 878,
  "##ots": 12868,
  "guiding": 14669,
  "chop": 24494,
  "curt": 20099,
  "norton": 10770,
  "##pressed": 19811,
  "between": 2090,
  "array": 9140,
  "swaying": 21826,
  "console": 10122,
  "##ła": 22972,
  "shrimp": 20130,
  "supplied": 8127,
  "marshal": 8610,
  "continual": 27222,
  "sanitary": 25480,
  "gr": 24665,
  "##nis": 8977,
  "socrates": 26772,
  "spat": 14690,
  "skin": 3096,
  "1813": 12169,
  "erase": 22505,
  "connects": 8539,
  "bitch": 7743,
  "populous": 20151,
  "##nton": 15104,
  "ditch": 14033,
  "orbiting": 26472,
  "##icides": 22698,
  "relics": 16712,
  "flame": 8457,
  "##sma": 26212,
  "sensitive": 7591,
  "##fat": 27753,
  "orphanage": 18504,
  "ケ": 1703,
  "polka": 29499,
  "ه": 1297,
  "analogue": 21800,
  "wilton": 26407,
  "[unused215]": 220,
  "trembled": 14823,
  "several": 2195,
  "foliage": 19624,
  "[unused41]": 42,
  "##dc": 16409,
  "recruits": 15024,
  "lavish": 22689,
  "revolutionary": 6208,
  "vents": 28287,
  "diploma": 9827,
  "##戸": 30383,
  "surplus": 15726,
  "##」": 30168,
  "aged": 4793,
  "plaza": 8232,
  "adapt": 15581,
  "showcase": 13398,
  "pays": 12778,
  "criticism": 6256,
  "celebrities": 12330,
  "##tangled": 27898,
  "sprawling": 24199,
  "batter": 23801,
  "regularly": 5570,
  "quad": 17718,
  "expressway": 11720,
  "andes": 18096,
  "real": 2613,
  "##uw": 25974,
  "##werk": 29548,
  "robinson": 6157,
  "##yler": 20853,
  "thence": 23166,
  "screenings": 25437,
  "provisional": 10864,
  "mesh": 20437,
  "##gie": 11239,
  "thee": 14992,
  "1683": 27414,
  "winchester": 12841,
  "pow": 23776,
  "##∈": 30124,
  "larger": 3469,
  "intricate": 17796,
  "##lp": 14277,
  "tingle": 25792,
  "airplane": 13297,
  "trailer": 9117,
  "unharmed": 28150,
  "crushing": 14527,
  "awake": 8300,
  "velocity": 10146,
  "thud": 20605,
  "村": 1878,
  "[unused886]": 891,
  "drives": 9297,
  "foremost": 16097,
  "##ogan": 21131,
  "crouched": 14275,
  "tactics": 9887,
  "in": 1999,
  "##⅓": 30109,
  "1763": 18432,
  "drafting": 21168,
  "schneider": 15159,
  "victories": 9248,
  "intellectual": 7789,
  "1644": 23477,
  "peggy": 14911,
  "footed": 28856,
  "experiencing": 13417,
  "##ece": 26005,
  "mistake": 6707,
  "recruit": 13024,
  "preparing": 8225,
  "書": 1871,
  "aye": 13442,
  "2016": 2355,
  "skate": 17260,
  "seven": 2698,
  "inequality": 16440,
  "1976": 3299,
  "iowa": 5947,
  "theologian": 17200,
  "yankee": 17652,
  "mixture": 8150,
  "tr": 19817,
  "wiring": 27930,
  "##ht": 11039,
  "##test": 22199,
  "lodged": 20451,
  "neurological": 23130,
  "stared": 3592,
  "corresponding": 7978,
  "##logic": 27179,
  "##be": 4783,
  "mccoy": 16075,
  "fantasy": 5913,
  "gaps": 16680,
  "photon": 26383,
  "children": 2336,
  "bullying": 18917,
  "circulation": 9141,
  "relate": 14396,
  "##tness": 27401,
  "elliott": 9899,
  "1620": 24259,
  "##wana": 21761,
  "raises": 13275,
  "detailing": 17555,
  "mass": 3742,
  "omnibus": 27284,
  "equator": 26640,
  "muted": 22124,
  "##ия": 23483,
  "courtyard": 10119,
  "##lowe": 27663,
  "260": 13539,
  "ellison": 21513,
  "attending": 7052,
  "guerrillas": 26955,
  "refining": 28596,
  "rd": 16428,
  "##fight": 20450,
  "emirates": 14041,
  "distinct": 5664,
  "atom": 13787,
  "somme": 25158,
  "remainder": 6893,
  "establishes": 21009,
  "##dong": 17679,
  "agatha": 23863,
  "arrows": 12563,
  "##ttes": 14581,
  "relating": 8800,
  "safety": 3808,
  "trailing": 12542,
  "woolf": 29572,
  "peking": 27057,
  "dr": 2852,
  "smoky": 20629,
  "voice": 2376,
  "savoy": 16394,
  "absorption": 16326,
  "##ignant": 25593,
  "groves": 21695,
  "war": 2162,
  "##atin": 20363,
  "##holder": 14528,
  "terence": 22677,
  "##uc": 14194,
  "offenses": 25173,
  "ecology": 13517,
  "thrown": 6908,
  "claiming": 6815,
  "þ": 1101,
  "dispersed": 15484,
  "frazier": 26551,
  "islam": 7025,
  "woo": 15854,
  "floppy": 28491,
  "##shin": 17426,
  "appointments": 14651,
  "rib": 19395,
  "flirting": 20661,
  "##kla": 26086,
  "sudanese": 25603,
  "upgrade": 12200,
  "##uki": 14228,
  "##lov": 14301,
  "confidential": 18777,
  "##gut": 27920,
  "##ara": 5400,
  "gaga": 23332,
  "barriers": 13500,
  "lenin": 17497,
  "coaches": 7850,
  "northwest": 4514,
  "canadiens": 21247,
  "spp": 26924,
  "⇌": 1590,
  "##sc": 11020,
  "jewel": 13713,
  "lucille": 28016,
  "scientology": 23845,
  "[unused586]": 591,
  "elsewhere": 6974,
  "variation": 8386,
  "bean": 14068,
  "##チ": 30236,
  "establishment": 5069,
  "rebranded": 18233,
  "¹⁄₂": 18728,
  "tragic": 13800,
  "decent": 11519,
  "distances": 12103,
  "reservoirs": 22535,
  "professor": 2934,
  "cameron": 7232,
  "##iography": 26535,
  "acquaintances": 29409,
  "##no": 3630,
  "partnering": 27001,
  "##ovich": 12303,
  "ambiguous": 20080,
  "[unused281]": 286,
  "convention": 4680,
  "desmond": 16192,
  "offerings": 14927,
  "lotus": 13030,
  "rpg": 22531,
  "あ": 1646,
  "disputed": 11621,
  "consciously": 24447,
  "platform": 4132,
  "sy": 25353,
  "7th": 5504,
  "endelle": 29581,
  "showcased": 22443,
  "fiber": 11917,
  "defective": 28829,
  "chaired": 12282,
  "frequently": 4703,
  "singing": 4823,
  "slightest": 15989,
  "heritage": 4348,
  "crested": 25413,
  "danes": 27476,
  "[unused781]": 786,
  "incarnation": 15715,
  "mirror": 5259,
  "##₃": 11622,
  "baggage": 20220,
  "during": 2076,
  "##ogist": 22522,
  "##ч": 29752,
  "##optera": 25324,
  "vicente": 17280,
  "fiction": 4349,
  "samba": 29086,
  "##cie": 23402,
  "congregation": 7769,
  "ding": 22033,
  "chartered": 12443,
  "heroine": 18869,
  "deliveries": 23534,
  "##bner": 29388,
  "soyuz": 29412,
  "necessitated": 29611,
  "extra": 4469,
  "epoch": 25492,
  "scandals": 29609,
  "farther": 8736,
  "[unused359]": 364,
  "##dan": 7847,
  "alarm": 8598,
  "portage": 25140,
  "1764": 21488,
  "up": 2039,
  "##graph": 14413,
  "calais": 23116,
  "digger": 28661,
  "courageous": 26103,
  "redeveloped": 28053,
  "ec": 14925,
  "party": 2283,
  "##cend": 23865,
  "joint": 4101,
  "lever": 15929,
  "##უ": 29990,
  "congress": 3519,
  "io": 22834,
  "acute": 11325,
  "norma": 20692,
  "russians": 12513,
  "subdivided": 15369,
  "airplay": 15341,
  "rubber": 8903,
  "cracking": 15729,
  "choose": 5454,
  "##utz": 20267,
  "quotes": 16614,
  "churning": 26765,
  "breath": 3052,
  "dietary": 23444,
  "referring": 7727,
  "catholicism": 16138,
  "cautiously": 15151,
  "##rish": 18774,
  "intriguing": 23824,
  "muddy": 15405,
  "bloomington": 26372,
  "guerrilla": 15722,
  "##sett": 21678,
  "dalai": 28511,
  "trailers": 21389,
  "troy": 9553,
  "aroused": 18391,
  "##₁": 11871,
  "##shaft": 25679,
  "[unused766]": 771,
  "amsterdam": 7598,
  "##ˤ": 29719,
  "##pped": 11469,
  "abe": 14863,
  "145": 13741,
  "finished": 2736,
  "indy": 18214,
  "carried": 3344,
  "can": 2064,
  "flames": 7311,
  "##river": 24352,
  "mariners": 18049,
  "brothel": 27308,
  "wilde": 18575,
  "trips": 9109,
  "norwood": 22804,
  "adequate": 11706,
  "roundabout": 22831,
  "likewise": 10655,
  "campaign": 3049,
  "[unused1]": 2,
  "invisible": 8841,
  "##mite": 23419,
  "blankets": 15019,
  "contributing": 8020,
  "reside": 13960,
  "[unused95]": 96,
  "undergoing": 14996,
  "kellan": 19697,
  "hawkins": 13835,
  "ultraviolet": 26299,
  "unicode": 27260,
  "bach": 10384,
  "fluttered": 18360,
  "programmer": 20273,
  "traveling": 7118,
  "layton": 23103,
  "outstretched": 21059,
  "##gun": 12734,
  "mis": 28616,
  "##arian": 12199,
  "insisted": 7278,
  "protege": 28567,
  "[unused571]": 576,
  "fleet": 4170,
  "troops": 3629,
  "invited": 4778,
  "ignorant": 21591,
  "##ක": 29939,
  "ronald": 8923,
  "劉": 1777,
  "revenues": 12594,
  "hancock": 13849,
  "marcia": 22548,
  "september": 2244,
  "##per": 4842,
  "wildcats": 19495,
  "avant": 14815,
  "widespread": 6923,
  "barnard": 22266,
  "定": 1822,
  "affordable": 15184,
  "eli": 12005,
  "millionaire": 19965,
  "famed": 15607,
  "constraints": 14679,
  "atlanta": 5865,
  "invites": 18675,
  "cobalt": 25627,
  "lessons": 8220,
  "away": 2185,
  "technicians": 20202,
  "browser": 16602,
  "trouble": 4390,
  "##nall": 22270,
  "##ering": 7999,
  "dressed": 5102,
  "deviation": 24353,
  "##mal": 9067,
  "barrie": 24953,
  "kenneth": 8856,
  "antagonist": 17379,
  "cheerleading": 25721,
  "unreliable": 23579,
  "##while": 19927,
  "placing": 6885,
  "punished": 14248,
  "shootout": 18297,
  "mounting": 15986,
  "persona": 16115,
  "##anna": 25789,
  "dar": 18243,
  "blackness": 19573,
  "proceedings": 8931,
  "childhood": 5593,
  "centers": 6401,
  "hotel": 3309,
  "delilah": 23006,
  "an": 2019,
  "scheme": 5679,
  "immortals": 26796,
  "soundtracks": 24245,
  "empirical": 17537,
  "##inger": 9912,
  "1742": 25704,
  "joyah": 27098,
  "measurement": 10903,
  "potomac": 18854,
  "[unused979]": 984,
  "counseling": 17041,
  "evergreen": 16899,
  "jeopardy": 26604,
  "willoughby": 24919,
  "##aux": 13754,
  "bloom": 13426,
  "sovereignty": 12601,
  "analytical": 17826,
  "tunes": 13281,
  "282": 26267,
  "anglia": 24217,
  "cattle": 7125,
  "sikhs": 26697,
  "campaigning": 18524,
  "decades": 5109,
  "propagation": 20594,
  "knocked": 6573,
  "leading": 2877,
  "##yya": 19903,
  "scissors": 25806,
  "obscene": 27744,
  "greatest": 4602,
  "byrne": 14928,
  "##gna": 16989,
  "singled": 25369,
  "residue": 21755,
  "turbulent": 22609,
  "furry": 28662,
  "[unused489]": 494,
  "nbc": 6788,
  "##lage": 20679,
  "athens": 7571,
  "july": 2251,
  "merits": 22617,
  "##fles": 28331,
  "422": 29269,
  "golfer": 20601,
  "crisp": 15594,
  "acids": 12737,
  "##ı": 11722,
  "同": 1794,
  "stroked": 11699,
  "messy": 18307,
  "##ical": 7476,
  "prototypes": 19599,
  "owing": 11427,
  "##vac": 24887,
  "calvin": 11130,
  "mrna": 28848,
  "wear": 4929,
  "hundred": 3634,
  "##rates": 20370,
  "[unused862]": 867,
  "sterling": 10933,
  "gladstone": 21765,
  "berlin": 4068,
  "humble": 15716,
  "sensor": 13617,
  "accepting": 10564,
  "ye": 6300,
  "crusaders": 18831,
  "##樹": 30410,
  "avoids": 26777,
  "schedule": 6134,
  "torpedoes": 18544,
  "crew": 3626,
  "firefighters": 21767,
  "law": 2375,
  "reliefs": 27670,
  "chung": 15972,
  "boxing": 8362,
  "heidelberg": 16793,
  "bbc": 4035,
  "alec": 9752,
  "unsigned": 27121,
  "torn": 7950,
  "mecklenburg": 22007,
  "##ruck": 29314,
  "martin": 3235,
  "##ep": 13699,
  "destroyer": 9799,
  "legally": 10142,
  "relocating": 26811,
  "manipulation": 16924,
  "660": 20982,
  "unexpectedly": 14153,
  "##sca": 15782,
  "##rified": 22618,
  "##bbe": 19473,
  "[unused711]": 716,
  "##ative": 8082,
  "stars": 3340,
  "loud": 5189,
  "mage": 17454,
  "nominal": 15087,
  "fae": 17282,
  "advances": 9849,
  "rustling": 29188,
  "##ष": 29873,
  "risky": 19188,
  "restroom": 28249,
  "primaries": 27419,
  "absently": 21284,
  "apologies": 25380,
  "reused": 26513,
  "pleased": 7537,
  "node": 13045,
  "quincy": 16141,
  "軍": 1955,
  "bishopric": 20664,
  "wanna": 10587,
  "##iza": 21335,
  "columbia": 3996,
  "translates": 16315,
  "39th": 22702,
  "inserted": 12889,
  "##シ": 30232,
  "botanic": 27761,
  "lifts": 13695,
  "rains": 15811,
  "##world": 11108,
  "##¿": 29666,
  "practically": 8134,
  "scala": 26743,
  "trying": 2667,
  "ponytail": 18865,
  "antigua": 26023,
  "1795": 13397,
  "##miya": 29312,
  "itunes": 11943,
  "prefer": 9544,
  "malta": 9933,
  "sensation": 8742,
  "ն": 1231,
  "wounds": 8710,
  "consideration": 9584,
  "iris": 11173,
  "situation": 3663,
  "rosenthal": 29062,
  "wit": 15966,
  "##lla": 4571,
  "disposition": 22137,
  "##き": 30178,
  "frontal": 19124,
  "incorrectly": 19721,
  "predecessors": 16372,
  "ducks": 14875,
  "focused": 4208,
  "##iere": 21253,
  "landscaping": 28404,
  "thessaloniki": 23162,
  "physically": 8186,
  "##vale": 17479,
  "fences": 21549,
  "conservative": 4603,
  "##千": 30310,
  "benevolent": 25786,
  "[unused903]": 908,
  "artifacts": 10471,
  "shed": 8328,
  "hacked": 28719,
  "##osis": 12650,
  "buying": 9343,
  "halls": 9873,
  "sorry": 3374,
  "[unused440]": 445,
  "##cm": 27487,
  "##evsky": 27015,
  "##ca": 3540,
  "##pe": 5051,
  "##tch": 10649,
  "gandhi": 12338,
  "##nob": 25083,
  "breakup": 19010,
  "neglected": 15486,
  "##ien": 9013,
  "##ched": 7690,
  "合": 1792,
  "barges": 27712,
  "indicated": 5393,
  "newell": 28052,
  "plasma": 12123,
  "authored": 8786,
  "grades": 7022,
  "##bridge": 6374,
  "communal": 15029,
  "mcbride": 18958,
  "episcopal": 9134,
  "trash": 11669,
  "password": 20786,
  "ы": 1206,
  "bicycles": 21066,
  "##bley": 29538,
  "headquarters": 4075,
  "##roved": 26251,
  "conversely": 18868,
  "month": 3204,
  "warmly": 22775,
  "prosecution": 11537,
  "playground": 14705,
  "ய": 1390,
  "crashed": 8007,
  "semiconductor": 20681,
  "compliance": 12646,
  "gem": 17070,
  "processed": 13995,
  "##adia": 25205,
  "vertigo": 28246,
  "dockyard": 24874,
  "swinging": 11820,
  "dammit": 20878,
  "faust": 24021,
  "sorcerer": 23324,
  "maori": 12600,
  "voiced": 6126,
  "##dun": 27584,
  "eps": 20383,
  "##antly": 15706,
  "##義": 30462,
  "bourgeois": 22846,
  "gershwin": 25600,
  "6": 1020,
  "##¹": 27904,
  "describe": 6235,
  "tube": 7270,
  "bombay": 11831,
  "vinci": 23765,
  "##nl": 20554,
  "##ᅯ": 30015,
  "santo": 11685,
  "##ᄑ": 30004,
  "meta": 18804,
  "rising": 4803,
  "versatile": 22979,
  "##talk": 28014,
  "piercing": 14628,
  "1200": 14840,
  "[unused784]": 789,
  "wraps": 19735,
  "##elling": 23918,
  "mumbai": 8955,
  "operative": 12160,
  "serbian": 6514,
  "interlude": 25347,
  "mcpherson": 24332,
  "rating": 5790,
  "[unused89]": 90,
  "temperate": 16868,
  "##tist": 16774,
  "##口": 30314,
  "##rnik": 26437,
  "homage": 14822,
  "uv": 23068,
  "mythology": 11327,
  "##tler": 25091,
  "mba": 15038,
  "##tas": 10230,
  "athletes": 7576,
  "carrying": 4755,
  "crane": 11308,
  "desirable": 16166,
  "subsidiaries": 20178,
  "deemed": 8357,
  "boating": 23639,
  "##33": 22394,
  "tal": 21368,
  "elaine": 15263,
  "startup": 22752,
  "marquez": 27320,
  "##英": 30467,
  "maritime": 7803,
  "penitentiary": 29569,
  "##llary": 24435,
  "elegant": 11552,
  "##31": 21486,
  "three": 2093,
  "excerpt": 28142,
  "slot": 10453,
  "annoyed": 11654,
  "motorsport": 21044,
  "dealing": 7149,
  "##body": 23684,
  "chen": 8802,
  "discusses": 15841,
  "##orra": 24285,
  "nose": 4451,
  "hen": 21863,
  "ninety": 13568,
  "brooding": 28902,
  "fights": 9590,
  "apply": 6611,
  "clicks": 29225,
  "eased": 10987,
  "demand": 5157,
  "phases": 12335,
  "booth": 9065,
  "searching": 6575,
  "##pts": 22798,
  "medication": 14667,
  "hesitant": 20221,
  "christians": 8135,
  "limitations": 12546,
  "##„": 30060,
  "eastman": 24252,
  "tad": 18819,
  "reported": 2988,
  "lang": 11374,
  "##″": 30067,
  "##ridge": 9438,
  "久": 1748,
  "starters": 29400,
  "thugs": 24106,
  "##onic": 12356,
  "mutter": 23457,
  "percent": 3867,
  "abolitionist": 29554,
  "##ractive": 26884,
  "recommendations": 11433,
  "groundbreaking": 23222,
  "##thes": 24138,
  "mbc": 27262,
  "lynn": 9399,
  "karin": 24537,
  "nicola": 17388,
  "intelligent": 9414,
  "utilities": 16548,
  "##ish": 4509,
  "unofficially": 29322,
  "chester": 8812,
  "death": 2331,
  "resentment": 20234,
  "ipswich": 15435,
  "paperwork": 17397,
  "##dre": 16200,
  "pointedly": 28713,
  "juvenile": 11799,
  "intimate": 10305,
  "belize": 18867,
  "halves": 23672,
  "childish": 24282,
  "ign": 16270,
  "mccartney": 15320,
  "buckle": 22853,
  "nationally": 9582,
  "joao": 16304,
  "double": 3313,
  "published": 2405,
  "rigorous": 20001,
  "narcotics": 27290,
  "listeners": 13810,
  "keller": 16155,
  "confusing": 16801,
  "strife": 27865,
  "compiled": 9227,
  "opportunities": 6695,
  "falsely": 23123,
  "«": 1077,
  "→": 1585,
  "256": 17273,
  "##ﬁ": 30510,
  "##kki": 24103,
  "##এ": 29887,
  "applause": 20737,
  "##rgo": 18581,
  "idiot": 10041,
  "stalker": 23883,
  "stampede": 29375,
  "osaka": 13000,
  "mona": 13813,
  "sinister": 16491,
  "kota": 23856,
  "airship": 27636,
  "messiah": 22112,
  "1656": 28434,
  "blinded": 20641,
  "newton": 8446,
  "alonso": 17649,
  "complement": 13711,
  "ᅢ": 1471,
  "settings": 10906,
  "fitz": 27706,
  "##rift": 16338,
  "dropped": 3333,
  "epidemic": 16311,
  "topography": 21535,
  "##lus": 7393,
  "empowered": 26480,
  "adapting": 25357,
  "ᴵ": 1493,
  "providence": 11293,
  "minogue": 27736,
  "pearce": 19560,
  "discontinued": 8944,
  "pope": 4831,
  "[unused373]": 378,
  "crowns": 24364,
  "rink": 18416,
  "armenia": 10110,
  "staple": 18785,
  "elena": 9060,
  "warrington": 23051,
  "eyed": 7168,
  "[unused709]": 714,
  "recipients": 15991,
  "antoine": 12445,
  "##lab": 20470,
  "terra": 14403,
  "depart": 18280,
  "disruption": 20461,
  "johansson": 26447,
  "chromosome": 16706,
  "depending": 5834,
  "kyle": 7648,
  "venerable": 24541,
  "approx": 22480,
  "##sian": 17043,
  "arcade": 10877,
  "dramatic": 6918,
  "##з": 29744,
  "[unused693]": 698,
  "uta": 28981,
  "affiliated": 6989,
  "malacca": 28481,
  "treatise": 15326,
  "plainly": 24250,
  "indian": 2796,
  "。": 1636,
  "seam": 25180,
  "judy": 12120,
  "gaul": 26522,
  "soaring": 23990,
  "##dity": 25469,
  "fictitious": 23577,
  "effortlessly": 29483,
  "##ldon": 19932,
  "exceptions": 11790,
  "ensign": 19890,
  "departed": 7745,
  "##ske": 17140,
  "273": 25371,
  "cushion": 22936,
  "introductory": 23889,
  "divides": 20487,
  "bum": 26352,
  "struggling": 8084,
  "##wi": 9148,
  "gifts": 9604,
  "offered": 3253,
  "borrowing": 23733,
  "##？": 30520,
  "⟨": 1629,
  "1775": 14276,
  "cavity": 17790,
  "degradation": 16627,
  "delight": 12208,
  "ride": 4536,
  "enforced": 16348,
  "##garh": 13484,
  "craftsmen": 25736,
  "##tight": 26143,
  "influence": 3747,
  "backstage": 20212,
  "parliamentary": 5768,
  "cheated": 22673,
  "charting": 17918,
  "admiral": 5902,
  "kerry": 11260,
  "obeyed": 22665,
  "towers": 7626,
  "brand": 4435,
  "##rana": 16737,
  "killed": 2730,
  "daily": 3679,
  "prone": 13047,
  "survivor": 12084,
  "##80": 17914,
  "considerations": 16852,
  "fraser": 9443,
  "quicker": 19059,
  "look": 2298,
  "river": 2314,
  "printed": 6267,
  "cricket": 4533,
  "washington": 2899,
  "soda": 14904,
  "sherlock": 20052,
  "harold": 7157,
  "wrecked": 18480,
  "police": 2610,
  "engraver": 27771,
  "broadcasters": 18706,
  "∅": 1593,
  "##oid": 9314,
  "managerial": 24465,
  "nikolai": 13870,
  "grape": 14722,
  "##tter": 12079,
  "commander": 3474,
  "expulsion": 18272,
  "nw": 22064,
  "も": 1681,
  "jia": 25871,
  "dissolve": 21969,
  "asia": 4021,
  "mommy": 20565,
  "##azi": 16103,
  "com": 4012,
  "riches": 26768,
  "2010s": 26817,
  "##ania": 13241,
  "priscilla": 25193,
  "neural": 15756,
  "bothering": 17067,
  "##nde": 13629,
  "vhf": 27527,
  "slang": 21435,
  "alicia": 15935,
  "vernon": 11447,
  "pollen": 22482,
  "liability": 14000,
  "spielberg": 28740,
  "burrows": 22009,
  "joked": 19700,
  "nationwide": 9053,
  "equilibrium": 14442,
  "symmetric": 19490,
  "neoclassical": 22657,
  "physician": 7522,
  "rafe": 15819,
  "regret": 9038,
  "[unused786]": 791,
  "troopers": 26246,
  "milling": 22491,
  "andrea": 8657,
  "##aan": 14634,
  "##ɛ": 29275,
  "expand": 7818,
  "pupils": 7391,
  "##tland": 19270,
  "ve": 2310,
  "ja": 14855,
  "walton": 14290,
  "##sworth": 12255,
  "jess": 12245,
  "wehrmacht": 23443,
  "##ics": 6558,
  "##ago": 23692,
  "escorted": 13127,
  "329": 29567,
  "cowan": 25752,
  "harrison": 6676,
  "laughing": 5870,
  "##秋": 30455,
  "sermons": 20855,
  "timor": 19746,
  "mandy": 18193,
  "yates": 20356,
  "##croft": 14716,
  "fathers": 11397,
  "jamestown": 27435,
  "detroit": 5626,
  "##60": 16086,
  "hornets": 24855,
  "slalom": 19617,
  "##rb": 15185,
  "institutional": 12148,
  "portuguese": 5077,
  "king": 2332,
  "avila": 29079,
  "安": 1820,
  "hyderabad": 13624,
  "wellington": 8409,
  "##chment": 22729,
  "uss": 7234,
  "##hea": 20192,
  "fugitive": 21329,
  "genera": 11416,
  "holding": 3173,
  "57th": 28623,
  "displeasure": 28606,
  "##biology": 21685,
  "[unused267]": 272,
  "dame": 8214,
  "wr": 23277,
  "julian": 6426,
  "straits": 18849,
  "streets": 4534,
  "luxury": 9542,
  "ellen": 9155,
  "friars": 24037,
  "attention": 3086,
  "##mare": 24376,
  "##chers": 21844,
  "camped": 27077,
  "aspirations": 22877,
  "deaf": 12419,
  "jimmy": 5261,
  "horns": 11569,
  "limitation": 22718,
  "alternate": 6585,
  "##bury": 4917,
  "adventure": 6172,
  "##ference": 25523,
  "clash": 13249,
  "nape": 23634,
  "exit": 6164,
  "objected": 15959,
  "paradigm": 20680,
  "intense": 6387,
  "dot": 11089,
  "switzerland": 5288,
  "submerged": 13563,
  "angry": 4854,
  "##creen": 24410,
  "##باد": 25799,
  "parc": 27985,
  "assemble": 21365,
  "width": 9381,
  "##vio": 25500,
  "invertebrates": 25700,
  "busy": 5697,
  "##hay": 24180,
  "constituent": 13794,
  "shots": 7171,
  "##´": 29658,
  "cam": 11503,
  "defiance": 19674,
  "##lices": 29146,
  "letterman": 26593,
  "maroon": 22222,
  "racks": 27259,
  "mace": 19382,
  "erskine": 27139,
  "digits": 16648,
  "rosy": 26851,
  "conspiracy": 9714,
  "accused": 5496,
  "magdalena": 23984,
  "[unused937]": 942,
  "chronic": 11888,
  "regency": 15647,
  "jon": 6285,
  "interrupt": 17938,
  "dimensions": 9646,
  "xx": 22038,
  "pointing": 7302,
  "freaking": 13847,
  "[unused905]": 910,
  "##mata": 21022,
  "chess": 7433,
  "laying": 10201,
  "##gno": 26745,
  "guts": 18453,
  "lahore": 15036,
  "settler": 18556,
  "insisting": 22604,
  "1918": 4271,
  "traumatic": 19686,
  "cebu": 23312,
  "commemoration": 22377,
  "teeth": 4091,
  "ren": 14916,
  "27": 2676,
  "persist": 29486,
  "edged": 13011,
  "alterations": 16705,
  "##χ": 29737,
  "airlift": 20019,
  "fully": 3929,
  "difficulties": 8190,
  "worcestershire": 20218,
  "substantive": 27737,
  "alistair": 23752,
  "competence": 22219,
  "ian": 4775,
  "coveted": 28821,
  "##ᄂ": 29992,
  "showdown": 24419,
  "##enes": 28553,
  "nesting": 21016,
  "bikes": 18105,
  "##≥": 30136,
  "potatoes": 14629,
  "comets": 27138,
  "aside": 4998,
  "fascist": 14870,
  "##isen": 28992,
  "smashed": 14368,
  "[unused202]": 207,
  "gall": 26033,
  "bureau": 4879,
  "shells": 10986,
  "ambitions": 19509,
  "lucrative": 21115,
  "##rden": 18246,
  "compare": 12826,
  "##flict": 29301,
  "##}": 29642,
  "[unused138]": 143,
  "##smo": 25855,
  "poetry": 4623,
  "[unused357]": 362,
  "contrary": 10043,
  "loving": 8295,
  "crowley": 20748,
  "madhya": 20841,
  "276": 25113,
  "franciscan": 19420,
  "[unused345]": 350,
  "repulsed": 24571,
  "addict": 26855,
  "1640": 21533,
  "austrians": 28439,
  "twisted": 6389,
  "lds": 17627,
  "alfredo": 19423,
  "possessions": 13689,
  "major": 2350,
  "lamb": 12559,
  "sick": 5305,
  "belfast": 10330,
  "kawasaki": 27324,
  "lifestyle": 9580,
  "sturdy": 23073,
  "weekdays": 19759,
  "##umb": 25438,
  "space": 2686,
  "##辶": 30482,
  "##aly": 20766,
  "##2": 2475,
  "instead": 2612,
  "##mber": 21784,
  "stunts": 28465,
  "styx": 21856,
  "##wives": 23744,
  "buds": 26734,
  "portugal": 5978,
  "discouraged": 22585,
  "working": 2551,
  "hess": 23484,
  "##lines": 12735,
  "stemmed": 27674,
  "insistent": 29204,
  "##ogenic": 24278,
  "rainfall": 10101,
  "any": 2151,
  "##istle": 24242,
  "コ": 1704,
  "optimization": 20600,
  "global": 3795,
  "inferno": 21848,
  "##cial": 13247,
  "pancakes": 28470,
  "oriental": 11481,
  "##大": 30336,
  "##α": 14608,
  "[unused830]": 835,
  "##崎": 30360,
  "cds": 14340,
  "##bry": 25731,
  "signalling": 21919,
  "170": 10894,
  "set": 2275,
  "commanding": 7991,
  "mixing": 6809,
  "foyer": 16683,
  "eyre": 26975,
  "multi": 4800,
  "##raction": 25533,
  "inheritance": 12839,
  "ubiquitous": 28498,
  "consumption": 8381,
  "peabody": 20004,
  "rhythm": 6348,
  "positions": 4460,
  "ⁿ": 1546,
  "resulted": 4504,
  "az": 17207,
  "talk": 2831,
  "trench": 14185,
  "express": 4671,
  "##ond": 15422,
  "mostly": 3262,
  "ticking": 28561,
  "##kers": 11451,
  "##dicated": 26022,
  "frequent": 6976,
  "commerce": 6236,
  "customs": 8205,
  "1688": 24082,
  "[unused676]": 681,
  "##sef": 20106,
  "##rating": 15172,
  "rotherham": 27456,
  "₆": 1553,
  "raja": 10164,
  "[unused383]": 388,
  "blasted": 18461,
  "ezekiel": 28743,
  "心": 1849,
  "1713": 27016,
  "dim": 11737,
  "clusters": 12906,
  "lifespan": 26462,
  "singleton": 28159,
  "mir": 14719,
  "##nock": 18057,
  "horseback": 19926,
  "sleeping": 5777,
  "piazza": 22463,
  "myspace": 24927,
  "mgm": 15418,
  "ticked": 26019,
  "blend": 12586,
  "##linger": 23101,
  "contested": 7259,
  "cookies": 16324,
  "##idon": 28201,
  "marek": 29318,
  "pets": 18551,
  "geology": 13404,
  "declaration": 8170,
  "ceylon": 16447,
  "nationality": 10662,
  "marriages": 12743,
  "shanghai": 8344,
  "immortality": 20107,
  "mantra": 25951,
  "cactus": 23265,
  "##tura": 27431,
  "girls": 3057,
  "measures": 5761,
  "₈": 1555,
  "##codes": 23237,
  "##inho": 29344,
  "[unused883]": 888,
  "doomed": 20076,
  "lean": 8155,
  "syrup": 23353,
  "allen": 5297,
  "ক": 1353,
  "##eration": 16754,
  "[unused924]": 929,
  "payments": 10504,
  "nicky": 20158,
  "dried": 9550,
  "papal": 12156,
  "[unused804]": 809,
  "clamped": 18597,
  "##ne": 2638,
  "elmer": 21464,
  "##oft": 15794,
  "strikers": 26049,
  "hiding": 6318,
  "anatomy": 13336,
  "##ges": 8449,
  "##פ": 29807,
  "offset": 16396,
  "##hore": 16892,
  "entering": 5738,
  "curse": 8364,
  "ת": 1267,
  "robyn": 28047,
  "##kota": 27380,
  "temper": 12178,
  "##df": 20952,
  "huts": 23326,
  "26": 2656,
  "terminal": 5536,
  "becker": 15309,
  "sites": 4573,
  "cosmic": 14448,
  "mentions": 9704,
  "##：": 30519,
  "jing": 21536,
  "hail": 16889,
  "splitting": 14541,
  "ヘ": 1721,
  "biochemistry": 22419,
  "##都": 30487,
  "skeptical": 18386,
  "##onal": 16026,
  "memorandum": 20336,
  "dvds": 22477,
  "##piece": 11198,
  "coefficient": 19064,
  "peaked": 6601,
  "##wan": 7447,
  "spade": 23288,
  "##physical": 23302,
  "pressed": 4508,
  "remember": 3342,
  "prague": 8634,
  "hydrogen": 9732,
  "##moor": 17622,
  "zoological": 26168,
  "charms": 24044,
  "assaults": 22664,
  "brussels": 9371,
  "conceded": 15848,
  "citing": 8951,
  "wan": 14071,
  "peripheral": 15965,
  "charges": 5571,
  "species": 2427,
  "##written": 15773,
  "skipper": 23249,
  "era": 3690,
  "mortals": 23844,
  "hind": 17666,
  "##ags": 26454,
  "source": 3120,
  "centimeters": 18119,
  "decoration": 11446,
  "kai": 11928,
  "##bino": 21891,
  "bayer": 26367,
  "##ets": 8454,
  "makeup": 5789,
  "biennial": 20313,
  "eastward": 17318,
  "##atus": 15590,
  "##movable": 25661,
  "healing": 8907,
  "protein": 5250,
  "yarn": 27158,
  "livestock": 11468,
  "enemies": 6716,
  "punish": 16385,
  "##ras": 8180,
  "firstly": 15847,
  "##rator": 16259,
  "filmmaker": 12127,
  "muslim": 5152,
  "limb": 15291,
  "quan": 24110,
  "accessories": 16611,
  "131": 14677,
  "r": 1054,
  "statistical": 7778,
  "181": 18596,
  "野": 1963,
  "outdated": 25963,
  "trustee": 13209,
  "record": 2501,
  "[unused529]": 534,
  "chamberlain": 13904,
  "##bey": 19182,
  "[unused902]": 907,
  "coulter": 28293,
  "##rger": 25858,
  "durban": 25040,
  "walls": 3681,
  "##not": 17048,
  "bel": 19337,
  "##imated": 20592,
  "ratios": 21879,
  "purge": 24694,
  "emphasize": 17902,
  "[unused436]": 441,
  "##rd": 4103,
  "wolfe": 14212,
  "drumming": 22980,
  "defeat": 4154,
  "licking": 17033,
  "[unused131]": 136,
  "bulbs": 25548,
  "stimulus": 19220,
  "circulated": 17640,
  "grain": 8982,
  "##մ": 29776,
  "smelled": 9557,
  "images": 4871,
  "malabar": 28785,
  "uncommon": 13191,
  "tumbling": 21552,
  "scholarly": 12683,
  "suns": 19352,
  "domestically": 27143,
  "curving": 21439,
  "statement": 4861,
  "repay": 24565,
  "estates": 8707,
  "alabama": 6041,
  "##cology": 19824,
  "##buro": 23670,
  "clyde": 12085,
  "zeppelin": 22116,
  "bryant": 12471,
  "##ection": 18491,
  "avoid": 4468,
  "1630": 24994,
  "138": 15028,
  "##gaon": 27073,
  "[unused49]": 50,
  "pool": 4770,
  "ி": 1396,
  "ட": 1384,
  "jerked": 8245,
  "ny": 6396,
  "modulation": 25502,
  "congenital": 27480,
  "henrik": 18745,
  "##ᵘ": 30042,
  "scorpion": 22015,
  "differential": 11658,
  "##あ": 30172,
  "bethel": 19375,
  "numbered": 8597,
  "left": 2187,
  "##iform": 22631,
  "papyrus": 29575,
  "1906": 5518,
  "##cton": 28312,
  "171": 18225,
  "expectation": 17626,
  "##lke": 28143,
  "riots": 12925,
  "diagrams": 26309,
  "touchdowns": 10183,
  "198": 20003,
  "น": 1413,
  "horace": 12757,
  "⁰": 1536,
  "之": 1749,
  "offs": 12446,
  "battling": 17773,
  "scarlett": 20862,
  "heroism": 27117,
  "incorporation": 16935,
  "temperance": 23372,
  "optics": 21026,
  "streamlined": 29445,
  "∩": 1604,
  "1603": 25625,
  "signature": 8085,
  "##ʊ": 29698,
  "caden": 23600,
  "yankees": 11081,
  "buses": 7793,
  "colchester": 20115,
  "participating": 8019,
  "巿": 1837,
  "[unused993]": 998,
  "##gent": 11461,
  "discrimination": 9147,
  "wa": 11333,
  "shelly": 28360,
  "track": 2650,
  "downtown": 5116,
  "##rf": 12881,
  "##史": 30316,
  "kelvin": 24810,
  "heinz": 17655,
  "observations": 9420,
  "terminate": 20320,
  "##urized": 28405,
  "haunt": 24542,
  "##iface": 29164,
  "morrow": 19084,
  "##agi": 22974,
  "wed": 21981,
  "##rrado": 27933,
  "##nesian": 20281,
  "approach": 3921,
  "介": 1759,
  "[unused487]": 492,
  "inhibition": 23586,
  "curtains": 14694,
  "soup": 11350,
  "1916": 4947,
  "phoenix": 6708,
  "subterranean": 28811,
  "coming": 2746,
  "organising": 21317,
  "ま": 1677,
  "stripping": 23987,
  "1682": 29478,
  "[unused270]": 275,
  "professionals": 8390,
  "1952": 3999,
  "poem": 5961,
  "##gil": 20142,
  "manners": 14632,
  "##ato": 10610,
  "faerie": 27498,
  "forwards": 19390,
  "##mple": 23344,
  "jacksonville": 13057,
  "##duk": 28351,
  "orientation": 10296,
  "national": 2120,
  "fitzroy": 21870,
  "moods": 27824,
  "##pose": 20688,
  "exile": 8340,
  "abdul": 10298,
  "reflections": 16055,
  "quezon": 26564,
  "ত": 1362,
  "ח": 1248,
  "reasons": 4436,
  "tea": 5572,
  "##ট": 29895,
  "denise": 15339,
  "bmw": 13154,
  "tuscany": 23322,
  "hugs": 24459,
  "##an": 2319,
  "its": 2049,
  "止": 1887,
  "00pm": 27995,
  "pratt": 13208,
  "ferrara": 28635,
  "##born": 10280,
  "##zu": 9759,
  "invade": 18445,
  "##iche": 17322,
  "cans": 18484,
  "fuscous": 18121,
  "mons": 29408,
  "arrays": 27448,
  "1629": 27882,
  "##ckle": 19250,
  "##over": 7840,
  "showered": 23973,
  "carey": 11782,
  "wellesley": 25658,
  "heard": 2657,
  "minimize": 18478,
  "diagnosed": 11441,
  "##lt": 7096,
  "hub": 9594,
  "holm": 28925,
  "communes": 16569,
  "##tops": 25181,
  "shocked": 7135,
  "[unused422]": 427,
  "fronted": 23291,
  "havoc": 22156,
  "religion": 4676,
  "cree": 27831,
  "screwed": 14180,
  "last": 2197,
  "##hiti": 27798,
  "breakthrough": 12687,
  "violations": 13302,
  "curtiss": 26431,
  "##gia": 10440,
  "##ped": 5669,
  "##ი": 29981,
  "tommy": 6838,
  "##we": 8545,
  "henan": 27837,
  "snapped": 5941,
  "spawning": 27957,
  "mbe": 20301,
  "л": 1190,
  "##guchi": 16918,
  "##ན": 29965,
  "omaha": 12864,
  "##vary": 21639,
  "1714": 25241,
  "soundtrack": 6050,
  "highlight": 12944,
  "treatments": 13441,
  "gone": 2908,
  "yes": 2748,
  "xinjiang": 25904,
  "francs": 24313,
  "##ans": 6962,
  "##bill": 24457,
  "##kus": 22332,
  "bihar": 16178,
  "##ggio": 20650,
  "boasted": 23390,
  "thoroughly": 12246,
  "swami": 20087,
  "craved": 25155,
  "angela": 10413,
  "[unused369]": 374,
  "defenses": 13345,
  "robber": 27307,
  "td": 14595,
  "feral": 18993,
  "ingrid": 22093,
  "nephew": 7833,
  "pu": 16405,
  "executing": 23448,
  "##mouth": 14359,
  "⊗": 1613,
  "،": 1268,
  "tn": 28286,
  "201": 16345,
  "##type": 13874,
  "isabelle": 13942,
  "winked": 14217,
  "184": 19681,
  "##itating": 16518,
  "##mun": 23041,
  "82": 6445,
  "kemp": 20441,
  "##ost": 14122,
  "townships": 13991,
  "confronts": 17628,
  "rehabilitation": 11252,
  "herzegovina": 11453,
  "coffee": 4157,
  "trans": 9099,
  "trigger": 9495,
  "rochester": 10541,
  "parameter": 16381,
  "hindus": 18221,
  "vin": 19354,
  "controllers": 21257,
  "jersey": 3933,
  "cement": 11297,
  "investment": 5211,
  "cryptic": 26483,
  "peach": 18237,
  "retreating": 17512,
  "##ᄆ": 29995,
  "leary": 22986,
  "import": 12324,
  "georgie": 20280,
  "commotion": 23960,
  "property": 3200,
  "feared": 8615,
  "remix": 6136,
  "##dridge": 21482,
  "chiefly": 15897,
  "northwestern": 7855,
  "##耳": 30463,
  "absorb": 16888,
  "tchaikovsky": 25900,
  "logistics": 12708,
  "nba": 6452,
  "##hoe": 14490,
  "performance": 2836,
  "ornamental": 18200,
  "清": 1903,
  "##rit": 14778,
  "##ivision": 24607,
  "im": 10047,
  "damned": 9636,
  "quantitative": 20155,
  "[unused952]": 957,
  "sectors": 11105,
  "##rix": 17682,
  "exasperated": 24379,
  "flush": 13862,
  "##yan": 7054,
  "##ch": 2818,
  "bmg": 24499,
  "clipped": 20144,
  "##ean": 11219,
  "tap": 11112,
  "herman": 11458,
  "davey": 20436,
  "60s": 20341,
  "utterly": 12580,
  "tottenham": 18127,
  "maclean": 22528,
  "[unused376]": 381,
  "mazda": 25286,
  "##grate": 22780,
  "##ductive": 26638,
  "consequently": 8821,
  "##pressing": 24128,
  "ict": 25891,
  "odi": 21045,
  "joel": 8963,
  "า": 1422,
  "ismail": 19214,
  "watching": 3666,
  "gaulle": 28724,
  "buddhist": 7992,
  "adaptive": 19293,
  "sadly": 13718,
  "preferred": 6871,
  "identifiable": 27800,
  "##rned": 21119,
  "delegate": 11849,
  "vs": 5443,
  "versailles": 18346,
  "greenberg": 24190,
  "##ente": 15781,
  "soy": 25176,
  "##rooms": 29020,
  "fc": 4429,
  "illegitimate": 18102,
  "helmut": 24515,
  "artist": 3063,
  "consort": 13440,
  "motivated": 12774,
  "testosterone": 25937,
  "indefinite": 25617,
  "baden": 12189,
  "##firm": 27972,
  "lafayette": 14425,
  "kindly": 19045,
  "occasionally": 5681,
  "epilogue": 24297,
  "elisabeth": 12877,
  "gp": 14246,
  "saxon": 10038,
  "shawn": 13218,
  "##quisite": 24871,
  "prayers": 12583,
  "arriving": 7194,
  "coach": 2873,
  "retracted": 28214,
  "hawker": 23937,
  "pacing": 15732,
  "nasa": 9274,
  "summer": 2621,
  "##sfield": 15951,
  "known": 2124,
  "alf": 24493,
  "scarf": 18982,
  "womb": 26578,
  "connecting": 7176,
  "maria": 3814,
  "ceasefire": 26277,
  "chassis": 11832,
  "miracle": 9727,
  "##gina": 20876,
  "sargent": 27599,
  "lanterns": 26078,
  "dent": 21418,
  "prelate": 26595,
  "a1": 17350,
  "centro": 18120,
  "missed": 4771,
  "ferrer": 28390,
  "carries": 7883,
  "upset": 6314,
  "##top": 14399,
  "starts": 4627,
  "riders": 8195,
  "[unused597]": 602,
  "cunningham": 13652,
  "2002": 2526,
  "joyce": 11830,
  "libby": 19533,
  "##yin": 25811,
  "藤": 1944,
  "responds": 16412,
  "prank": 26418,
  "[unused505]": 510,
  "wolfgang": 13865,
  "417": 27519,
  "よ": 1684,
  "finds": 4858,
  "##rmin": 27512,
  "白": 1915,
  "reformed": 9114,
  "diamond": 6323,
  "##qual": 26426,
  "margot": 29210,
  "233": 22115,
  "contributes": 16605,
  "1679": 27924,
  "mayor": 3664,
  "bra": 11655,
  "installment": 18932,
  "blush": 16688,
  "frankie": 12784,
  "[unused567]": 572,
  "241": 22343,
  "2500": 25108,
  "##giving": 23795,
  "korea": 4420,
  "##agh": 17988,
  "##cen": 27524,
  "mac": 6097,
  "##heads": 13038,
  "speculated": 15520,
  "tequila": 26791,
  "##mento": 23065,
  "rudy": 18254,
  "省": 1920,
  "##語": 30476,
  "serum": 20194,
  "eliminated": 5892,
  "nutrient": 26780,
  "bowen": 16208,
  "celebration": 7401,
  "##izations": 22318,
  "massif": 24875,
  "calcutta": 13419,
  "euro": 9944,
  "##vos": 19862,
  "##down": 7698,
  "apartheid": 17862,
  "##.": 29625,
  "weight": 3635,
  "[unused313]": 318,
  "victims": 5694,
  "[unused387]": 392,
  "ai": 9932,
  "explodes": 27583,
  "intern": 25204,
  "pulsing": 23139,
  "##bau": 27773,
  "options": 7047,
  "api": 17928,
  "computing": 9798,
  "##itch": 20189,
  "heck": 17752,
  "repression": 22422,
  "##≡": 30134,
  "developers": 9797,
  "globally": 16452,
  "moral": 7191,
  "lars": 16357,
  "josephine": 16117,
  "coughing": 21454,
  "##oga": 18170,
  "bathroom": 5723,
  "robe": 11111,
  "injury": 4544,
  "brink": 20911,
  "[unused210]": 215,
  "[unused424]": 429,
  "botswana": 19414,
  "##gol": 24141,
  "n": 1050,
  "##oes": 22504,
  "fragrance": 24980,
  "beaches": 12212,
  "commemorated": 19131,
  "##lous": 15534,
  "heirs": 15891,
  "saddle": 12279,
  "borough": 5538,
  "ankles": 15392,
  "dixon": 11357,
  "elector": 20374,
  "willard": 19138,
  "##ᆯ": 30022,
  "##oa": 10441,
  "thou": 15223,
  "##nesia": 21509,
  "28": 2654,
  "chili": 20238,
  "argument": 6685,
  "ს": 1452,
  "##imi": 27605,
  "asbestos": 29191,
  "sheikh": 12840,
  "loyola": 21580,
  "nee": 7663,
  "light": 2422,
  "[unused117]": 122,
  "aeronautical": 25010,
  "##ner": 3678,
  "handles": 16024,
  "##rring": 18807,
  "[unused494]": 499,
  "##vin": 6371,
  "##lic": 10415,
  "plantation": 10065,
  "muhammad": 7187,
  "512": 24406,
  "galaxies": 21706,
  "え": 1649,
  "aristotle": 17484,
  "devoid": 22808,
  "renowned": 8228,
  "##mara": 28225,
  "worst": 5409,
  "bradford": 9999,
  "pinyin": 9973,
  "##ille": 10484,
  "catherine": 6615,
  "utrecht": 18361,
  "developmental": 13908,
  "synthesizer": 13564,
  "diablo": 28841,
  "relocated": 7448,
  "recent": 3522,
  "christensen": 24189,
  "keen": 10326,
  "negligence": 27988,
  "##lets": 13461,
  "##ib": 12322,
  "surroundings": 11301,
  "communion": 15661,
  "gloves": 11875,
  "intercontinental": 18725,
  "+": 1009,
  "bret": 25626,
  "##rang": 24388,
  "obscure": 14485,
  "semifinal": 16797,
  "##uh": 27225,
  "work": 2147,
  "learn": 4553,
  "shaking": 5513,
  "hawthorn": 21671,
  "versions": 4617,
  "clenched": 8555,
  "aragon": 16146,
  "assumed": 5071,
  "job": 3105,
  "₉": 1556,
  "steered": 23424,
  "sabine": 18578,
  "provence": 19923,
  "ingram": 23231,
  "slits": 29199,
  "jones": 3557,
  "blind": 6397,
  "ic": 24582,
  "[unused309]": 314,
  "lola": 15137,
  "bryce": 19757,
  "guthrie": 19952,
  "posters": 14921,
  "##յ": 29777,
  "##jee": 16963,
  "jul": 21650,
  "≡": 1607,
  "##kir": 23630,
  "##gree": 28637,
  "200": 3263,
  "looking": 2559,
  "situations": 8146,
  "[unused5]": 6,
  "cruises": 23986,
  "##aine": 18175,
  "amusement": 9778,
  "raleigh": 15842,
  "conference": 3034,
  "macleod": 23075,
  "elevators": 19406,
  "anti": 3424,
  "halftime": 22589,
  "palm": 5340,
  "[unused970]": 975,
  "##tson": 25656,
  "##gat": 20697,
  "morley": 20653,
  "clips": 15281,
  "curator": 13023,
  "submarines": 12622,
  "detectors": 25971,
  "natives": 12493,
  "hs": 26236,
  "mcgill": 17919,
  "attic": 14832,
  "[unused532]": 537,
  "##bolt": 22803,
  "##a": 2050,
  "[CLS]": 101,
  "lockheed": 17646,
  "handy": 18801,
  "gutierrez": 20836,
  "listening": 5962,
  "##naire": 20589,
  "pad": 11687,
  "lina": 27022,
  "suriname": 25050,
  "madrid": 6921,
  "##ana": 5162,
  "silvio": 28107,
  "closer": 3553,
  "pleaded": 12254,
  "productions": 5453,
  "ᵒ": 1503,
  "marker": 12115,
  "anthropology": 12795,
  "fill": 6039,
  "allowed": 3039,
  "encyclopedia": 12204,
  "##gg": 13871,
  "battled": 19787,
  "pour": 10364,
  "clouds": 8044,
  "vault": 11632,
  "motives": 17108,
  "nawab": 26543,
  "##aman": 23093,
  "##up": 6279,
  "mandate": 11405,
  "wigan": 15598,
  "##を": 30216,
  "º": 1089,
  "れ": 1688,
  "zane": 6944,
  "newsweek": 26948,
  "##mide": 24284,
  "frustrating": 25198,
  "stairwell": 22109,
  "[unused752]": 757,
  "##ि": 29877,
  "agree": 5993,
  "mathew": 25436,
  "##efe": 27235,
  "repealed": 21492,
  "dealers": 16743,
  "##ute": 10421,
  "##dana": 25917,
  "##enne": 24336,
  "bien": 29316,
  "inspiration": 7780,
  "verify": 20410,
  "[unused66]": 67,
  "##ided": 14097,
  "##mis": 15630,
  "[unused216]": 221,
  "lots": 7167,
  "precise": 10480,
  "finale": 9599,
  "##‖": 30054,
  "gaelic": 11196,
  "buckley": 17898,
  "##building": 25820,
  "archives": 8264,
  "747": 25374,
  "engages": 24255,
  "##isation": 6648,
  "terrorism": 10130,
  "whilst": 5819,
  "siam": 25583,
  "forearms": 27323,
  "gain": 5114,
  "laureate": 17656,
  "bryan": 8527,
  "removed": 3718,
  "245": 21005,
  "[unused229]": 234,
  "distant": 6802,
  "cerro": 25498,
  "##gny": 19393,
  "congo": 9030,
  "vamps": 24064,
  "401": 22649,
  "dealt": 9411,
  "respect": 4847,
  "##°": 7737,
  "pressing": 7827,
  "##b": 2497,
  "marcos": 14810,
  "##mar": 7849,
  "simmons": 13672,
  "flawed": 25077,
  "ships": 3719,
  "deserted": 12768,
  "kid": 4845,
  "sporting": 7419,
  "councillors": 13189,
  "##tman": 22942,
  "prints": 11204,
  "夫": 1813,
  "erica": 19295,
  "supposed": 4011,
  "30th": 13293,
  "##25": 17788,
  "##vana": 27313,
  "libre": 21091,
  "franco": 9341,
  "##li": 3669,
  "ruled": 5451,
  "dose": 13004,
  "zimbabwe": 11399,
  "forthcoming": 16875,
  "cape": 4880,
  "##nets": 22781,
  "tag": 6415,
  "ˢ": 1152,
  "fluid": 8331,
  "##eries": 28077,
  "##戦": 30382,
  "improve": 5335,
  "duke": 3804,
  "towns": 4865,
  "[unused545]": 550,
  "almond": 26011,
  "rodeo": 18936,
  "norwich": 12634,
  "cells": 4442,
  "##bus": 8286,
  "morales": 17103,
  "verandah": 26153,
  "flies": 10029,
  "dynamite": 21719,
  "talent": 5848,
  "##lina": 13786,
  "offspring": 13195,
  "demonic": 23170,
  "anthropological": 28395,
  "minorities": 14302,
  "baskets": 25946,
  "##ь": 23742,
  "blunt": 14969,
  "blanket": 8768,
  "segregated": 24382,
  "riff": 24808,
  "dreamed": 13830,
  "##☉": 30149,
  "##zily": 28431,
  "[unused58]": 59,
  "instincts": 16160,
  "clarify": 25037,
  "##mmer": 15810,
  "detained": 14620,
  "wielding": 26974,
  "vic": 10967,
  "steer": 20634,
  "##田": 30437,
  "drums": 3846,
  "clifton": 16271,
  "##tors": 6591,
  "edison": 17046,
  "[unused163]": 168,
  "intensity": 8015,
  "##orous": 25373,
  "connection": 4434,
  "##ˡ": 29716,
  "volta": 26089,
  "##urer": 27595,
  "川": 1835,
  "##jos": 19929,
  "cochrane": 22329,
  "facing": 5307,
  "##ₓ": 30092,
  "##橋": 30411,
  "tobias": 16858,
  "cisco": 26408,
  "##xie": 16898,
  "causing": 4786,
  "laurence": 10883,
  "##ja": 3900,
  "ford": 4811,
  "few": 2261,
  "mormon": 15111,
  "everyone": 3071,
  "sichuan": 20980,
  "casts": 23942,
  "boil": 26077,
  "deliver": 8116,
  "##hue": 20169,
  "promotion": 4712,
  "##ive": 3512,
  "receiving": 4909,
  "investor": 14316,
  "[unused665]": 670,
  "』": 1644,
  "lyman": 27587,
  "freeze": 13184,
  "dwight": 14304,
  "rock": 2600,
  "##і": 29760,
  "imaginative": 28575,
  "##ifer": 23780,
  "recipe": 17974,
  "caroline": 7981,
  "formation": 4195,
  "[unused133]": 138,
  "##lation": 13490,
  "latter": 3732,
  "surrendered": 10795,
  "mast": 15429,
  "tremble": 20627,
  "continent": 9983,
  "nod": 7293,
  "norfolk": 7735,
  "1850s": 16488,
  "erroneously": 29411,
  "stormy": 24166,
  "turret": 14493,
  "protocol": 8778,
  "##wat": 24281,
  "anders": 15387,
  "denomination": 18683,
  "##ivist": 21997,
  "infamous": 14429,
  "ᄌ": 1464,
  "pretended": 14688,
  "movements": 5750,
  "lenny": 19065,
  "colt": 9110,
  "commons": 7674,
  "[unused520]": 525,
  "freighter": 27945,
  "contenders": 27236,
  "inverness": 22937,
  "rebel": 8443,
  "smoking": 9422,
  "tentacles": 24719,
  "fashion": 4827,
  "just": 2074,
  "weaving": 15360,
  "eighth": 5964,
  "ս": 1234,
  "calmly": 12885,
  "vicar": 12340,
  "email": 10373,
  "##cycle": 23490,
  "hezbollah": 25713,
  "dickinson": 17590,
  "keel": 19602,
  "[unused177]": 182,
  "911": 19989,
  "capable": 5214,
  "##く": 30179,
  "sachs": 22818,
  "reagan": 11531,
  "granted": 4379,
  "torture": 8639,
  "horseshoe": 23449,
  "##ero": 10624,
  "hurriedly": 23878,
  "acoustic": 6490,
  "offer": 3749,
  "##gold": 21270,
  "inauguration": 17331,
  "ballistic": 19630,
  "victoria": 3848,
  "pollock": 25218,
  "hacking": 23707,
  "alla": 25699,
  "marines": 9622,
  "eliza": 13234,
  "ambiguity": 27637,
  "##ung": 5575,
  "##wara": 11872,
  "squares": 14320,
  "##bel": 8671,
  "calculation": 17208,
  "reuben": 17294,
  "secretive": 28607,
  "##gam": 22864,
  "##ently": 28198,
  "[unused269]": 274,
  "2a": 23409,
  "##sms": 19230,
  "##sta": 9153,
  "[unused472]": 477,
  "205": 16327,
  "nigel": 12829,
  "expressions": 11423,
  "murmurs": 22888,
  "1609": 28058,
  "stream": 5460,
  "297": 27502,
  "1872": 7572,
  "tackle": 11147,
  "such": 2107,
  "employment": 6107,
  "##enbach": 21409,
  "plank": 24000,
  "originate": 21754,
  "demise": 13614,
  "[unused8]": 9,
  "owns": 8617,
  "raju": 25098,
  "babylonian": 26990,
  "trinity": 7124,
  "micah": 17665,
  "司": 1791,
  "##br": 19892,
  "##pid": 23267,
  "##mill": 19912,
  "##ual": 8787,
  "smart": 6047,
  "five": 2274,
  "168": 16923,
  "formats": 11630,
  "steering": 9602,
  "otto": 8064,
  "capt": 14408,
  "ecstasy": 19069,
  "##dez": 24601,
  "bushes": 14568,
  "impacts": 14670,
  "wood": 3536,
  "prospects": 16746,
  "[unused706]": 711,
  "cops": 10558,
  "grand": 2882,
  "sebastien": 28328,
  "irving": 12415,
  "cathy": 18305,
  "features": 2838,
  "secrets": 7800,
  "missy": 25019,
  "##dell": 12662,
  "colored": 6910,
  "rolf": 23381,
  "olds": 19457,
  "馬": 1980,
  "bordeaux": 16384,
  "pony": 15606,
  "maternal": 11062,
  "rows": 10281,
  "eaten": 8828,
  "hilarious": 26316,
  "edgar": 9586,
  "catching": 9105,
  "onions": 24444,
  "##static": 16677,
  "damien": 12587,
  "weighted": 18215,
  "[unused643]": 648,
  "leagues": 8121,
  "secluded": 27044,
  "##ב": 29789,
  "##icient": 20132,
  "munchen": 25802,
  "ᆸ": 1488,
  "funeral": 6715,
  "transparency": 16987,
  "vietnam": 5148,
  "surgeon": 9431,
  "##kovsky": 23829,
  "bows": 21207,
  "dorsal": 12759,
  "bison": 22285,
  "versus": 6431,
  "##bba": 22414,
  "rocks": 5749,
  "envoy": 19918,
  "[unused143]": 148,
  "choice": 3601,
  "robson": 23698,
  "1990": 2901,
  "[unused942]": 947,
  "mattress": 13342,
  "pendulum": 28300,
  "lindsey": 17518,
  "##pis": 18136,
  "superstar": 18795,
  "independently": 9174,
  "augmented": 19335,
  "266": 25162,
  "##pool": 16869,
  "galilee": 28928,
  "newt": 25597,
  "pantheon": 24152,
  "will": 2097,
  "hume": 20368,
  "##oco": 24163,
  "waistband": 27553,
  "mario": 7986,
  "raion": 24235,
  "##〉": 30164,
  "trieste": 25199,
  "sends": 10255,
  "##dee": 26095,
  "reverend": 10547,
  "amos": 13744,
  "kabul": 21073,
  "##ate": 3686,
  "conductors": 23396,
  "francais": 22357,
  "debut": 2834,
  "cool": 4658,
  "##dry": 21190,
  "whispering": 13550,
  "##yed": 20821,
  "vii": 8890,
  "highness": 17114,
  "services": 2578,
  "##land": 3122,
  "##uman": 19042,
  "lim": 18525,
  "1966": 3547,
  "accord": 15802,
  "miserable": 13736,
  "wren": 16255,
  "##laus": 28128,
  "harrow": 24560,
  "genoa": 15771,
  "reyes": 12576,
  "reverted": 16407,
  "continuing": 5719,
  "soothe": 28384,
  "85": 5594,
  "fronts": 21430,
  "kilkenny": 17131,
  "watched": 3427,
  "292": 25797,
  "onwards": 9921,
  "augusta": 13635,
  "##wala": 23877,
  "neill": 11511,
  "toxicity": 22423,
  "223": 20802,
  "[unused754]": 759,
  "unconventional": 23693,
  "swift": 9170,
  "ᄉ": 1461,
  "##re": 2890,
  "large": 2312,
  "cute": 10140,
  "consult": 23363,
  "purple": 6379,
  "angie": 14835,
  "communication": 4807,
  "dismissing": 28913,
  "legends": 9489,
  "##phy": 21281,
  "disqualified": 14209,
  "bronze": 4421,
  "##obe": 20891,
  "[unused843]": 848,
  "mala": 28935,
  "smoke": 5610,
  "##ob": 16429,
  "penny": 10647,
  "##μ": 29728,
  "antiquity": 16433,
  "arias": 25905,
  "##mina": 22311,
  "tilt": 17010,
  "cringed": 23952,
  "[unused638]": 643,
  "goals": 3289,
  "lucas": 6326,
  "##ologist": 8662,
  "discharged": 14374,
  "celia": 18020,
  "horticultural": 26235,
  "newscast": 20306,
  "##ony": 16585,
  "inversion": 28527,
  "##orne": 23846,
  "figurative": 29407,
  "pga": 14198,
  "abundant": 12990,
  "eleventh": 11911,
  "##ting": 3436,
  "strides": 22215,
  "glasses": 7877,
  "##thermal": 23367,
  "##venor": 26806,
  "ul": 17359,
  "repairs": 10315,
  "##market": 20285,
  "##mona": 21781,
  "₎": 1559,
  "undead": 17315,
  "aliens": 12114,
  "string": 5164,
  "##tua": 26302,
  "sheila": 15062,
  "johor": 25268,
  "tractor": 16358,
  "philadelphia": 4407,
  "requirement": 9095,
  "onboard": 27120,
  "brute": 26128,
  "blast": 8479,
  "proclaimed": 10116,
  "##⁸": 30077,
  "##rz": 15378,
  "meet": 3113,
  "remarked": 10783,
  "inflation": 14200,
  "##cat": 11266,
  "castles": 15618,
  "125": 8732,
  "paperback": 13611,
  "fanny": 17813,
  "regaining": 28657,
  "refinery": 21034,
  "underground": 5230,
  "ge": 16216,
  "wayne": 6159,
  "kill": 3102,
  "æ": 1097,
  "asserts": 19514,
  "moran": 17866,
  "⊂": 1610,
  "##pic": 24330,
  "freddie": 15528,
  "##rg": 10623,
  "sobbing": 20040,
  "shocks": 28215,
  "famous": 3297,
  "mw": 12464,
  "glory": 8294,
  "lifeless": 22185,
  "travers": 29053,
  "emile": 17127,
  "yoga": 13272,
  "handed": 4375,
  "kite": 20497,
  "undo": 25672,
  "they": 2027,
  "schoolhouse": 26301,
  "imprint": 15738,
  "shropshire": 19322,
  "jarrett": 24503,
  "##ᄋ": 29999,
  "asserted": 13647,
  "1930s": 5687,
  "lit": 5507,
  "cloud": 6112,
  "incense": 28647,
  "##ually": 28488,
  "parks": 6328,
  "ivo": 28346,
  "##iente": 25099,
  "##haling": 23896,
  "54th": 29570,
  "##bing": 10472,
  "superfamily": 24169,
  "о": 1193,
  "[unused974]": 979,
  "##kat": 24498,
  "sands": 13457,
  "##graphs": 27341,
  "sammy": 14450,
  "ko": 12849,
  "gatherings": 21403,
  "##eki": 26576,
  "taller": 12283,
  "[unused187]": 192,
  "##lands": 8653,
  "mainline": 20575,
  "seventies": 26232,
  "##cal": 9289,
  "kira": 15163,
  "[unused945]": 950,
  "follow": 3582,
  "pavel": 18635,
  "mosques": 21922,
  "enveloped": 25407,
  "1956": 3838,
  "##dded": 19520,
  "##、": 30161,
  "ida": 16096,
  "ى": 1299,
  "handcuffs": 28338,
  "§": 1073,
  "commemorate": 13415,
  "leeds": 7873,
  "scooped": 20804,
  "ze": 27838,
  "tape": 6823,
  "hand": 2192,
  "ol": 19330,
  "venice": 7914,
  "project": 2622,
  "##ious": 6313,
  "flexibility": 16991,
  "modular": 19160,
  "##ulus": 11627,
  "nouvelle": 25207,
  "##section": 29015,
  "...": 2133,
  "floral": 18686,
  "我": 1855,
  "##ivar": 28739,
  "realise": 19148,
  "huge": 4121,
  "transitional": 17459,
  "comprise": 15821,
  "dig": 10667,
  "productive": 13318,
  "leasing": 26707,
  "joins": 9794,
  "##マ": 30249,
  "lego": 23853,
  "228": 22238,
  "pipe": 8667,
  "क": 1315,
  "fools": 18656,
  "forceful": 28552,
  "103": 9800,
  "bout": 10094,
  "said": 2056,
  "assembled": 9240,
  "married": 2496,
  "orion": 18747,
  "##y": 2100,
  "sighted": 19985,
  "gettysburg": 22577,
  "massage": 21881,
  "木": 1875,
  "implementations": 24977,
  "presenters": 25588,
  "springs": 6076,
  "##ado": 9365,
  "[unused402]": 407,
  "sugarcane": 28910,
  "ling": 17002,
  "##buck": 24204,
  "450": 10332,
  "albert": 4789,
  "prevailed": 19914,
  "chloride": 19057,
  "##sable": 19150,
  "##nical": 20913,
  "unacceptable": 21873,
  "ce": 8292,
  "demetrius": 28367,
  "archeological": 23005,
  "wastewater": 28269,
  "electoral": 6092,
  "navarro": 23524,
  "channels": 6833,
  "##trom": 13887,
  "imperialism": 28087,
  "transitions": 22166,
  "ron": 6902,
  "##sis": 6190,
  "mont": 18318,
  "##57": 28311,
  "##vate": 16952,
  "1766": 21410,
  "antibody": 27781,
  "tilted": 9939,
  "interest": 3037,
  "excavations": 14018,
  "penn": 9502,
  "##raphy": 26228,
  "inflammation": 21733,
  "##otho": 29288,
  "##neuve": 28104,
  "grabbed": 4046,
  "##井": 30280,
  "##ffin": 15379,
  "##omp": 25377,
  "sentence": 6251,
  "carmichael": 23537,
  "teens": 13496,
  "contingent": 15445,
  "fabrication": 25884,
  "partially": 6822,
  "##eaux": 25639,
  "分": 1775,
  "proliferation": 20250,
  "bungalow": 27563,
  "spins": 23371,
  "“": 1523,
  "##forth": 15628,
  "##iti": 25090,
  "illegally": 17800,
  "ravens": 17272,
  "ramon": 12716,
  "##uf": 16093,
  "enter": 4607,
  "airline": 8582,
  "trier": 25487,
  "siberian": 21822,
  "fulfillment": 29362,
  "ridiculous": 9951,
  "officers": 3738,
  "regrets": 23161,
  "##sque": 17729,
  "sutherland": 14274,
  "siegfried": 25948,
  "jun": 12022,
  "310": 17196,
  "drastic": 23956,
  "content": 4180,
  "##₄": 17004,
  "##az": 10936,
  "chimneys": 28885,
  "encoded": 12359,
  "blanca": 27538,
  "tq": 28816,
  "proves": 16481,
  "caressed": 21473,
  "##½": 13714,
  "五": 1753,
  "ached": 15043,
  "ideals": 15084,
  "patronage": 15694,
  "existing": 4493,
  "episodes": 4178,
  "progress": 5082,
  "##bina": 21114,
  "flotilla": 17150,
  "##э": 29756,
  "##ी": 29878,
  "[unused517]": 522,
  "slaughter": 14574,
  "carving": 18441,
  "そ": 1660,
  "ying": 20879,
  "raised": 2992,
  "enzyme": 9007,
  "##ryn": 18143,
  "inscribed": 14551,
  "protocols": 16744,
  "peak": 4672,
  "sewage": 19873,
  "billings": 26124,
  "unbroken": 29505,
  "character": 2839,
  "conrad": 10931,
  "genes": 9165,
  "##gp": 21600,
  "shenzhen": 26555,
  "cab": 9298,
  "whiskey": 13803,
  "[unused549]": 554,
  "steele": 12872,
  "questions": 3980,
  "values": 5300,
  "spaghetti": 26666,
  "mind": 2568,
  "injuries": 6441,
  "aerospace": 13395,
  "sidewalks": 28386,
  "##o": 2080,
  "lash": 25210,
  "390": 20024,
  "translating": 22969,
  "ana": 9617,
  "amber": 8994,
  "gibbons": 22194,
  "##grad": 16307,
  "synod": 15374,
  "[unused841]": 846,
  "screaming": 7491,
  "ho": 7570,
  "tuck": 18029,
  "healer": 19783,
  "##fixed": 23901,
  "wakefield": 16045,
  "1821": 11723,
  "knit": 22404,
  "ethics": 9615,
  "##gee": 18372,
  "thom": 19438,
  "classifications": 26739,
  "lurched": 21977,
  "hawthorne": 23440,
  "shortened": 12641,
  "nsa": 23971,
  "operatic": 22534,
  "lingering": 15304,
  "[unused503]": 508,
  "dangerously": 20754,
  "##dates": 27122,
  "flanagan": 26558,
  "madagascar": 11934,
  "legislator": 22964,
  "maintains": 9319,
  "mavericks": 28330,
  "displaying": 14962,
  "concluding": 16228,
  "recommended": 6749,
  "govt": 22410,
  "κ": 1164,
  "evolution": 6622,
  "passages": 13768,
  "bafta": 22284,
  "scholarship": 6566,
  "sandals": 24617,
  "demolished": 7002,
  "wilder": 18463,
  "coaster": 16817,
  "provost": 18523,
  "richmond": 6713,
  "##rted": 17724,
  "bear": 4562,
  "[unused432]": 437,
  "shapes": 10466,
  "volleyball": 7454,
  "stats": 26319,
  "学": 1817,
  "worries": 15508,
  "guadalupe": 23529,
  "ₓ": 1563,
  "mayfield": 27224,
  "louder": 10989,
  "battleship": 17224,
  "preparation": 7547,
  "cheap": 10036,
  "boxer": 10423,
  "higgins": 13466,
  "roots": 6147,
  "[unused190]": 195,
  "##tone": 5524,
  "hounds": 27772,
  "territories": 6500,
  "sync": 26351,
  "##oe": 8913,
  "##ensburg": 28812,
  "pennant": 22690,
  "##よ": 30210,
  "disturb": 22995,
  "tx": 19067,
  "reddish": 14182,
  "mustered": 21900,
  "immune": 11311,
  "spirituality": 21244,
  "1836": 10081,
  "houston": 5395,
  "sore": 14699,
  "admire": 19837,
  "racers": 25791,
  "bees": 13734,
  "stefano": 19618,
  "##mania": 27010,
  "mv": 19842,
  "kilograms": 18857,
  "fernandez": 12023,
  "##gated": 11644,
  "roughly": 5560,
  "##jack": 17364,
  "linear": 7399,
  "relaxing": 19613,
  "comply": 14037,
  "routines": 23964,
  "##tley": 18492,
  "##nir": 29339,
  "tuesday": 9857,
  "geometry": 10988,
  "chicken": 7975,
  "eastbound": 24773,
  "matt": 4717,
  "##長": 30493,
  "##sle": 25016,
  "imagination": 9647,
  "outside": 2648,
  "fridge": 16716,
  "shooting": 5008,
  "trustees": 9360,
  "1635": 27426,
  "[unused782]": 787,
  "rage": 7385,
  "##wart": 18367,
  "##elin": 18809,
  "##øy": 27688,
  "involves": 7336,
  "colton": 21000,
  "jealousy": 14225,
  "dimensional": 8789,
  "##urn": 14287,
  "##pies": 13046,
  "ramos": 18882,
  "attacked": 4457,
  "[unused449]": 454,
  "accident": 4926,
  "punta": 27377,
  "leveled": 22915,
  "marketplace": 18086,
  "tallinn": 21169,
  "##jak": 18317,
  "officials": 4584,
  "sidney": 11430,
  "yelled": 7581,
  "##iny": 24300,
  "agents": 6074,
  "##storm": 19718,
  "existent": 25953,
  "ecosystems": 20440,
  "walsall": 29054,
  "tokugawa": 22065,
  "exploited": 18516,
  "emigration": 20387,
  "##mie": 9856,
  "query": 23032,
  "耳": 1937,
  "identifies": 14847,
  "elemental": 19529,
  "medal": 3101,
  "bland": 20857,
  "balls": 7395,
  "##umble": 26607,
  "resigned": 5295,
  "11th": 6252,
  "refugee": 13141,
  "marrying": 13516,
  "rajasthan": 16815,
  "williams": 3766,
  "hallway": 6797,
  "1839": 10011,
  "stiff": 10551,
  "chile": 7029,
  "[unused311]": 316,
  "##eber": 22669,
  "162": 17832,
  "∆": 1594,
  "slovenia": 10307,
  "peat": 23366,
  "218": 20741,
  "yearbook": 24803,
  "hutton": 20408,
  "##ks": 5705,
  "：": 1993,
  "ultimately": 4821,
  "÷": 1099,
  "cheese": 8808,
  "##rrigan": 28706,
  "downstream": 13248,
  "marijuana": 16204,
  "interpreted": 10009,
  "como": 18609,
  "##†": 30061,
  "territorial": 7894,
  "rousseau": 26868,
  "annabelle": 24722,
  "##ettes": 26592,
  "出": 1774,
  "##rogen": 22991,
  "intention": 6808,
  "ვ": 1443,
  "##ə": 29681,
  "credited": 5827,
  "##ʳ": 29708,
  "steward": 17946,
  "migrants": 16836,
  "ھ": 1307,
  "##aya": 12186,
  "402": 28048,
  "capitol": 9424,
  "filipino": 10275,
  "diffusion": 19241,
  "shipbuilding": 16802,
  "shutter": 28180,
  "pianos": 27864,
  "kw": 6448,
  "unreleased": 13270,
  "pledge": 16393,
  "manage": 6133,
  "[unused199]": 204,
  "sailed": 7434,
  "[unused574]": 579,
  "##cope": 16186,
  "residing": 7154,
  "haynes": 21805,
  "##cting": 11873,
  "sourced": 23184,
  "mammals": 11993,
  "constituted": 11846,
  "powder": 9898,
  "framework": 7705,
  "[unused195]": 200,
  "dogg": 28844,
  "lanes": 10914,
  "flight": 3462,
  "bites": 15424,
  "lowers": 24950,
  "##社": 30450,
  "##松": 30406,
  "ச": 1383,
  "wasps": 23146,
  "campaigned": 16196,
  "##hly": 27732,
  "2010": 2230,
  "[unused816]": 821,
  "games": 2399,
  "а": 1180,
  "##bot": 18384,
  "rivera": 14043,
  "marketed": 11625,
  "chico": 22136,
  "theatrical": 8900,
  "retailers": 16629,
  "caring": 11922,
  "imperfect": 29238,
  "generating": 11717,
  "##entation": 19304,
  "vargas": 20556,
  "ukraine": 5924,
  "guangzhou": 18693,
  "lids": 26122,
  "東": 1879,
  "nation": 3842,
  "horizons": 24484,
  "##kic": 29493,
  "##so": 6499,
  "motionless": 19917,
  "varieties": 9903,
  "telegram": 23921,
  "rat": 9350,
  "407": 28941,
  "blow": 6271,
  "doorway": 7086,
  "signifies": 27353,
  "##ches": 8376,
  "##aus": 20559,
  "##erving": 25164,
  "mabel": 19486,
  "1938": 4260,
  "dia": 22939,
  "taboo": 27505,
  "resisting": 22363,
  "performances": 4616,
  "unite": 15908,
  "##uil": 19231,
  "##fully": 7699,
  "gee": 20277,
  "##v": 2615,
  "##falls": 28067,
  "sect": 17831,
  "מ": 1255,
  "shady": 22824,
  "entrepreneurship": 20213,
  "psychologist": 15034,
  "thinner": 23082,
  "faded": 8105,
  "liberty": 7044,
  "daughters": 5727,
  "##lian": 15204,
  "thierry": 26413,
  "respiratory": 16464,
  "167": 16785,
  "stimulated": 25194,
  "because": 2138,
  "draws": 9891,
  "illusions": 24883,
  "blinding": 19709,
  "wilhelm": 9070,
  "[unused353]": 358,
  "academic": 3834,
  "##nian": 11148,
  "roach": 20997,
  "employed": 4846,
  "compound": 7328,
  "rubbed": 7503,
  "##ก": 29945,
  "hayden": 13872,
  "taft": 19911,
  "信": 1767,
  "freedom": 4071,
  "##ential": 24271,
  "begged": 12999,
  "cure": 9526,
  "only": 2069,
  "detainees": 26485,
  "heather": 9533,
  "nat": 14085,
  "pastures": 24813,
  "##lee": 10559,
  "archaeology": 12009,
  "initially": 3322,
  "##long": 10052,
  "nassau": 14646,
  "stretches": 14082,
  "hearst": 25419,
  "##ease": 19500,
  "##chner": 28254,
  "stored": 8250,
  "##ythe": 26688,
  "auxiliary": 9830,
  "##nni": 23500,
  "shortage": 15843,
  "##lum": 12942,
  "montana": 8124,
  "california": 2662,
  "##ower": 25114,
  "habit": 10427,
  "ם": 1254,
  "padre": 28612,
  "##blood": 26682,
  "coupled": 11211,
  "##pala": 19636,
  "manual": 6410,
  "michele": 15954,
  "lounge": 11549,
  "honours": 8762,
  "translations": 11913,
  "oppose": 15391,
  "[unused847]": 852,
  "flickered": 15999,
  "panzer": 16946,
  "kitchens": 26051,
  "302": 22060,
  "capitalist": 19640,
  "conor": 20545,
  "enabled": 9124,
  "specified": 9675,
  "aviation": 5734,
  "貴": 1953,
  "recycled": 22207,
  "wherever": 11210,
  "benedictine": 21139,
  "hike": 21857,
  "constituency": 5540,
  "thousand": 4595,
  "door": 2341,
  "longing": 15752,
  "formula": 5675,
  "backbone": 21505,
  "somali": 16831,
  "cappella": 23013,
  "##istic": 6553,
  "repairing": 26296,
  "cooking": 8434,
  "##alic": 27072,
  "十": 1783,
  "##icide": 21752,
  "gogh": 26603,
  "##itic": 18291,
  "##mas": 9335,
  "##hered": 27190,
  "dans": 18033,
  "motif": 16226,
  "##พ": 29950,
  "buildings": 3121,
  "practitioners": 14617,
  "playoff": 7808,
  "##bee": 11306,
  "[unused394]": 399,
  "watches": 12197,
  "guise": 21980,
  "ash": 6683,
  "would": 2052,
  "ك": 1293,
  "harmonic": 19452,
  "##に": 30194,
  "minsk": 20790,
  "106": 10114,
  "abu": 8273,
  "##广": 30368,
  "her": 2014,
  "surveying": 19654,
  "##nee": 24045,
  "coordinating": 19795,
  "##basket": 25351,
  "##stis": 29472,
  "inhabited": 9613,
  "galactic": 21375,
  "##phobia": 24920,
  "cuban": 9642,
  "ˈ": 1149,
  "##orted": 15613,
  "cassandra": 15609,
  "caine": 19881,
  "337": 28489,
  "del": 3972,
  "intact": 10109,
  "yun": 22854,
  "launching": 12106,
  "beaumont": 16210,
  "##tie": 9515,
  "ว": 1419,
  "fletcher": 10589,
  "unusual": 5866,
  "hong": 4291,
  "addicted": 23042,
  "consecrated": 12299,
  "overheard": 20443,
  "##athing": 22314,
  "##asurable": 28329,
  "##ₛ": 30098,
  "sidekick": 29240,
  "flyers": 16217,
  "hertfordshire": 18889,
  "##phine": 20738,
  "う": 1648,
  "##eased": 25063,
  "climbs": 18881,
  "ministries": 16410,
  "engines": 5209,
  "obligation": 14987,
  "stating": 5517,
  "ignores": 26663,
  "[unused220]": 225,
  "##р": 16856,
  "clue": 9789,
  "[unused9]": 10,
  "##京": 30281,
  "[unused858]": 863,
  "precedence": 23359,
  "visual": 5107,
  "1890s": 13678,
  "prejudice": 18024,
  "duets": 29410,
  "##tum": 11667,
  "cfl": 18830,
  "¾": 1093,
  "clare": 11152,
  "abbot": 11428,
  "##nity": 22758,
  "thereafter": 6920,
  "magazine": 2932,
  "comrades": 19033,
  "hope": 3246,
  "obligations": 14422,
  "prototype": 8773,
  "hammersmith": 28420,
  "defines": 11859,
  "mart": 20481,
  "dispersal": 27602,
  "tho": 27793,
  "##ault": 23505,
  "mobilized": 27526,
  "##ming": 6562,
  "folded": 6999,
  "##tablished": 28146,
  "##定": 30348,
  "fraudulent": 27105,
  "amplitude": 22261,
  "unnamed": 13294,
  "landing": 4899,
  "firearms": 13780,
  "fixing": 15887,
  "hated": 6283,
  "##ischen": 24488,
  "brightened": 28996,
  "classed": 27811,
  "graffiti": 17990,
  "##aith": 22465,
  "informs": 15670,
  "medial": 23828,
  "standard": 3115,
  "widowed": 22874,
  "resurgence": 26303,
  "##k": 2243,
  "haryana": 23261,
  "78": 6275,
  "remnant": 19614,
  "sentimental": 23069,
  "ই": 1349,
  "dawn": 6440,
  "hobbs": 23748,
  "brennan": 13962,
  "touched": 5028,
  "archived": 9749,
  "cedric": 26170,
  "##ished": 13295,
  "##van": 6212,
  "[unused708]": 713,
  "##佐": 30290,
  "overthrow": 16857,
  "##iman": 18505,
  "paralysis": 26287,
  "##west": 19650,
  "bishops": 8414,
  "interpreter": 19555,
  "online": 3784,
  "##inae": 16414,
  "##と": 30192,
  "instrument": 6602,
  "demands": 7670,
  "didn": 2134,
  "footprints": 24629,
  "##ization": 3989,
  "##arians": 28369,
  "counterpart": 13637,
  "##zaki": 18637,
  "differentiated": 24374,
  "chunk": 20000,
  "meters": 5563,
  "[unused884]": 889,
  "malicious": 24391,
  "swords": 10689,
  "##smith": 21405,
  "lasers": 23965,
  "″": 1532,
  "hydroelectric": 18541,
  "ventures": 13252,
  "##nh": 25311,
  "tired": 5458,
  "##貴": 30479,
  "interpret": 17841,
  "ד": 1244,
  "ancestry": 11377,
  "structures": 5090,
  "dresser": 16641,
  "swindon": 22350,
  "stables": 16232,
  "webb": 10923,
  "achievements": 10106,
  "##rug": 26549,
  "gardener": 19785,
  "eyelids": 16544,
  "1783": 15331,
  "##cut": 12690,
  "vr": 27830,
  "[unused598]": 603,
  "naples": 10553,
  "blaming": 24114,
  "jong": 18528,
  "expanse": 22944,
  "manny": 16320,
  "hague": 14575,
  "batting": 9640,
  "posterior": 15219,
  "spiritual": 6259,
  "calm": 5475,
  "anything": 2505,
  "baby": 3336,
  "en": 4372,
  "80s": 16002,
  "flung": 14016,
  "macmillan": 15434,
  "billed": 14843,
  "captured": 4110,
  "kade": 26159,
  "therese": 25598,
  "##mussen": 29134,
  "doors": 4303,
  "jimenez": 22790,
  "title": 2516,
  "loretta": 28493,
  "##dus": 17619,
  "##cas": 15671,
  "mare": 11941,
  "rhythms": 17900,
  "select": 7276,
  "acquisitions": 19530,
  "paralympic": 17029,
  "##ar": 2906,
  "threads": 16457,
  "decision": 3247,
  "norm": 13373,
  "nanjing": 21455,
  "##rade": 13662,
  "##永": 30422,
  "##num": 19172,
  "loaded": 8209,
  "dmitri": 28316,
  "[unused772]": 777,
  "langdon": 15232,
  "marko": 28003,
  "lear": 26511,
  "##₍": 30087,
  "distribute": 16062,
  "##amp": 16613,
  "rampant": 25883,
  "protectorate": 20394,
  "[unused915]": 920,
  "事": 1751,
  "astonishment": 23819,
  "##mity": 16383,
  "repetitive": 23563,
  "seizure": 18634,
  "mfa": 26913,
  "enough": 2438,
  "pedestrian": 14662,
  "##tyle": 27983,
  "remaining": 3588,
  "fungus": 16622,
  "spears": 13957,
  "harlem": 14864,
  "compromise": 12014,
  "situated": 4350,
  "sabha": 11200,
  "incurred": 22667,
  "##yle": 12844,
  "descriptions": 13271,
  "դ": 1222,
  "danced": 10948,
  "totaling": 21798,
  "integrate": 17409,
  "darting": 24567,
  "shapiro": 24630,
  "gig": 15453,
  "disease": 4295,
  "##hel": 16001,
  "clarkson": 18648,
  "[unused375]": 380,
  "₩": 1573,
  "dh": 28144,
  "##point": 8400,
  "nfl": 5088,
  "santa": 4203,
  "parrot": 22530,
  "molten": 23548,
  "indiana": 5242,
  "geographic": 9183,
  "canadians": 16485,
  "bratislava": 22992,
  "boring": 11771,
  "##tner": 18885,
  "gallery": 3916,
  "verlag": 14552,
  "iraq": 5712,
  "##enburg": 12059,
  "ominous": 23504,
  "##ani": 7088,
  "179": 20311,
  "woodlands": 19268,
  "season": 2161,
  "disagreed": 18335,
  "messengers": 28938,
  "basement": 8102,
  "received": 2363,
  "entities": 11422,
  "shelter": 7713,
  "charm": 11084,
  "##ened": 6675,
  "ी": 1342,
  "conscious": 9715,
  "გ": 1440,
  "nicely": 19957,
  "##ه": 14157,
  "[unused790]": 795,
  "##ays": 22916,
  "heel": 12073,
  "ned": 12311,
  "dfb": 28894,
  "##fish": 7529,
  "shit": 4485,
  "##dman": 21804,
  "chemical": 5072,
  "tibet": 13319,
  "departure": 6712,
  "preface": 18443,
  "zev": 27909,
  "scarcely": 20071,
  "tray": 11851,
  "whereas": 6168,
  "##nes": 5267,
  "quinn": 8804,
  "halle": 19769,
  "drawings": 9254,
  "supermarkets": 26676,
  "sour": 14768,
  "brooke": 11535,
  "hedge": 17834,
  "[unused879]": 884,
  "##ef": 12879,
  "graham": 5846,
  "rep": 16360,
  "headquartered": 9403,
  "ruin": 10083,
  "marcel": 13389,
  "album": 2201,
  "assists": 8456,
  "countdown": 18144,
  "loss": 3279,
  "正": 1888,
  "puzzle": 11989,
  "ao": 20118,
  "averages": 20185,
  "directional": 20396,
  "onset": 14447,
  "aquatics": 26649,
  "##mism": 26725,
  "1802": 13515,
  "paint": 6773,
  "www": 7479,
  "packing": 14743,
  "orson": 25026,
  "##yman": 17906,
  "##ssen": 14416,
  "joshua": 9122,
  "emphasizes": 20618,
  "jillian": 27286,
  "delta": 7160,
  "163": 17867,
  "platinum": 8899,
  "##gs": 5620,
  "##open": 26915,
  "shipments": 24636,
  "rammed": 27653,
  "##db": 18939,
  "hysteria": 29004,
  "pd": 22851,
  "parental": 18643,
  "[unused128]": 133,
  "730": 28004,
  "cow": 11190,
  "pseudo": 18404,
  "astronomers": 26357,
  "wilmington": 17025,
  "##¦": 29649,
  "##astic": 20875,
  "##adt": 18727,
  "advertisement": 15147,
  "lena": 14229,
  "beasts": 15109,
  "comte": 19758,
  "lest": 26693,
  "hurley": 25124,
  "aligned": 13115,
  "##ո": 29779,
  "[unused115]": 120,
  "partner": 4256,
  "[unused485]": 490,
  "idaho": 9795,
  "##dia": 9032,
  "1910s": 28088,
  "sesame": 23605,
  "##person": 27576,
  "[unused547]": 552,
  "rallied": 24356,
  "90": 3938,
  "##ber": 5677,
  "dhabi": 23153,
  "hampshire": 7035,
  "後": 1846,
  "harley": 13653,
  "uci": 14504,
  "masovian": 23703,
  "##dos": 12269,
  "xiii": 15031,
  "donaldson": 23164,
  "deals": 9144,
  "ka": 10556,
  "drunk": 7144,
  "##ulum": 25100,
  "branding": 16140,
  "podcast": 16110,
  "gazette": 11391,
  "[unused888]": 893,
  "optic": 22816,
  "buckingham": 17836,
  "sketch": 11080,
  "litres": 25783,
  "€": 1574,
  "prosecuted": 21651,
  "##eum": 14820,
  "strasbourg": 18104,
  "flick": 17312,
  "horizontally": 23190,
  "##б": 29740,
  "ノ": 1717,
  "cigarettes": 15001,
  "increases": 7457,
  "commitments": 17786,
  "##dra": 7265,
  "properties": 5144,
  "doncaster": 18895,
  "breached": 25769,
  "[unused271]": 276,
  "##olf": 28027,
  "4a": 26424,
  "##հ": 29775,
  "recoil": 27429,
  "hometown": 9627,
  "buick": 28865,
  "312": 21036,
  "delle": 24121,
  "##hip": 5605,
  "philipp": 20765,
  "∘": 1599,
  "soldiers": 3548,
  "temperatures": 7715,
  "##士": 30333,
  "seaman": 21626,
  "meadow": 13244,
  "angola": 13491,
  "flow": 4834,
  "captains": 15755,
  "automated": 12978,
  "laps": 10876,
  "d": 1040,
  "pepsi": 27237,
  "brisk": 28022,
  "indianapolis": 9506,
  "##ם": 29800,
  "amin": 24432,
  "setting": 4292,
  "marseille": 16766,
  "paterson": 19162,
  "camp": 3409,
  "##rat": 8609,
  "tactical": 8608,
  "literally": 6719,
  "##lund": 18028,
  "organizes": 22013,
  "bony": 22678,
  "celtic": 8730,
  "cv": 26226,
  "ط": 1286,
  "nu": 16371,
  "florian": 29517,
  "##enko": 17868,
  "##eis": 17580,
  "##rka": 22379,
  "##don": 5280,
  "tree": 3392,
  "##vances": 26711,
  "##ibe": 20755,
  "bug": 11829,
  "##rgy": 22637,
  "une": 16655,
  "muller": 12304,
  "franchises": 22506,
  "rebounds": 11049,
  "##ᵀ": 30031,
  "##@": 29633,
  "proceeding": 18207,
  "carver": 20163,
  "stall": 13498,
  "automation": 19309,
  "classmate": 23175,
  "pennsylvania": 3552,
  "metis": 26057,
  "##user": 20330,
  "thorpe": 20249,
  "violin": 6710,
  "##cona": 24366,
  "mandated": 16714,
  "goal": 3125,
  "benoit": 21721,
  "reactivated": 28577,
  "bud": 13007,
  "winthrop": 28974,
  "##ʌ": 29700,
  "network": 2897,
  "anyone": 3087,
  "fishes": 21995,
  "adolf": 12500,
  "fuji": 20933,
  "homo": 24004,
  "stolen": 7376,
  "##த": 29921,
  "mates": 14711,
  "dirty": 6530,
  "oslo": 9977,
  "[unused683]": 688,
  "##light": 7138,
  "##ᄇ": 29996,
  "robes": 17925,
  "##ssi": 18719,
  "hospice": 29277,
  "recreation": 8640,
  "##ologies": 20792,
  "booster": 23715,
  "##rries": 26801,
  "architects": 8160,
  "grass": 5568,
  "meaning": 3574,
  "cheng": 15898,
  "£": 1069,
  "##ind": 22254,
  "areas": 2752,
  "ェ": 1697,
  "##tale": 22059,
  "arterial": 25543,
  "banged": 22843,
  "##gua": 19696,
  "novgorod": 24338,
  "multimedia": 14959,
  "[unused560]": 565,
  "##iac": 20469,
  "ц": 1201,
  "fragmentation": 28424,
  "139": 16621,
  "jug": 26536,
  "lux": 28359,
  "[unused137]": 142,
  "playing": 2652,
  "sumatra": 18262,
  "[unused642]": 647,
  "stay": 2994,
  "tricky": 24026,
  "directing": 9855,
  "embarrassed": 10339,
  "rebirth": 22785,
  "##kshi": 27488,
  "encounters": 11340,
  "[unused840]": 845,
  "##ingly": 15787,
  "construction": 2810,
  "##neas": 26737,
  "exhibit": 8327,
  "##kara": 16566,
  "sparkle": 26831,
  "valve": 10764,
  "portico": 23104,
  "secured": 7119,
  "##&": 29617,
  "buzzed": 21377,
  "sole": 7082,
  "recommendation": 12832,
  "##oric": 29180,
  "##lion": 18964,
  "juliana": 24157,
  "ninth": 6619,
  "1752": 24736,
  "qb": 26171,
  "advertising": 6475,
  "credible": 23411,
  "megan": 12756,
  "barnes": 9957,
  "რ": 1451,
  "applying": 11243,
  "##ieu": 17301,
  "originally": 2761,
  "tariffs": 26269,
  "scarred": 21985,
  "##iro": 9711,
  "eternal": 10721,
  "##rbin": 27366,
  "exchanges": 15800,
  "promotions": 15365,
  "exports": 14338,
  "giving": 3228,
  "achilles": 23167,
  "ར": 1434,
  "bahn": 17392,
  "##mum": 27147,
  "rigid": 11841,
  "##bra": 10024,
  "##भ": 29866,
  "##nia": 6200,
  "harbor": 6496,
  "bathrooms": 28942,
  "##պ": 29780,
  "ours": 14635,
  "##良": 30464,
  "respective": 7972,
  "phelps": 20475,
  "stroking": 14943,
  "drag": 8011,
  "##⁷": 30076,
  "tatar": 29241,
  "navigable": 28538,
  "reunion": 10301,
  "tapestry": 25213,
  "[unused22]": 23,
  "grady": 19011,
  "weekends": 13499,
  "paz": 18183,
  "awoke": 19179,
  "rotated": 20931,
  "subsequent": 4745,
  "exhaust": 15095,
  "ち": 1662,
  "elias": 14579,
  "albany": 10283,
  "##pass": 15194,
  "ensembles": 21528,
  "brent": 12895,
  "##nage": 27031,
  "[unused289]": 294,
  "triggered": 13330,
  "cartel": 21680,
  "featuring": 3794,
  "thieves": 15862,
  "barbed": 25007,
  "staffed": 21121,
  "##ᅲ": 30016,
  "therapy": 7242,
  "annexation": 18985,
  "microsoft": 7513,
  "##oop": 18589,
  "interior": 4592,
  "sinatra": 19643,
  "laura": 6874,
  "courthouse": 10816,
  "sultan": 7544,
  "bulb": 20581,
  "##fle": 21031,
  "paradise": 9097,
  "thigh": 10120,
  "brook": 9566,
  "suspicions": 17817,
  "kato": 27496,
  "69": 6353,
  "recital": 25521,
  "##£": 29646,
  "fk": 14352,
  "upstate": 29530,
  "furnished": 19851,
  "¥": 1071,
  "expense": 10961,
  "chain": 4677,
  "##ostal": 29381,
  "##tine": 10196,
  "yen": 18371,
  "cmll": 25395,
  "##nded": 25848,
  "cables": 15196,
  "dancers": 10487,
  "alliance": 4707,
  "drained": 11055,
  "ensuing": 13831,
  "[unused331]": 336,
  "mathematical": 8045,
  "leo": 6688,
  "domains": 13100,
  "rudder": 24049,
  "##ilised": 21758,
  "snacks": 27962,
  "##etz": 26327,
  "speeches": 13867,
  "pulled": 2766,
  "francis": 4557,
  "popping": 20095,
  "mississippi": 5900,
  "analyses": 16478,
  "400": 4278,
  "1861": 6863,
  "॥": 1345,
  "[unused634]": 639,
  "ronan": 18633,
  "icc": 16461,
  "haji": 28174,
  "##elis": 29282,
  "[unused399]": 404,
  "francesca": 15409,
  "goalscorer": 28602,
  "liar": 16374,
  "courses": 5352,
  "satan": 16795,
  "villiers": 25333,
  "entertainment": 4024,
  "superficial": 23105,
  "##esthesia": 25344,
  "1926": 4881,
  "breuning": 18177,
  "##rwin": 27349,
  "helm": 16254,
  "empowerment": 23011,
  "immersed": 26275,
  "countess": 11716,
  "magnum": 19691,
  "bela": 20252,
  "sudden": 5573,
  "##mind": 23356,
  "derives": 12153,
  "georg": 12062,
  "frown": 11330,
  "devastating": 14886,
  "crosby": 14282,
  "handwriting": 24149,
  "bio": 16012,
  "impose": 17607,
  "##不": 30270,
  "1974": 3326,
  "amadeus": 27185,
  "tell": 2425,
  "sand": 5472,
  "##lynn": 27610,
  "1830s": 20400,
  "lowering": 13845,
  "welding": 23604,
  "takahashi": 25585,
  "230": 11816,
  "warmed": 17336,
  "martins": 19953,
  "australia": 2660,
  "neighbourhoods": 27535,
  "omitted": 16647,
  "pens": 25636,
  "compton": 18592,
  "psychedelic": 18147,
  "##rey": 15202,
  "oboe": 22523,
  "one": 2028,
  "armor": 8177,
  "##ingen": 15542,
  "storey": 11676,
  "keeps": 7906,
  "##endez": 28787,
  "##ط": 29828,
  "##dd": 14141,
  "##ropriation": 26121,
  "records": 2636,
  "##iciencies": 28227,
  "[unused105]": 110,
  "hanna": 10579,
  "praises": 27128,
  "kendra": 13812,
  "privileges": 14310,
  "snapping": 15790,
  "beneath": 4218,
  "restrictive": 25986,
  "slices": 25609,
  "surgical": 11707,
  "sir": 2909,
  "corrupted": 27279,
  "cove": 11821,
  "conclusion": 7091,
  "marching": 10998,
  "altogether": 10462,
  "disdain": 25134,
  "profession": 9518,
  "warmer": 16676,
  "##hunter": 25629,
  "groningen": 29070,
  "##lika": 25421,
  "curvature": 25045,
  "uploaded": 21345,
  "purchasing": 13131,
  "dictated": 23826,
  "##dern": 25888,
  "downward": 14047,
  "##hem": 29122,
  "dail": 26181,
  "regional": 3164,
  "##lster": 29576,
  "ι": 1163,
  "showed": 3662,
  "coven": 25248,
  "##tz": 5753,
  "ethiopian": 15101,
  "indicating": 8131,
  "zu": 16950,
  "coma": 16571,
  "ghostly": 24407,
  "learns": 10229,
  "##ug": 15916,
  "is": 2003,
  "##ision": 19969,
  "debuted": 6006,
  "rum": 19379,
  "serena": 14419,
  "##dorf": 11592,
  "rhetoric": 17871,
  "high": 2152,
  "solved": 13332,
  "tribunal": 12152,
  "dental": 11394,
  "march": 2233,
  "##yla": 23943,
  "##opus": 24676,
  "grille": 26192,
  "¢": 1068,
  "improving": 9229,
  "regardless": 7539,
  "blindness": 26290,
  "##ix": 7646,
  "proposing": 21991,
  "electrons": 15057,
  "accommodate": 8752,
  "##cule": 21225,
  "enable": 9585,
  "scoring": 4577,
  "urges": 23876,
  "##ont": 12162,
  "ecole": 12431,
  "##cius": 25393,
  "vulnerability": 18130,
  "moss": 10636,
  "##lbert": 23373,
  "##dable": 20782,
  "platoon": 13799,
  "studios": 4835,
  "fender": 19028,
  "ll": 2222,
  "##log": 21197,
  "##ency": 11916,
  "whereabouts": 18913,
  "colder": 21399,
  "[unused308]": 313,
  "mca": 22432,
  "[unused145]": 150,
  "chef": 10026,
  "cornered": 25878,
  "##cz": 27966,
  "crafted": 19275,
  "molded": 27992,
  "humorous": 14742,
  "pity": 12063,
  "petroleum": 11540,
  "stocks": 15768,
  "ponds": 16879,
  "pot": 8962,
  "面": 1976,
  "[unused688]": 693,
  "audrey": 14166,
  "studied": 3273,
  "balcony": 11673,
  "convey": 16636,
  "abnormalities": 28828,
  "arthritis": 27641,
  "levels": 3798,
  "depended": 17292,
  "clinical": 6612,
  "1909": 5556,
  "pharmaceutical": 13859,
  "chesterfield": 22699,
  "##time": 7292,
  "experimented": 20918,
  "[unused146]": 151,
  "##力": 30304,
  "reds": 12281,
  "heavy": 3082,
  "##sf": 22747,
  "practised": 20439,
  "lieutenant": 3812,
  "cl": 18856,
  "comparable": 12435,
  "headlines": 19377,
  "image": 3746,
  "paddle": 20890,
  "ghanaian": 27202,
  "gottfried": 26142,
  "##0s": 16223,
  "collegiate": 9234,
  "abc": 5925,
  "more": 2062,
  "##健": 30294,
  "##nne": 10087,
  "hoover": 17443,
  "sykes": 23531,
  "confines": 25722,
  "stiffened": 16090,
  "residency": 14079,
  "urban": 3923,
  "প": 1367,
  "rey": 12569,
  "[unused227]": 232,
  "peg": 25039,
  "খ": 1354,
  "[unused978]": 983,
  "reproduced": 22296,
  "rf": 21792,
  "tempest": 22553,
  "mount": 4057,
  "ashby": 28729,
  "downed": 20164,
  "rise": 4125,
  "extent": 6698,
  "cf": 12935,
  "hosted": 4354,
  "weighs": 21094,
  "tattooed": 26464,
  "jews": 5181,
  "malaysian": 11843,
  "activated": 8878,
  "sun": 3103,
  "##ul": 5313,
  "x": 1060,
  "##inium": 27585,
  "##less": 3238,
  "relieve": 15804,
  "enjoyed": 5632,
  "ambitious": 12479,
  "workers": 3667,
  "tail": 5725,
  "ら": 1685,
  "adopting": 16151,
  "##nz": 14191,
  "believer": 24591,
  "by": 2011,
  "1948": 3882,
  "cayman": 26164,
  "dissipated": 22572,
  "buster": 18396,
  "crewe": 22188,
  "galway": 14370,
  "piloted": 27220,
  "##rick": 11285,
  "##へ": 30201,
  "sunderland": 15518,
  "coop": 21859,
  "vie": 20098,
  "converts": 19884,
  "divine": 7746,
  "downloads": 22956,
  "pleas": 22512,
  "fei": 24664,
  "##shan": 9688,
  "beam": 7504,
  "##ff": 4246,
  "##sed": 6924,
  "vilnius": 20513,
  "paw": 22195,
  "counters": 24094,
  "1786": 17436,
  "disused": 26958,
  "##lding": 24573,
  "bring": 3288,
  "powers": 4204,
  "napoli": 29485,
  "incumbent": 7703,
  "##escence": 28964,
  "randall": 12813,
  "##vial": 18660,
  "tanks": 7286,
  "##grating": 28183,
  "wow": 10166,
  "suez": 21974,
  "du": 4241,
  "unanimous": 13604,
  "planted": 8461,
  "cheney": 23745,
  "lawsuit": 9870,
  "primera": 14837,
  "sandra": 12834,
  "plots": 14811,
  "infantry": 3939,
  "murdered": 7129,
  "commented": 7034,
  "##門": 30494,
  "print": 6140,
  "earliest": 5700,
  "##ners": 16912,
  "deteriorated": 20111,
  "##kins": 14322,
  "magician": 16669,
  "holder": 9111,
  "[unused155]": 160,
  "genuine": 10218,
  "##aire": 14737,
  "l": 1048,
  "evangelist": 24036,
  "freshwater": 12573,
  "canvas": 10683,
  "m1": 23290,
  "lemon": 14380,
  "insist": 18292,
  "##fur": 27942,
  "adulthood": 20480,
  "shudder": 18261,
  "arsenal": 9433,
  "financed": 13790,
  "##gill": 19791,
  "interference": 11099,
  "dupont": 22848,
  "save": 3828,
  "upstream": 13909,
  "speculative": 23250,
  "colonists": 15526,
  "##osomal": 27642,
  "[unused419]": 424,
  "chants": 29534,
  "rbi": 16929,
  "touring": 6828,
  "ari": 10488,
  "horizon": 9154,
  "parker": 6262,
  "rotting": 22005,
  "thin": 4857,
  "plates": 7766,
  "para": 11498,
  "insects": 9728,
  "circumstance": 25652,
  "comforting": 16334,
  "wesleyan": 19858,
  "buenos": 9204,
  "ribbon": 10557,
  "twinkle": 29038,
  "kiara": 28870,
  "maiden": 10494,
  "grease": 21956,
  "deciduous": 22411,
  "hiking": 13039,
  "1711": 28455,
  "פ": 1261,
  "[unused618]": 623,
  "##rop": 18981,
  "##rito": 28414,
  "diocesan": 18680,
  "##r": 2099,
  "impulse": 14982,
  "cai": 29080,
  "naacp": 26155,
  "і": 1213,
  "curb": 13730,
  "lasts": 16180,
  "landowner": 20270,
  "following": 2206,
  "65": 3515,
  "filmmakers": 16587,
  "licence": 11172,
  "fiscal": 10807,
  "glad": 5580,
  "paige": 17031,
  "lord": 2935,
  "ata": 29533,
  "plastered": 21832,
  "sd": 17371,
  "midfield": 23071,
  "##bid": 17062,
  "hc": 16731,
  "denounced": 17787,
  "oddly": 15056,
  "kissing": 7618,
  "easily": 4089,
  "circuit": 4984,
  "clutching": 14197,
  "sneaking": 20727,
  "糹": 1934,
  "⟩": 1630,
  "tangle": 24453,
  "楊": 1883,
  "blu": 14154,
  "##urt": 19585,
  "analytics": 25095,
  "jewellery": 21545,
  "kitchen": 3829,
  "##shu": 14235,
  "seat": 2835,
  "assessments": 20794,
  "fairies": 20182,
  "1777": 16144,
  "%": 1003,
  "brewers": 20007,
  "neared": 20832,
  "##gration": 29397,
  "sound": 2614,
  "tribute": 7050,
  "concourse": 28571,
  "hasty": 27151,
  "phased": 21718,
  "##pon": 26029,
  "immortal": 12147,
  "athenian": 26956,
  "off": 2125,
  "yoon": 24863,
  "failure": 4945,
  "moisture": 14098,
  "instructors": 19922,
  "jiangsu": 28091,
  "francois": 8173,
  "mckenna": 21749,
  "under": 2104,
  "frustration": 9135,
  "stallion": 19122,
  "sk": 15315,
  "க": 1382,
  "wearing": 4147,
  "seymour": 13254,
  "##dae": 6858,
  "andy": 5557,
  "switches": 15924,
  "feeling": 3110,
[...]
